#include "magic_wand_model_data.h"


// We need to keep the data array aligned on some architectures.

#ifdef __has_attribute

#define HAVE_ATTRIBUTE(x) __has_attribute(x)

#else

#define HAVE_ATTRIBUTE(x) 0

#endif

#if HAVE_ATTRIBUTE(aligned) || (defined(__GNUC__) && !defined(__clang__))

#define DATA_ALIGN_ATTRIBUTE __attribute__((aligned(4)))

#else

#define DATA_ALIGN_ATTRIBUTE

#endif

const unsigned char g_magic_wand_model_data[]  = {
  0x1c, 0x00, 0x00, 0x00, 0x54, 0x46, 0x4c, 0x33, 0x14, 0x00, 0x20, 0x00,
  0x04, 0x00, 0x08, 0x00, 0x0c, 0x00, 0x10, 0x00, 0x14, 0x00, 0x00, 0x00,
  0x18, 0x00, 0x1c, 0x00, 0x14, 0x00, 0x00, 0x00, 0x03, 0x00, 0x00, 0x00,
  0x18, 0x00, 0x00, 0x00, 0x2c, 0x00, 0x00, 0x00, 0xd8, 0x00, 0x00, 0x00,
  0x2c, 0x00, 0x00, 0x00, 0x80, 0x00, 0x00, 0x00, 0x78, 0x00, 0x00, 0x00,
  0x05, 0x00, 0x00, 0x00, 0x28, 0x07, 0x00, 0x00, 0x44, 0x06, 0x00, 0x00,
  0xbc, 0x03, 0x00, 0x00, 0xf8, 0x02, 0x00, 0x00, 0xac, 0x01, 0x00, 0x00,
  0x01, 0x00, 0x00, 0x00, 0xd0, 0x00, 0x00, 0x00, 0x14, 0x00, 0x00, 0x00,
  0xdc, 0x32, 0x00, 0x00, 0xd8, 0x32, 0x00, 0x00, 0xd0, 0x31, 0x00, 0x00,
  0x1c, 0x31, 0x00, 0x00, 0x74, 0x30, 0x00, 0x00, 0xfc, 0x2f, 0x00, 0x00,
  0x90, 0x2f, 0x00, 0x00, 0x40, 0x13, 0x00, 0x00, 0xec, 0x11, 0x00, 0x00,
  0x10, 0x10, 0x00, 0x00, 0xb4, 0x07, 0x00, 0x00, 0xb0, 0x32, 0x00, 0x00,
  0xac, 0x32, 0x00, 0x00, 0xa8, 0x32, 0x00, 0x00, 0xa4, 0x32, 0x00, 0x00,
  0xa0, 0x32, 0x00, 0x00, 0x9c, 0x32, 0x00, 0x00, 0x98, 0x32, 0x00, 0x00,
  0x94, 0x32, 0x00, 0x00, 0x3c, 0x00, 0x00, 0x00, 0x00, 0x00, 0x00, 0x00,
  0x01, 0x00, 0x00, 0x00, 0x0c, 0x00, 0x00, 0x00, 0x08, 0x00, 0x0c, 0x00,
  0x04, 0x00, 0x08, 0x00, 0x08, 0x00, 0x00, 0x00, 0x08, 0x00, 0x00, 0x00,
  0x13, 0x00, 0x00, 0x00, 0x13, 0x00, 0x00, 0x00, 0x6d, 0x69, 0x6e, 0x5f,
  0x72, 0x75, 0x6e, 0x74, 0x69, 0x6d, 0x65, 0x5f, 0x76, 0x65, 0x72, 0x73,
  0x69, 0x6f, 0x6e, 0x00, 0xb6, 0xce, 0xff, 0xff, 0x04, 0x00, 0x00, 0x00,
  0x10, 0x00, 0x00, 0x00, 0x31, 0x2e, 0x35, 0x2e, 0x30, 0x00, 0x00, 0x00,
  0x00, 0x00, 0x00, 0x00, 0x00, 0x00, 0x00, 0x00, 0x0f, 0x00, 0x00, 0x00,
  0x4d, 0x4c, 0x49, 0x52, 0x20, 0x43, 0x6f, 0x6e, 0x76, 0x65, 0x72, 0x74,
  0x65, 0x64, 0x2e, 0x00, 0x00, 0x00, 0x0e, 0x00, 0x18, 0x00, 0x04, 0x00,
  0x08, 0x00, 0x0c, 0x00, 0x10, 0x00, 0x14, 0x00, 0x0e, 0x00, 0x00, 0x00,
  0x14, 0x00, 0x00, 0x00, 0x5c, 0x00, 0x00, 0x00, 0x60, 0x00, 0x00, 0x00,
  0x64, 0x00, 0x00, 0x00, 0x84, 0x00, 0x00, 0x00, 0x12, 0x00, 0x00, 0x00,
  0x9c, 0x31, 0x00, 0x00, 0x2c, 0x31, 0x00, 0x00, 0x88, 0x30, 0x00, 0x00,
  0xe0, 0x2f, 0x00, 0x00, 0x38, 0x2f, 0x00, 0x00, 0xd4, 0x2e, 0x00, 0x00,
  0x6c, 0x2e, 0x00, 0x00, 0x18, 0x12, 0x00, 0x00, 0xbc, 0x10, 0x00, 0x00,
  0xe0, 0x0e, 0x00, 0x00, 0x0c, 0x06, 0x00, 0x00, 0x28, 0x05, 0x00, 0x00,
  0xe8, 0x03, 0x00, 0x00, 0x3c, 0x03, 0x00, 0x00, 0x98, 0x02, 0x00, 0x00,
  0xd4, 0x01, 0x00, 0x00, 0x10, 0x01, 0x00, 0x00, 0x84, 0x00, 0x00, 0x00,
  0x01, 0x00, 0x00, 0x00, 0x00, 0x00, 0x00, 0x00, 0x01, 0x00, 0x00, 0x00,
  0x11, 0x00, 0x00, 0x00, 0x08, 0x00, 0x00, 0x00, 0x74, 0x05, 0x00, 0x00,
  0x94, 0x04, 0x00, 0x00, 0x78, 0x03, 0x00, 0x00, 0xbc, 0x02, 0x00, 0x00,
  0x30, 0x02, 0x00, 0x00, 0x50, 0x01, 0x00, 0x00, 0xa8, 0x00, 0x00, 0x00,
  0x10, 0x00, 0x00, 0x00, 0x04, 0x00, 0x00, 0x00, 0x6d, 0x61, 0x69, 0x6e,
  0x00, 0x00, 0x00, 0x00, 0x7a, 0xff, 0xff, 0xff, 0x00, 0x00, 0x00, 0x09,
  0x04, 0x00, 0x00, 0x00, 0x1c, 0x00, 0x00, 0x00, 0x10, 0x00, 0x00, 0x00,
  0x04, 0x00, 0x00, 0x00, 0xb2, 0xcf, 0xff, 0xff, 0x00, 0x00, 0x80, 0x3f,
  0x01, 0x00, 0x00, 0x00, 0x11, 0x00, 0x00, 0x00, 0x01, 0x00, 0x00, 0x00,
  0x10, 0x00, 0x00, 0x00, 0xa0, 0xfa, 0xff, 0xff, 0x19, 0x00, 0x00, 0x00,
  0x00, 0x00, 0x00, 0x19, 0x01, 0x00, 0x00, 0x00, 0x40, 0xcf, 0xff, 0xff,
  0x14, 0x00, 0x00, 0x00, 0x12, 0x00, 0x00, 0x00, 0x18, 0x00, 0x00, 0x00,
  0x30, 0x00, 0x00, 0x00, 0x20, 0x00, 0x00, 0x00, 0x02, 0x00, 0x00, 0x00,
  0x01, 0x00, 0x00, 0x00, 0x04, 0x00, 0x00, 0x00, 0x08, 0x00, 0x00, 0x00,
  0x49, 0x64, 0x65, 0x6e, 0x74, 0x69, 0x74, 0x79, 0x00, 0x00, 0x00, 0x00,
  0x02, 0x00, 0x00, 0x00, 0xff, 0xff, 0xff, 0xff, 0x04, 0x00, 0x00, 0x00,
  0x24, 0xd0, 0xff, 0xff, 0x00, 0x00, 0x0e, 0x00, 0x18, 0x00, 0x08, 0x00,
  0x0c, 0x00, 0x10, 0x00, 0x07, 0x00, 0x14, 0x00, 0x0e, 0x00, 0x00, 0x00,
  0x00, 0x00, 0x00, 0x08, 0x03, 0x00, 0x00, 0x00, 0x18, 0x00, 0x00, 0x00,
  0x0c, 0x00, 0x00, 0x00, 0x04, 0x00, 0x00, 0x00, 0x40, 0xcf, 0xff, 0xff,
  0x01, 0x00, 0x00, 0x00, 0x10, 0x00, 0x00, 0x00, 0x03, 0x00, 0x00, 0x00,
  0x0f, 0x00, 0x00, 0x00, 0x07, 0x00, 0x00, 0x00, 0x04, 0x00, 0x00, 0x00,
  0xc8, 0xcf, 0xff, 0xff, 0x14, 0x00, 0x00, 0x00, 0x11, 0x00, 0x00, 0x00,
  0x18, 0x00, 0x00, 0x00, 0x5c, 0x00, 0x00, 0x00, 0x4c, 0x00, 0x00, 0x00,
  0x02, 0x00, 0x00, 0x00, 0x01, 0x00, 0x00, 0x00, 0x04, 0x00, 0x00, 0x00,
  0x34, 0x00, 0x00, 0x00, 0x73, 0x65, 0x71, 0x75, 0x65, 0x6e, 0x74, 0x69,
  0x61, 0x6c, 0x2f, 0x64, 0x65, 0x6e, 0x73, 0x65, 0x5f, 0x31, 0x2f, 0x4d,
  0x61, 0x74, 0x4d, 0x75, 0x6c, 0x3b, 0x73, 0x65, 0x71, 0x75, 0x65, 0x6e,
  0x74, 0x69, 0x61, 0x6c, 0x2f, 0x64, 0x65, 0x6e, 0x73, 0x65, 0x5f, 0x31,
  0x2f, 0x42, 0x69, 0x61, 0x73, 0x41, 0x64, 0x64, 0x00, 0x00, 0x00, 0x00,
  0x02, 0x00, 0x00, 0x00, 0xff, 0xff, 0xff, 0xff, 0x04, 0x00, 0x00, 0x00,
  0xc8, 0xcf, 0xff, 0xff, 0xda, 0xfc, 0xff, 0xff, 0x00, 0x00, 0x00, 0x08,
  0x03, 0x00, 0x00, 0x00, 0x24, 0x00, 0x00, 0x00, 0x18, 0x00, 0x00, 0x00,
  0x0c, 0x00, 0x00, 0x00, 0x00, 0x00, 0x06, 0x00, 0x08, 0x00, 0x07, 0x00,
  0x06, 0x00, 0x00, 0x00, 0x00, 0x00, 0x00, 0x01, 0x01, 0x00, 0x00, 0x00,
  0x0f, 0x00, 0x00, 0x00, 0x03, 0x00, 0x00, 0x00, 0x0e, 0x00, 0x00, 0x00,
  0x06, 0x00, 0x00, 0x00, 0x03, 0x00, 0x00, 0x00, 0xe8, 0xfb, 0xff, 0xff,
  0x09, 0x00, 0x00, 0x00, 0x00, 0x00, 0x00, 0x09, 0x01, 0x00, 0x00, 0x00,
  0x88, 0xd0, 0xff, 0xff, 0x14, 0x00, 0x00, 0x00, 0x10, 0x00, 0x00, 0x00,
  0x18, 0x00, 0x00, 0x00, 0x6c, 0x00, 0x00, 0x00, 0x5c, 0x00, 0x00, 0x00,
  0x02, 0x00, 0x00, 0x00, 0x01, 0x00, 0x00, 0x00, 0x10, 0x00, 0x00, 0x00,
  0x46, 0x00, 0x00, 0x00, 0x73, 0x65, 0x71, 0x75, 0x65, 0x6e, 0x74, 0x69,
  0x61, 0x6c, 0x2f, 0x64, 0x65, 0x6e, 0x73, 0x65, 0x2f, 0x4d, 0x61, 0x74,
  0x4d, 0x75, 0x6c, 0x3b, 0x73, 0x65, 0x71, 0x75, 0x65, 0x6e, 0x74, 0x69,
  0x61, 0x6c, 0x2f, 0x64, 0x65, 0x6e, 0x73, 0x65, 0x2f, 0x52, 0x65, 0x6c,
  0x75, 0x3b, 0x73, 0x65, 0x71, 0x75, 0x65, 0x6e, 0x74, 0x69, 0x61, 0x6c,
  0x2f, 0x64, 0x65, 0x6e, 0x73, 0x65, 0x2f, 0x42, 0x69, 0x61, 0x73, 0x41,
  0x64, 0x64, 0x00, 0x00, 0x02, 0x00, 0x00, 0x00, 0xff, 0xff, 0xff, 0xff,
  0x10, 0x00, 0x00, 0x00, 0xa8, 0xd1, 0xff, 0xff, 0x00, 0x00, 0x0a, 0x00,
  0x10, 0x00, 0x04, 0x00, 0x08, 0x00, 0x0c, 0x00, 0x0a, 0x00, 0x00, 0x00,
  0x02, 0x00, 0x00, 0x00, 0x10, 0x00, 0x00, 0x00, 0x04, 0x00, 0x00, 0x00,
  0x01, 0x00, 0x00, 0x00, 0x0e, 0x00, 0x00, 0x00, 0x02, 0x00, 0x00, 0x00,
  0x0d, 0x00, 0x00, 0x00, 0x05, 0x00, 0x00, 0x00, 0xa8, 0xfc, 0xff, 0xff,
  0x16, 0x00, 0x00, 0x00, 0x00, 0x00, 0x00, 0x16, 0x01, 0x00, 0x00, 0x00,
  0x48, 0xd1, 0xff, 0xff, 0x14, 0x00, 0x00, 0x00, 0x0f, 0x00, 0x00, 0x00,
  0x18, 0x00, 0x00, 0x00, 0x40, 0x00, 0x00, 0x00, 0x30, 0x00, 0x00, 0x00,
  0x02, 0x00, 0x00, 0x00, 0x01, 0x00, 0x00, 0x00, 0x70, 0x00, 0x00, 0x00,
  0x1a, 0x00, 0x00, 0x00, 0x73, 0x65, 0x71, 0x75, 0x65, 0x6e, 0x74, 0x69,
  0x61, 0x6c, 0x2f, 0x66, 0x6c, 0x61, 0x74, 0x74, 0x65, 0x6e, 0x2f, 0x52,
  0x65, 0x73, 0x68, 0x61, 0x70, 0x65, 0x00, 0x00, 0x02, 0x00, 0x00, 0x00,
  0xff, 0xff, 0xff, 0xff, 0x70, 0x00, 0x00, 0x00, 0x2c, 0xd1, 0xff, 0xff,
  0x3e, 0xfe, 0xff, 0xff, 0x00, 0x00, 0x00, 0x05, 0x01, 0x00, 0x00, 0x00,
  0x38, 0x00, 0x00, 0x00, 0x2c, 0x00, 0x00, 0x00, 0x14, 0x00, 0x00, 0x00,
  0x00, 0x00, 0x0e, 0x00, 0x14, 0x00, 0x00, 0x00, 0x10, 0x00, 0x0c, 0x00,
  0x08, 0x00, 0x04, 0x00, 0x0e, 0x00, 0x00, 0x00, 0x03, 0x00, 0x00, 0x00,
  0x01, 0x00, 0x00, 0x00, 0x03, 0x00, 0x00, 0x00, 0x01, 0x00, 0x00, 0x00,
  0x01, 0x00, 0x00, 0x00, 0x0d, 0x00, 0x00, 0x00, 0x01, 0x00, 0x00, 0x00,
  0x0c, 0x00, 0x00, 0x00, 0xe8, 0xd1, 0xff, 0xff, 0x14, 0x00, 0x00, 0x00,
  0x0e, 0x00, 0x00, 0x00, 0x20, 0x00, 0x00, 0x00, 0x58, 0x00, 0x00, 0x00,
  0x40, 0x00, 0x00, 0x00, 0x04, 0x00, 0x00, 0x00, 0x01, 0x00, 0x00, 0x00,
  0x07, 0x00, 0x00, 0x00, 0x01, 0x00, 0x00, 0x00, 0x10, 0x00, 0x00, 0x00,
  0x22, 0x00, 0x00, 0x00, 0x73, 0x65, 0x71, 0x75, 0x65, 0x6e, 0x74, 0x69,
  0x61, 0x6c, 0x2f, 0x6d, 0x61, 0x78, 0x5f, 0x70, 0x6f, 0x6f, 0x6c, 0x69,
  0x6e, 0x67, 0x32, 0x64, 0x5f, 0x31, 0x2f, 0x4d, 0x61, 0x78, 0x50, 0x6f,
  0x6f, 0x6c, 0x00, 0x00, 0x04, 0x00, 0x00, 0x00, 0xff, 0xff, 0xff, 0xff,
  0x07, 0x00, 0x00, 0x00, 0x01, 0x00, 0x00, 0x00, 0x10, 0x00, 0x00, 0x00,
  0xe4, 0xd1, 0xff, 0xff, 0x1a, 0xfe, 0xff, 0xff, 0x00, 0x00, 0x00, 0x01,
  0x24, 0x00, 0x00, 0x00, 0x18, 0x00, 0x00, 0x00, 0x04, 0x00, 0x00, 0x00,
  0x0c, 0xfe, 0xff, 0xff, 0x01, 0x00, 0x00, 0x00, 0x01, 0x00, 0x00, 0x00,
  0x00, 0x00, 0x00, 0x01, 0x01, 0x00, 0x00, 0x00, 0x0c, 0x00, 0x00, 0x00,
  0x03, 0x00, 0x00, 0x00, 0x0b, 0x00, 0x00, 0x00, 0x09, 0x00, 0x00, 0x00,
  0x02, 0x00, 0x00, 0x00, 0x90, 0xd2, 0xff, 0xff, 0x14, 0x00, 0x00, 0x00,
  0x0d, 0x00, 0x00, 0x00, 0x20, 0x00, 0x00, 0x00, 0xb8, 0x00, 0x00, 0x00,
  0xa0, 0x00, 0x00, 0x00, 0x04, 0x00, 0x00, 0x00, 0x01, 0x00, 0x00, 0x00,
  0x15, 0x00, 0x00, 0x00, 0x01, 0x00, 0x00, 0x00, 0x10, 0x00, 0x00, 0x00,
  0x83, 0x00, 0x00, 0x00, 0x73, 0x65, 0x71, 0x75, 0x65, 0x6e, 0x74, 0x69,
  0x61, 0x6c, 0x2f, 0x63, 0x6f, 0x6e, 0x76, 0x32, 0x64, 0x5f, 0x31, 0x2f,
  0x52, 0x65, 0x6c, 0x75, 0x3b, 0x73, 0x65, 0x71, 0x75, 0x65, 0x6e, 0x74,
  0x69, 0x61, 0x6c, 0x2f, 0x63, 0x6f, 0x6e, 0x76, 0x32, 0x64, 0x5f, 0x31,
  0x2f, 0x42, 0x69, 0x61, 0x73, 0x41, 0x64, 0x64, 0x3b, 0x73, 0x65, 0x71,
  0x75, 0x65, 0x6e, 0x74, 0x69, 0x61, 0x6c, 0x2f, 0x63, 0x6f, 0x6e, 0x76,
  0x32, 0x64, 0x5f, 0x31, 0x2f, 0x43, 0x6f, 0x6e, 0x76, 0x32, 0x44, 0x3b,
  0x73, 0x65, 0x71, 0x75, 0x65, 0x6e, 0x74, 0x69, 0x61, 0x6c, 0x2f, 0x63,
  0x6f, 0x6e, 0x76, 0x32, 0x64, 0x5f, 0x31, 0x2f, 0x42, 0x69, 0x61, 0x73,
  0x41, 0x64, 0x64, 0x2f, 0x52, 0x65, 0x61, 0x64, 0x56, 0x61, 0x72, 0x69,
  0x61, 0x62, 0x6c, 0x65, 0x4f, 0x70, 0x2f, 0x72, 0x65, 0x73, 0x6f, 0x75,
  0x72, 0x63, 0x65, 0x00, 0x04, 0x00, 0x00, 0x00, 0xff, 0xff, 0xff, 0xff,
  0x15, 0x00, 0x00, 0x00, 0x01, 0x00, 0x00, 0x00, 0x10, 0x00, 0x00, 0x00,
  0xfc, 0xd3, 0xff, 0xff, 0x00, 0x00, 0x0e, 0x00, 0x1a, 0x00, 0x08, 0x00,
  0x0c, 0x00, 0x10, 0x00, 0x07, 0x00, 0x14, 0x00, 0x0e, 0x00, 0x00, 0x00,
  0x00, 0x00, 0x00, 0x05, 0x01, 0x00, 0x00, 0x00, 0x3c, 0x00, 0x00, 0x00,
  0x30, 0x00, 0x00, 0x00, 0x14, 0x00, 0x00, 0x00, 0x00, 0x00, 0x0e, 0x00,
  0x18, 0x00, 0x17, 0x00, 0x10, 0x00, 0x0c, 0x00, 0x08, 0x00, 0x04, 0x00,
  0x0e, 0x00, 0x00, 0x00, 0x03, 0x00, 0x00, 0x00, 0x03, 0x00, 0x00, 0x00,
  0x03, 0x00, 0x00, 0x00, 0x03, 0x00, 0x00, 0x00, 0x00, 0x00, 0x00, 0x01,
  0x01, 0x00, 0x00, 0x00, 0x0b, 0x00, 0x00, 0x00, 0x01, 0x00, 0x00, 0x00,
  0x0a, 0x00, 0x00, 0x00, 0x2c, 0xff, 0xff, 0xff, 0x11, 0x00, 0x00, 0x00,
  0x00, 0x00, 0x00, 0x11, 0x01, 0x00, 0x00, 0x00, 0xcc, 0xd3, 0xff, 0xff,
  0x14, 0x00, 0x00, 0x00, 0x0c, 0x00, 0x00, 0x00, 0x20, 0x00, 0x00, 0x00,
  0x58, 0x00, 0x00, 0x00, 0x40, 0x00, 0x00, 0x00, 0x04, 0x00, 0x00, 0x00,
  0x01, 0x00, 0x00, 0x00, 0x15, 0x00, 0x00, 0x00, 0x01, 0x00, 0x00, 0x00,
  0x08, 0x00, 0x00, 0x00, 0x20, 0x00, 0x00, 0x00, 0x73, 0x65, 0x71, 0x75,
  0x65, 0x6e, 0x74, 0x69, 0x61, 0x6c, 0x2f, 0x6d, 0x61, 0x78, 0x5f, 0x70,
  0x6f, 0x6f, 0x6c, 0x69, 0x6e, 0x67, 0x32, 0x64, 0x2f, 0x4d, 0x61, 0x78,
  0x50, 0x6f, 0x6f, 0x6c, 0x00, 0x00, 0x00, 0x00, 0x04, 0x00, 0x00, 0x00,
  0xff, 0xff, 0xff, 0xff, 0x15, 0x00, 0x00, 0x00, 0x01, 0x00, 0x00, 0x00,
  0x08, 0x00, 0x00, 0x00, 0xd8, 0xd4, 0xff, 0xff, 0x00, 0x00, 0x0e, 0x00,
  0x14, 0x00, 0x00, 0x00, 0x08, 0x00, 0x0c, 0x00, 0x07, 0x00, 0x10, 0x00,
  0x0e, 0x00, 0x00, 0x00, 0x00, 0x00, 0x00, 0x01, 0x30, 0x00, 0x00, 0x00,
  0x24, 0x00, 0x00, 0x00, 0x10, 0x00, 0x00, 0x00, 0x0c, 0x00, 0x10, 0x00,
  0x00, 0x00, 0x04, 0x00, 0x08, 0x00, 0x0f, 0x00, 0x0c, 0x00, 0x00, 0x00,
  0x01, 0x00, 0x00, 0x00, 0x01, 0x00, 0x00, 0x00, 0x00, 0x00, 0x00, 0x01,
  0x01, 0x00, 0x00, 0x00, 0x0a, 0x00, 0x00, 0x00, 0x03, 0x00, 0x00, 0x00,
  0x00, 0x00, 0x00, 0x00, 0x08, 0x00, 0x00, 0x00, 0x01, 0x00, 0x00, 0x00,
  0x0c, 0x00, 0x10, 0x00, 0x0b, 0x00, 0x00, 0x00, 0x0c, 0x00, 0x04, 0x00,
  0x0c, 0x00, 0x00, 0x00, 0x03, 0x00, 0x00, 0x00, 0x00, 0x00, 0x00, 0x03,
  0x01, 0x00, 0x00, 0x00, 0xac, 0xd4, 0xff, 0xff, 0x14, 0x00, 0x00, 0x00,
  0x0b, 0x00, 0x00, 0x00, 0x20, 0x00, 0x00, 0x00, 0xb0, 0x00, 0x00, 0x00,
  0x98, 0x00, 0x00, 0x00, 0x04, 0x00, 0x00, 0x00, 0x01, 0x00, 0x00, 0x00,
  0x40, 0x00, 0x00, 0x00, 0x03, 0x00, 0x00, 0x00, 0x08, 0x00, 0x00, 0x00,
  0x7b, 0x00, 0x00, 0x00, 0x73, 0x65, 0x71, 0x75, 0x65, 0x6e, 0x74, 0x69,
  0x61, 0x6c, 0x2f, 0x63, 0x6f, 0x6e, 0x76, 0x32, 0x64, 0x2f, 0x52, 0x65,
  0x6c, 0x75, 0x3b, 0x73, 0x65, 0x71, 0x75, 0x65, 0x6e, 0x74, 0x69, 0x61,
  0x6c, 0x2f, 0x63, 0x6f, 0x6e, 0x76, 0x32, 0x64, 0x2f, 0x42, 0x69, 0x61,
  0x73, 0x41, 0x64, 0x64, 0x3b, 0x73, 0x65, 0x71, 0x75, 0x65, 0x6e, 0x74,
  0x69, 0x61, 0x6c, 0x2f, 0x63, 0x6f, 0x6e, 0x76, 0x32, 0x64, 0x2f, 0x43,
  0x6f, 0x6e, 0x76, 0x32, 0x44, 0x3b, 0x73, 0x65, 0x71, 0x75, 0x65, 0x6e,
  0x74, 0x69, 0x61, 0x6c, 0x2f, 0x63, 0x6f, 0x6e, 0x76, 0x32, 0x64, 0x2f,
  0x42, 0x69, 0x61, 0x73, 0x41, 0x64, 0x64, 0x2f, 0x52, 0x65, 0x61, 0x64,
  0x56, 0x61, 0x72, 0x69, 0x61, 0x62, 0x6c, 0x65, 0x4f, 0x70, 0x2f, 0x72,
  0x65, 0x73, 0x6f, 0x75, 0x72, 0x63, 0x65, 0x00, 0x04, 0x00, 0x00, 0x00,
  0xff, 0xff, 0xff, 0xff, 0x40, 0x00, 0x00, 0x00, 0x03, 0x00, 0x00, 0x00,
  0x08, 0x00, 0x00, 0x00, 0x00, 0xd5, 0xff, 0xff, 0x0a, 0xd6, 0xff, 0xff,
  0x04, 0x00, 0x00, 0x00, 0x00, 0x08, 0x00, 0x00, 0xa3, 0xa4, 0xd5, 0x3d,
  0x33, 0x79, 0xe0, 0xbe, 0xa1, 0x69, 0x8a, 0xbc, 0x6f, 0x36, 0xa8, 0x3e,
  0x27, 0x78, 0xe9, 0x3d, 0x12, 0x52, 0x94, 0x3e, 0xc6, 0xbe, 0x37, 0xbe,
  0x68, 0xa3, 0xd8, 0xbe, 0xf7, 0xf8, 0x09, 0x3d, 0x9b, 0x23, 0x15, 0xbf,
  0x5c, 0x21, 0x89, 0x3e, 0x0d, 0x1b, 0x8b, 0xbe, 0x07, 0x5b, 0xf7, 0xbd,
  0x5d, 0x06, 0x08, 0x3e, 0x87, 0x16, 0x9c, 0xbe, 0x82, 0xb3, 0xe7, 0xbe,
  0xd2, 0x08, 0x97, 0x3c, 0xf3, 0x6e, 0xbf, 0xbe, 0x01, 0x9d, 0x1a, 0x3d,
  0xfe, 0x35, 0xcc, 0xbc, 0x94, 0x0f, 0xee, 0xbd, 0x3a, 0x1a, 0x24, 0x3e,
  0x40, 0xf4, 0x09, 0xbe, 0xd4, 0xa4, 0x9a, 0xbe, 0xfe, 0xa4, 0x06, 0xbc,
  0x04, 0x82, 0xac, 0xbe, 0x35, 0x35, 0x9f, 0xbc, 0x9d, 0x97, 0xef, 0x3e,
  0x56, 0x81, 0x20, 0x3d, 0x64, 0xcb, 0x9e, 0x3e, 0xcd, 0x8a, 0xc2, 0xbc,
  0x09, 0x59, 0x1a, 0xbe, 0x82, 0x7e, 0x8d, 0xbd, 0xfd, 0xe9, 0x33, 0x3d,
  0x82, 0xf9, 0xc2, 0x3d, 0x36, 0x12, 0x70, 0x3e, 0xa5, 0x94, 0xad, 0xbe,
  0x5c, 0xfa, 0x29, 0x3d, 0xef, 0x14, 0x3d, 0x3e, 0x49, 0xef, 0x91, 0x3e,
  0xf0, 0x4f, 0x37, 0x3e, 0x34, 0x3c, 0xce, 0xbd, 0x7e, 0x22, 0xac, 0xbc,
  0x35, 0x55, 0x5e, 0x3e, 0xe7, 0xa1, 0x3f, 0xbf, 0x45, 0x17, 0x08, 0x3e,
  0x92, 0xdf, 0x32, 0x3e, 0xa9, 0xac, 0x7c, 0xbc, 0x87, 0x88, 0x37, 0x3e,
  0xb0, 0xd7, 0xeb, 0xbd, 0xf0, 0x39, 0x03, 0xbf, 0x87, 0xbb, 0x83, 0x3e,
  0x34, 0x46, 0xca, 0xbe, 0xf9, 0xb5, 0xd9, 0xbc, 0x41, 0x05, 0x56, 0xbe,
  0x14, 0x8e, 0x9c, 0xbd, 0x15, 0x69, 0xed, 0x3c, 0x88, 0x3f, 0x64, 0xbe,
  0x35, 0xcc, 0x0e, 0xbf, 0x97, 0x44, 0xe4, 0x3e, 0x46, 0xf5, 0x39, 0xbe,
  0xce, 0x2c, 0x42, 0xbe, 0xcf, 0xcc, 0xc9, 0xbe, 0x73, 0xf4, 0x29, 0xbe,
  0xf2, 0xd2, 0x22, 0xbe, 0xd3, 0x8b, 0x95, 0x3e, 0x3f, 0x16, 0x82, 0x3e,
  0x49, 0xb5, 0x94, 0xbe, 0xdc, 0xb8, 0xca, 0xbd, 0xc6, 0x06, 0x7b, 0x3e,
  0xad, 0x02, 0xea, 0xbd, 0xef, 0x37, 0xdb, 0x3d, 0xd8, 0x2a, 0x3c, 0xbe,
  0x2f, 0x89, 0x65, 0xbd, 0x18, 0xe1, 0xc7, 0x3e, 0x98, 0x44, 0xfa, 0xbe,
  0x3e, 0x37, 0x47, 0xbe, 0x78, 0xeb, 0x6b, 0xbe, 0xb0, 0xfc, 0x5c, 0xbd,
  0xe8, 0xe4, 0x53, 0xbd, 0xb5, 0x66, 0xf8, 0xbd, 0x09, 0x7d, 0x74, 0xbd,
  0x7f, 0xa8, 0x30, 0x3e, 0x19, 0xea, 0xf2, 0xbd, 0xb0, 0x9b, 0x88, 0xbe,
  0x93, 0x6c, 0x15, 0xbe, 0xd1, 0xf1, 0xe5, 0x3d, 0xf0, 0x0c, 0xad, 0x3c,
  0x5a, 0xe7, 0x04, 0xbd, 0xf5, 0x5a, 0x09, 0xbe, 0xee, 0x7c, 0x30, 0xbd,
  0xca, 0x77, 0x44, 0xbe, 0x27, 0x68, 0xb6, 0xbe, 0x1e, 0xd0, 0x37, 0x3e,
  0xb9, 0x61, 0x93, 0xbd, 0x0c, 0x0b, 0x12, 0xbe, 0xa8, 0x9f, 0xb7, 0x3d,
  0x57, 0x8c, 0xd7, 0xb9, 0xc7, 0x91, 0x2d, 0x3e, 0x6d, 0x2c, 0x00, 0xbe,
  0x9a, 0x82, 0x4c, 0x3e, 0xd4, 0x7e, 0x02, 0xbf, 0xa8, 0x91, 0x0f, 0x3e,
  0xc7, 0x32, 0xd5, 0x3d, 0x4a, 0x42, 0xd9, 0xbc, 0x2b, 0xb3, 0x1a, 0x3e,
  0xe3, 0xc6, 0x6f, 0xbe, 0x19, 0x72, 0x60, 0xbd, 0xf6, 0xbe, 0x93, 0xba,
  0x54, 0x38, 0xc2, 0x3e, 0xc6, 0xbf, 0x0a, 0x3c, 0x95, 0xe5, 0x84, 0x3d,
  0x8b, 0x01, 0x49, 0x3d, 0xa9, 0xc4, 0x0d, 0xbd, 0xb0, 0xb1, 0x95, 0xbe,
  0x5f, 0x8d, 0xf9, 0xbd, 0xd5, 0x61, 0x7b, 0x3b, 0x20, 0xe1, 0x4a, 0xbe,
  0x5b, 0x3c, 0x8e, 0xbd, 0x89, 0x07, 0x82, 0x3b, 0xa6, 0x42, 0x2d, 0x3e,
  0xf1, 0x35, 0x32, 0xbd, 0x21, 0x9d, 0x5d, 0x3e, 0x5b, 0x92, 0x16, 0xbe,
  0x89, 0x71, 0xa9, 0xbd, 0x32, 0x86, 0x9a, 0x3d, 0x63, 0x35, 0xc1, 0x3a,
  0x2d, 0x5d, 0x92, 0xbd, 0x1f, 0x7f, 0x40, 0xbf, 0x2c, 0x17, 0xe8, 0xbd,
  0x22, 0x24, 0xfd, 0xbd, 0x17, 0xef, 0x02, 0xbd, 0x3b, 0xa0, 0xd8, 0xbd,
  0xfb, 0x0d, 0x89, 0x3b, 0x52, 0xd1, 0x55, 0x3e, 0x76, 0x42, 0x72, 0xbd,
  0xd5, 0x47, 0x90, 0xbe, 0x2d, 0x13, 0x90, 0xbd, 0x6a, 0xb8, 0x6c, 0x3d,
  0x05, 0x0c, 0x8e, 0xbd, 0xe8, 0x3a, 0xeb, 0xbd, 0xee, 0xac, 0x76, 0x3e,
  0xe3, 0xe0, 0x82, 0x3e, 0x9d, 0x04, 0xbf, 0xba, 0x1d, 0x13, 0x9d, 0xbe,
  0xad, 0x81, 0x68, 0xbd, 0x34, 0x7f, 0x21, 0xbe, 0x41, 0x48, 0x8e, 0x3d,
  0x53, 0xdd, 0xb4, 0xbc, 0x5f, 0xf8, 0xab, 0xbd, 0xc6, 0x20, 0xb2, 0xbd,
  0x76, 0x6f, 0x6f, 0xbc, 0x78, 0xf9, 0xd1, 0xbe, 0x1c, 0x22, 0xa0, 0x3e,
  0xcd, 0x6c, 0xb8, 0x3d, 0x0a, 0x2a, 0x02, 0x3e, 0xb2, 0xe0, 0x6b, 0x3e,
  0x41, 0xc0, 0x12, 0x3e, 0x3c, 0x11, 0x08, 0x3d, 0xf6, 0x59, 0x8f, 0x3d,
  0xb8, 0x19, 0xcd, 0xbe, 0x36, 0x3e, 0xc0, 0xbd, 0x79, 0x71, 0x43, 0x3d,
  0x2f, 0x6e, 0xb4, 0xbe, 0x1d, 0x53, 0xb9, 0xbd, 0x20, 0xd1, 0xec, 0x3c,
  0x8f, 0x0b, 0x61, 0xbe, 0x85, 0xb2, 0xda, 0xbd, 0x1c, 0x93, 0xb5, 0xbe,
  0x23, 0x7e, 0x7c, 0xbd, 0x54, 0x29, 0x96, 0x3c, 0xd0, 0x91, 0x6f, 0xbd,
  0xff, 0x14, 0x86, 0xbd, 0x31, 0x57, 0x26, 0xbd, 0xee, 0xd8, 0x89, 0xbd,
  0x72, 0xad, 0xa1, 0xbd, 0xb6, 0xa3, 0x0b, 0xbe, 0xb7, 0xbb, 0x39, 0xbd,
  0xaa, 0xe0, 0x6b, 0xbb, 0xa0, 0x83, 0x9c, 0x3e, 0xfb, 0xd0, 0x3a, 0xbd,
  0x6f, 0x5f, 0xb0, 0x3e, 0xcb, 0xba, 0x0f, 0x3f, 0xcb, 0x21, 0x39, 0xbd,
  0xee, 0x3d, 0xa3, 0xbe, 0x58, 0x37, 0x22, 0x3d, 0xf2, 0x46, 0xb7, 0xbe,
  0xad, 0xb9, 0xdd, 0x3e, 0x98, 0xc4, 0xa0, 0x3d, 0xe6, 0xb7, 0xf7, 0x3d,
  0x5c, 0xff, 0x3e, 0xbd, 0xc1, 0x7f, 0xb1, 0x3d, 0xf0, 0x36, 0xc6, 0xbe,
  0xf1, 0x6e, 0x37, 0x3e, 0x83, 0x1b, 0x1d, 0xbf, 0x73, 0xd6, 0xdc, 0xbd,
  0xf6, 0xf5, 0x3b, 0xbe, 0xe1, 0x25, 0xf9, 0xbd, 0xf0, 0xcc, 0x80, 0xbf,
  0x9f, 0x5f, 0x0a, 0x3e, 0xe0, 0x82, 0xf7, 0xbe, 0xcd, 0x41, 0x5f, 0xbd,
  0x81, 0x67, 0x04, 0xbf, 0x4b, 0x65, 0x31, 0xbd, 0xe7, 0x6f, 0x36, 0xbe,
  0xb0, 0xec, 0xc5, 0x3d, 0xca, 0x99, 0x25, 0xbf, 0x1e, 0xe4, 0x3b, 0x3e,
  0x3c, 0xf5, 0x3c, 0xbe, 0x58, 0x1b, 0xfa, 0xba, 0xbb, 0x6a, 0x8b, 0xbe,
  0x48, 0x0c, 0x09, 0x3d, 0x62, 0x3f, 0x00, 0xbe, 0x91, 0xd1, 0x9b, 0x3e,
  0xbc, 0xef, 0xb9, 0xbe, 0xf8, 0x2d, 0xe7, 0xbc, 0x4f, 0x5d, 0xc5, 0xbc,
  0x4a, 0x27, 0x02, 0x3c, 0xcf, 0x8a, 0xcc, 0xbe, 0xd6, 0x8e, 0x04, 0xbe,
  0x00, 0x8d, 0x07, 0xbe, 0x34, 0x93, 0x69, 0xbb, 0xd4, 0x41, 0x3d, 0xbf,
  0x9a, 0x2c, 0x6d, 0x3d, 0xdd, 0xb7, 0xa8, 0xbc, 0x2a, 0xe9, 0x31, 0xbe,
  0x35, 0xac, 0x1b, 0xbf, 0x8f, 0xe8, 0xa1, 0x3d, 0x55, 0x63, 0x5d, 0xbd,
  0x71, 0x92, 0xb7, 0xbe, 0xae, 0x0b, 0x3e, 0xbe, 0xf1, 0x7a, 0x88, 0xbe,
  0xe6, 0x26, 0x0c, 0x3f, 0x7f, 0x4e, 0x66, 0xbe, 0xe2, 0x29, 0x4e, 0xbe,
  0xf6, 0x21, 0x82, 0x3c, 0x0d, 0x88, 0x7f, 0xbd, 0xee, 0xe0, 0xfa, 0xbc,
  0x3c, 0x9d, 0x56, 0xbe, 0x44, 0x1f, 0xa4, 0xbe, 0x21, 0xf9, 0xd7, 0xbd,
  0xa5, 0x5e, 0xae, 0xbd, 0x33, 0xed, 0xbc, 0x3e, 0x53, 0x78, 0x96, 0xbe,
  0xcb, 0x0a, 0x9e, 0xbc, 0x5e, 0xd9, 0xe8, 0x3d, 0x02, 0x9e, 0xd8, 0x3c,
  0xbd, 0x97, 0xd6, 0xbd, 0xe5, 0x5f, 0x5f, 0xbe, 0x53, 0xcd, 0x31, 0x3e,
  0xab, 0x6d, 0xb7, 0x3e, 0xcf, 0x8a, 0xb0, 0xbe, 0xb5, 0xe3, 0x18, 0xbd,
  0xf3, 0x17, 0x8b, 0x3e, 0x23, 0x93, 0xd7, 0x3d, 0x7b, 0x8c, 0x34, 0x3c,
  0xc8, 0x70, 0x27, 0xbc, 0x71, 0xe6, 0xca, 0xbd, 0x0b, 0x17, 0x4a, 0xbe,
  0x4d, 0x68, 0xdb, 0x3e, 0x24, 0x60, 0xc5, 0xbd, 0x62, 0x63, 0x01, 0xbe,
  0x5e, 0x1a, 0x29, 0xbe, 0xed, 0x6e, 0x08, 0xbe, 0x8c, 0x34, 0x01, 0x3e,
  0xfe, 0x90, 0xd7, 0xbd, 0x51, 0xd4, 0xa2, 0x3d, 0x46, 0x54, 0x0f, 0xba,
  0x82, 0x88, 0x9b, 0xbd, 0xd7, 0xb1, 0xda, 0x3e, 0x09, 0x67, 0x23, 0x3e,
  0x1f, 0x84, 0x0d, 0xbe, 0x3b, 0x88, 0x1f, 0x3e, 0x9a, 0x8c, 0xdb, 0xbd,
  0xb5, 0x1d, 0x48, 0xbe, 0xbf, 0xad, 0xd3, 0xbb, 0xcc, 0x4d, 0x26, 0xbd,
  0x8e, 0x81, 0x9c, 0x3e, 0x18, 0x39, 0x7a, 0x3e, 0x16, 0x52, 0x2a, 0xbe,
  0x7b, 0x67, 0x8b, 0x3d, 0xb4, 0x1a, 0xa5, 0xbd, 0x70, 0x60, 0xac, 0x3e,
  0xc3, 0x64, 0x50, 0xbe, 0xb5, 0x25, 0xd6, 0x3c, 0xb7, 0x9c, 0xfa, 0x3c,
  0xd0, 0x15, 0x95, 0x3d, 0x38, 0x3a, 0x20, 0xbe, 0xdd, 0xd3, 0x24, 0xbe,
  0x21, 0xba, 0x9a, 0xbd, 0xae, 0xc8, 0x5e, 0xbe, 0x90, 0x24, 0xb5, 0x3d,
  0xce, 0xb1, 0x6a, 0x3e, 0x81, 0x92, 0x4c, 0xbe, 0x83, 0x42, 0xc4, 0x3d,
  0x6a, 0xd7, 0xca, 0xbd, 0x75, 0xde, 0x5d, 0xbd, 0x49, 0x56, 0x60, 0xbc,
  0xfd, 0x8e, 0xc4, 0xbd, 0x23, 0x52, 0x0d, 0x3b, 0xb0, 0xbd, 0x14, 0xbe,
  0x42, 0x82, 0xa0, 0xbb, 0x99, 0xc2, 0x1b, 0xbd, 0xca, 0x65, 0x1d, 0xbe,
  0x9d, 0xaf, 0x0f, 0xbd, 0x9b, 0xc9, 0x0c, 0xbe, 0xc1, 0x7a, 0x8f, 0xbe,
  0x71, 0x38, 0x00, 0xbe, 0x05, 0x43, 0xd7, 0x3d, 0x67, 0x9a, 0xe1, 0x3d,
  0xe7, 0x63, 0xc7, 0x3d, 0xb3, 0x80, 0xab, 0xbd, 0x7a, 0x06, 0xaa, 0x3d,
  0x1e, 0x5b, 0x81, 0xbd, 0xd9, 0x34, 0x3c, 0xbe, 0x6a, 0xa4, 0xdd, 0xbd,
  0x1f, 0xf5, 0x4b, 0x3e, 0x79, 0x43, 0x94, 0xbd, 0x25, 0x71, 0x2c, 0xbb,
  0x14, 0x2d, 0xf6, 0xbd, 0x1b, 0xfe, 0xeb, 0xbe, 0xa4, 0xb3, 0x49, 0x3d,
  0xb9, 0x61, 0x12, 0xbd, 0x92, 0x91, 0xd6, 0x3e, 0xdb, 0xd8, 0x78, 0x3e,
  0xe0, 0x2b, 0x7f, 0x3e, 0xa3, 0x1e, 0x73, 0xbe, 0xff, 0xc2, 0x1a, 0x3e,
  0xfa, 0x56, 0x24, 0xbf, 0x2a, 0xa6, 0x24, 0xbd, 0x41, 0xc0, 0x60, 0x3e,
  0xe5, 0x18, 0x61, 0xbe, 0x80, 0x9d, 0x31, 0xbe, 0x6c, 0x19, 0xe4, 0x3d,
  0x03, 0x8f, 0xd6, 0xbe, 0xda, 0x5c, 0x53, 0xbd, 0xce, 0x1e, 0xac, 0xbd,
  0x09, 0xdc, 0x2c, 0xbc, 0x54, 0x98, 0x6f, 0x3e, 0x25, 0xd3, 0x12, 0xbf,
  0x42, 0x71, 0x52, 0xbe, 0x76, 0xb6, 0x00, 0x3e, 0x5b, 0x2b, 0x05, 0xbe,
  0x44, 0xfe, 0xa0, 0xbc, 0x45, 0x59, 0x8a, 0x3b, 0xd5, 0x1b, 0xe5, 0xbd,
  0x9c, 0xd8, 0x4c, 0x3e, 0x9f, 0x73, 0x07, 0xbf, 0x9c, 0x63, 0x8d, 0xbe,
  0x3a, 0x2c, 0xbe, 0x3d, 0x9e, 0xa5, 0x53, 0x3c, 0x6a, 0x47, 0x91, 0xbd,
  0x98, 0x77, 0x87, 0xbe, 0xc1, 0x83, 0x65, 0xbe, 0x03, 0xed, 0xfa, 0xbe,
  0x2b, 0xd7, 0xcb, 0xbe, 0xa7, 0x94, 0xc6, 0x3b, 0x3c, 0x69, 0x5f, 0xbf,
  0xab, 0x59, 0x1d, 0xbe, 0x63, 0x7c, 0x83, 0xbe, 0xba, 0xa4, 0xcc, 0x3e,
  0x59, 0x52, 0x62, 0xbe, 0x21, 0x64, 0x20, 0xbf, 0x8e, 0x28, 0x44, 0x3d,
  0x78, 0x49, 0xf6, 0xbc, 0xb4, 0xfc, 0xb3, 0x3c, 0x45, 0xae, 0x9d, 0xbd,
  0x14, 0xcd, 0x6c, 0xbe, 0x60, 0x55, 0xeb, 0xbc, 0xb3, 0xcb, 0x07, 0xbe,
  0x48, 0x34, 0xa7, 0x3d, 0xbd, 0xe0, 0x03, 0x3f, 0x8f, 0x80, 0x15, 0x3d,
  0x39, 0x1c, 0x8c, 0x3e, 0x54, 0x8e, 0x94, 0xbe, 0x33, 0x82, 0xac, 0xbe,
  0xe2, 0x7d, 0xb3, 0x3d, 0xbe, 0x9f, 0x57, 0xbe, 0x0a, 0x0a, 0xa3, 0x3e,
  0x40, 0xa1, 0x7b, 0xbe, 0x04, 0xf6, 0xe5, 0xbc, 0x13, 0x5b, 0x0a, 0x3e,
  0x7e, 0x28, 0x83, 0xbe, 0x12, 0xbe, 0xa4, 0xbe, 0x5b, 0x65, 0x4a, 0x3f,
  0x02, 0x23, 0x93, 0xbe, 0x05, 0xcc, 0x4b, 0xbe, 0xaa, 0x5b, 0xe7, 0x3a,
  0x53, 0xb7, 0x1a, 0x3e, 0x27, 0x44, 0x33, 0x3e, 0xf6, 0xc7, 0x14, 0xbe,
  0xd3, 0x93, 0xbd, 0xbe, 0x9b, 0x5c, 0xdd, 0xbe, 0x46, 0x0a, 0x6e, 0xbe,
  0xf8, 0xf9, 0x7a, 0x3e, 0x0d, 0x66, 0xab, 0x3e, 0x34, 0xab, 0xf3, 0x3c,
  0x7f, 0x80, 0xfb, 0x3d, 0xfd, 0x9e, 0xac, 0xbd, 0x49, 0xf1, 0xf1, 0xbe,
  0xf7, 0x2e, 0x07, 0xbe, 0x07, 0x16, 0xee, 0xbd, 0x0c, 0x72, 0x15, 0x3c,
  0xa1, 0xe2, 0x9e, 0xbd, 0x7e, 0xe6, 0x67, 0x3c, 0xf9, 0xe5, 0xd9, 0x3e,
  0xbb, 0xa1, 0x44, 0xbe, 0x9b, 0xc7, 0x35, 0xbe, 0xb6, 0x75, 0x9f, 0x3c,
  0xf7, 0xae, 0xc0, 0xbd, 0x12, 0x28, 0xa1, 0x3e, 0xc7, 0xba, 0x0f, 0x3e,
  0x06, 0xb4, 0xcf, 0xbc, 0xfb, 0x22, 0x17, 0xbe, 0x63, 0x2e, 0x52, 0xbb,
  0x30, 0xa2, 0xee, 0xbd, 0x70, 0xdb, 0x14, 0x3e, 0xc9, 0xa4, 0x1c, 0xbf,
  0x6e, 0x70, 0x8e, 0x3e, 0x15, 0xfc, 0x3b, 0x3d, 0x52, 0x19, 0xf6, 0x3b,
  0x52, 0xbd, 0x3f, 0xbd, 0xac, 0x7b, 0x90, 0x3e, 0xe8, 0x52, 0x2b, 0xbe,
  0xaf, 0x29, 0x78, 0x3d, 0xbf, 0xca, 0x11, 0xbf, 0xf4, 0xda, 0xd1, 0x3d,
  0xa3, 0x1d, 0x7a, 0xbd, 0xea, 0xbf, 0x32, 0xbe, 0x83, 0x87, 0x90, 0xbc,
  0xe6, 0x18, 0x50, 0x3e, 0x7f, 0x27, 0x17, 0xbe, 0x3c, 0xda, 0xb1, 0x3e,
  0x3e, 0x4d, 0x1a, 0xbf, 0x00, 0xb7, 0x16, 0x3e, 0x37, 0x5a, 0xdc, 0xbc,
  0xe2, 0x1c, 0xa4, 0xbd, 0xca, 0x93, 0xd5, 0xbd, 0x5f, 0xd2, 0x86, 0x3d,
  0x47, 0x4a, 0x02, 0xbe, 0x7b, 0x39, 0x1d, 0x3e, 0xe2, 0xa7, 0x1e, 0xbf,
  0x61, 0x66, 0xb6, 0x3d, 0x89, 0xfc, 0xe5, 0xbd, 0xb5, 0x7f, 0xb0, 0x3c,
  0x7a, 0xfa, 0x59, 0x3e, 0x5e, 0x63, 0x9d, 0x3e, 0xf6, 0x9c, 0x5a, 0xbe,
  0x08, 0x60, 0x8b, 0xbe, 0xb6, 0x11, 0x5b, 0xbd, 0xf6, 0x42, 0x47, 0x3e,
  0x8b, 0x9a, 0xed, 0xbd, 0x85, 0xcc, 0x07, 0x3e, 0x88, 0xba, 0x92, 0x3e,
  0xb2, 0x66, 0x8b, 0xbe, 0xa1, 0xb6, 0xa1, 0xbd, 0xdc, 0x72, 0x4b, 0xbe,
  0x81, 0x25, 0x90, 0xbc, 0x9a, 0x6f, 0x70, 0x3e, 0x1a, 0xc7, 0x04, 0xbf,
  0x81, 0x8d, 0xf1, 0xbd, 0x83, 0xee, 0x61, 0x3e, 0x65, 0xb7, 0x16, 0x3e,
  0x3b, 0x56, 0xae, 0xbc, 0xb8, 0x11, 0x3f, 0xbc, 0xb3, 0x69, 0x5f, 0x3d,
  0x39, 0xa2, 0x66, 0x3e, 0x7b, 0xc4, 0xf9, 0xbd, 0xb6, 0x2a, 0xf1, 0xbd,
  0x9c, 0x06, 0x9c, 0x3d, 0x6d, 0x00, 0x0f, 0x3d, 0x5c, 0x13, 0x37, 0x3d,
  0xbf, 0x15, 0xa0, 0xbd, 0x80, 0x2b, 0x83, 0x3a, 0x85, 0x46, 0x9b, 0xbe,
  0x02, 0x16, 0x7c, 0xbd, 0x7a, 0x1d, 0x09, 0xbe, 0x7b, 0xaa, 0xb0, 0xbe,
  0xfb, 0x90, 0x85, 0xbd, 0x68, 0x74, 0xb8, 0xbc, 0x5a, 0x01, 0x88, 0x3d,
  0x73, 0x51, 0x77, 0xbe, 0x18, 0x18, 0xcf, 0xbd, 0x9c, 0xda, 0xd1, 0xbe,
  0x2c, 0x57, 0x88, 0xbd, 0x7f, 0x22, 0xbf, 0xbd, 0x61, 0x64, 0xfd, 0xbd,
  0xfb, 0xd8, 0x93, 0xbe, 0xea, 0x39, 0x06, 0xbe, 0x42, 0x9f, 0x1b, 0xbe,
  0x97, 0x58, 0x27, 0x3b, 0x5d, 0x0c, 0xd8, 0x3d, 0x34, 0x38, 0x6d, 0xbd,
  0x39, 0x14, 0x49, 0xbd, 0xc2, 0x72, 0x7f, 0xbd, 0x61, 0x07, 0x3e, 0xbe,
  0x35, 0xd0, 0xce, 0xbd, 0xdc, 0xdc, 0x91, 0xbd, 0x7b, 0x65, 0xff, 0x3e,
  0xf9, 0xfa, 0xa8, 0x3e, 0x45, 0xae, 0x24, 0xbe, 0x0e, 0x13, 0x2a, 0x3f,
  0xb7, 0xf8, 0x8c, 0x3e, 0x9b, 0xcf, 0xb0, 0x3c, 0x56, 0xfa, 0xc3, 0x3d,
  0x36, 0x05, 0xa5, 0xbb, 0x00, 0xd5, 0xa1, 0x3b, 0x82, 0x8a, 0x11, 0x3c,
  0xae, 0x35, 0x98, 0xbe, 0xe9, 0x7b, 0xa1, 0x3d, 0x5b, 0x91, 0x11, 0x3e,
  0xcf, 0x16, 0x06, 0x3d, 0xe2, 0xdd, 0xff, 0xff, 0x10, 0x00, 0x00, 0x00,
  0x0a, 0x00, 0x00, 0x00, 0x1c, 0x00, 0x00, 0x00, 0x38, 0x00, 0x00, 0x00,
  0x04, 0x00, 0x00, 0x00, 0x10, 0x00, 0x00, 0x00, 0x04, 0x00, 0x00, 0x00,
  0x01, 0x00, 0x00, 0x00, 0x08, 0x00, 0x00, 0x00, 0x1a, 0x00, 0x00, 0x00,
  0x73, 0x65, 0x71, 0x75, 0x65, 0x6e, 0x74, 0x69, 0x61, 0x6c, 0x2f, 0x63,
  0x6f, 0x6e, 0x76, 0x32, 0x64, 0x5f, 0x31, 0x2f, 0x43, 0x6f, 0x6e, 0x76,
  0x32, 0x44, 0x00, 0x00, 0x58, 0xdd, 0xff, 0xff, 0x62, 0xde, 0xff, 0xff,
  0x04, 0x00, 0x00, 0x00, 0x80, 0x01, 0x00, 0x00, 0xca, 0xf0, 0xb7, 0x3d,
  0xb6, 0xf2, 0x39, 0xbe, 0x3b, 0xcd, 0x03, 0xbe, 0xf5, 0x47, 0x06, 0xbf,
  0xf1, 0x01, 0xd0, 0xbe, 0x17, 0xbf, 0xa9, 0xbd, 0x35, 0x3e, 0xba, 0x3e,
  0xac, 0x2a, 0xae, 0x3e, 0xcb, 0xc2, 0xe3, 0x3d, 0xc9, 0xd9, 0x8a, 0x3e,
  0x3c, 0x48, 0xeb, 0x3d, 0xef, 0x5d, 0x54, 0xbd, 0x4b, 0x7c, 0xa7, 0xbd,
  0x03, 0xe1, 0xad, 0x3c, 0xf6, 0xd4, 0xa6, 0x3d, 0x6b, 0x75, 0x4e, 0xbd,
  0xcd, 0x4b, 0xea, 0x3c, 0xcf, 0xa3, 0x5e, 0x3d, 0x19, 0xa5, 0xfe, 0xbc,
  0xe8, 0x13, 0xd8, 0x3c, 0x42, 0xe8, 0x13, 0x3d, 0x49, 0x3c, 0x09, 0xbd,
  0xa9, 0xfd, 0x62, 0x3d, 0x0e, 0x78, 0x6b, 0x3d, 0xf5, 0xc8, 0x79, 0x3e,
  0x63, 0x91, 0x96, 0x3e, 0x75, 0x4d, 0xcb, 0x3e, 0x19, 0xa6, 0x83, 0xbd,
  0xe1, 0x59, 0x2f, 0xbd, 0xfa, 0xd3, 0x49, 0xbc, 0x04, 0x87, 0x2e, 0xbe,
  0xdb, 0x6f, 0x98, 0xbe, 0x06, 0xb2, 0xc0, 0xbe, 0x53, 0x83, 0xd8, 0xbc,
  0x29, 0x75, 0xa5, 0xbc, 0x95, 0x16, 0x6b, 0xbc, 0xb1, 0x74, 0x26, 0xbf,
  0x03, 0xa9, 0x73, 0xbe, 0xce, 0x7e, 0x50, 0xbd, 0xda, 0xf4, 0x3e, 0xbe,
  0xd3, 0x81, 0xf7, 0xbd, 0xdd, 0xc0, 0x7e, 0x3d, 0x5c, 0x63, 0x11, 0x3f,
  0x0c, 0xfa, 0x62, 0x3e, 0x16, 0x84, 0x3c, 0xbc, 0x82, 0x15, 0x91, 0x3e,
  0xa9, 0x04, 0x45, 0x3e, 0x72, 0x32, 0x2c, 0x3d, 0x16, 0x6d, 0x70, 0x3e,
  0xe9, 0x9b, 0x78, 0xbc, 0xfd, 0x73, 0x4d, 0x3d, 0x30, 0x99, 0x8d, 0x3c,
  0x45, 0xbe, 0x49, 0xbd, 0x6b, 0x0d, 0x4b, 0xbd, 0x10, 0x3d, 0x66, 0x3e,
  0x2f, 0x6e, 0xfc, 0xbb, 0x00, 0x71, 0xff, 0xbb, 0x74, 0xdc, 0x51, 0x3e,
  0xc2, 0x78, 0x3e, 0x3e, 0x30, 0x22, 0x3b, 0xbe, 0xbb, 0x42, 0x17, 0x3f,
  0xe6, 0xfe, 0x75, 0xbc, 0x4e, 0xf0, 0x56, 0xbe, 0x26, 0x72, 0xf7, 0xbc,
  0x64, 0xfa, 0x21, 0x3d, 0x4e, 0x1c, 0x1c, 0xbe, 0x80, 0x7a, 0xd9, 0xbe,
  0xff, 0x25, 0xc2, 0x3d, 0x62, 0x58, 0xa5, 0x3e, 0xb0, 0x1e, 0xd8, 0xbd,
  0xa4, 0xa4, 0xd1, 0xbd, 0x2d, 0xb9, 0xa0, 0x3d, 0x8c, 0x3c, 0x7a, 0xbd,
  0x3f, 0x71, 0xaa, 0x3e, 0xa9, 0xba, 0x88, 0xbe, 0x6f, 0xb2, 0x74, 0x3d,
  0x56, 0xe5, 0x2d, 0xbe, 0xda, 0xbc, 0x85, 0xbd, 0xd4, 0x1e, 0xfe, 0x3d,
  0x78, 0xad, 0x43, 0xbe, 0x92, 0x2d, 0x38, 0x3e, 0xd9, 0xd2, 0x61, 0xba,
  0x8c, 0x93, 0xcc, 0xbd, 0x58, 0x9f, 0xed, 0x3d, 0x79, 0xfc, 0xbb, 0xbd,
  0x4a, 0xcb, 0xe7, 0xbd, 0xe6, 0x8a, 0x2b, 0x3d, 0x71, 0x1f, 0x41, 0xbd,
  0x48, 0xf6, 0x7c, 0xbc, 0x30, 0xd1, 0x8b, 0x3d, 0x75, 0xcb, 0x4e, 0xbd,
  0xdd, 0x0b, 0x72, 0x3c, 0xe0, 0x2e, 0x39, 0x3d, 0x95, 0x4e, 0x49, 0xbd,
  0x1d, 0x0b, 0x44, 0x3d, 0xd7, 0x28, 0x98, 0x3d, 0xba, 0xdf, 0xff, 0xff,
  0x10, 0x00, 0x00, 0x00, 0x09, 0x00, 0x00, 0x00, 0x1c, 0x00, 0x00, 0x00,
  0x38, 0x00, 0x00, 0x00, 0x04, 0x00, 0x00, 0x00, 0x08, 0x00, 0x00, 0x00,
  0x04, 0x00, 0x00, 0x00, 0x03, 0x00, 0x00, 0x00, 0x01, 0x00, 0x00, 0x00,
  0x18, 0x00, 0x00, 0x00, 0x73, 0x65, 0x71, 0x75, 0x65, 0x6e, 0x74, 0x69,
  0x61, 0x6c, 0x2f, 0x63, 0x6f, 0x6e, 0x76, 0x32, 0x64, 0x2f, 0x43, 0x6f,
  0x6e, 0x76, 0x32, 0x44, 0x00, 0x00, 0x00, 0x00, 0x30, 0xdf, 0xff, 0xff,
  0x3a, 0xe0, 0xff, 0xff, 0x04, 0x00, 0x00, 0x00, 0x00, 0x01, 0x00, 0x00,
  0x9c, 0xb6, 0xed, 0xbe, 0xe6, 0xa9, 0x09, 0xbe, 0xf5, 0x90, 0x2e, 0x3d,
  0x6a, 0xee, 0xa5, 0x3e, 0xaa, 0xa3, 0x41, 0x3e, 0x92, 0x09, 0xa8, 0x3d,
  0xf8, 0xa8, 0x74, 0x3d, 0xce, 0x9f, 0xe4, 0x3e, 0xf5, 0x5b, 0x69, 0x3c,
  0x4e, 0x45, 0x60, 0xbe, 0xe8, 0x84, 0xc4, 0xbd, 0xbd, 0xc3, 0xae, 0x3c,
  0xe6, 0xa6, 0xd3, 0x3e, 0xd5, 0xf4, 0x63, 0xbe, 0x02, 0x48, 0x43, 0x3d,
  0x8d, 0x76, 0xec, 0x3d, 0x97, 0xa7, 0x1b, 0x3e, 0x2e, 0xcf, 0x2f, 0xbe,
  0x71, 0xb9, 0xbe, 0x3d, 0x1f, 0x75, 0x4a, 0xbe, 0x23, 0x34, 0x36, 0xbe,
  0xbc, 0x09, 0xa7, 0x3c, 0x49, 0xfe, 0xcd, 0x3d, 0x67, 0x01, 0xf3, 0x3e,
  0x0d, 0x35, 0x5a, 0x3d, 0x69, 0x49, 0x4a, 0xbe, 0x9b, 0xca, 0xed, 0xbe,
  0x79, 0x66, 0x9a, 0x3c, 0x8d, 0xba, 0xe3, 0x3e, 0x3f, 0x0b, 0xa1, 0x3e,
  0x9f, 0x49, 0x5b, 0x3d, 0x5a, 0x32, 0x11, 0x3e, 0xfc, 0x27, 0x64, 0xbd,
  0xff, 0x05, 0x16, 0xbe, 0xac, 0x93, 0x83, 0x3d, 0x02, 0xd4, 0xa7, 0xbe,
  0x9b, 0x4a, 0xe8, 0xbe, 0xbd, 0x19, 0xf6, 0x3c, 0x57, 0x7e, 0x4a, 0x3e,
  0x6d, 0x42, 0xb6, 0x3e, 0x26, 0xf2, 0xcf, 0x3c, 0x42, 0xc6, 0x96, 0xbe,
  0x86, 0xa4, 0xd0, 0xbe, 0xb0, 0x80, 0xee, 0x3d, 0xc6, 0x97, 0xbd, 0x3e,
  0xf5, 0x59, 0xef, 0xbd, 0x66, 0xdc, 0x7b, 0x3e, 0x5d, 0x78, 0xd8, 0xbd,
  0x2e, 0x9f, 0xbb, 0xbd, 0x2a, 0x6d, 0x7b, 0xbe, 0x3b, 0x4a, 0x78, 0x3c,
  0x00, 0x49, 0x8f, 0x3e, 0x8d, 0xeb, 0x43, 0xbe, 0x67, 0xee, 0xab, 0xbd,
  0xf4, 0x9f, 0x4f, 0x3e, 0x14, 0x15, 0xde, 0x3e, 0xc2, 0x9b, 0xfa, 0x3d,
  0xc3, 0x5a, 0xbc, 0x3d, 0x45, 0x3c, 0xa2, 0xbe, 0x62, 0xbd, 0xac, 0x3c,
  0x29, 0xe9, 0xbe, 0x3e, 0x2b, 0xaf, 0xd8, 0x3e, 0x7a, 0xc8, 0x54, 0x3e,
  0xdb, 0x7b, 0x61, 0x3e, 0x12, 0xe1, 0xff, 0xff, 0x10, 0x00, 0x00, 0x00,
  0x08, 0x00, 0x00, 0x00, 0x14, 0x00, 0x00, 0x00, 0x30, 0x00, 0x00, 0x00,
  0x02, 0x00, 0x00, 0x00, 0x04, 0x00, 0x00, 0x00, 0x10, 0x00, 0x00, 0x00,
  0x19, 0x00, 0x00, 0x00, 0x73, 0x65, 0x71, 0x75, 0x65, 0x6e, 0x74, 0x69,
  0x61, 0x6c, 0x2f, 0x64, 0x65, 0x6e, 0x73, 0x65, 0x5f, 0x31, 0x2f, 0x4d,
  0x61, 0x74, 0x4d, 0x75, 0x6c, 0x00, 0x00, 0x00, 0x80, 0xe0, 0xff, 0xff,
  0x8a, 0xe1, 0xff, 0xff, 0x04, 0x00, 0x00, 0x00, 0x00, 0x1c, 0x00, 0x00,
  0xa4, 0x7a, 0x19, 0xbe, 0x51, 0xd2, 0x39, 0xbe, 0x73, 0xd8, 0x92, 0xbc,
  0x04, 0x1b, 0xa3, 0xbe, 0x5b, 0x64, 0x84, 0xbe, 0x15, 0xa7, 0x0d, 0xbe,
  0x33, 0xf9, 0x5f, 0xbd, 0x5c, 0xaa, 0xe5, 0xbd, 0x41, 0xec, 0xab, 0xbd,
  0x76, 0x9b, 0x73, 0x3c, 0x7f, 0x58, 0x3d, 0xbe, 0xdf, 0xa1, 0xeb, 0xbd,
  0x9c, 0xbc, 0xcd, 0xbd, 0x0c, 0x3f, 0x0a, 0x3e, 0x19, 0xfc, 0xa9, 0xbc,
  0x40, 0xfa, 0x20, 0xbe, 0x8b, 0x5f, 0x1e, 0x3e, 0x43, 0x7a, 0xd8, 0x3a,
  0x14, 0x05, 0xd3, 0x3c, 0x4a, 0x3c, 0x5b, 0xbe, 0x53, 0x8e, 0x6c, 0xbe,
  0x4b, 0x4c, 0x12, 0xbd, 0x1f, 0x2f, 0xb0, 0xbd, 0x13, 0x64, 0xc0, 0xbd,
  0x0a, 0x48, 0xd5, 0x3d, 0xff, 0xe1, 0xff, 0xbd, 0x95, 0x4c, 0xd6, 0x3c,
  0xbb, 0x1c, 0xd0, 0xbd, 0x65, 0xdf, 0x15, 0x3e, 0x92, 0x67, 0x00, 0x3e,
  0xcf, 0x03, 0x43, 0xbe, 0xba, 0x72, 0x2f, 0xbe, 0xce, 0xb6, 0x41, 0x3d,
  0x06, 0xe4, 0xa5, 0xbd, 0x2f, 0x42, 0xb1, 0xbb, 0xf9, 0xaa, 0x14, 0xbe,
  0xa1, 0x35, 0xc8, 0x3d, 0x92, 0x17, 0x03, 0x3e, 0x4f, 0xf8, 0x09, 0x3d,
  0xd1, 0x64, 0xcb, 0xbd, 0x2c, 0xf8, 0x27, 0xbe, 0xb7, 0x8b, 0x24, 0xbe,
  0x65, 0xe9, 0x77, 0x3d, 0x84, 0x40, 0xdd, 0x3d, 0x88, 0x72, 0xd2, 0xbd,
  0x85, 0x85, 0xda, 0xba, 0x3c, 0x90, 0xfd, 0xbd, 0x3a, 0x92, 0xc3, 0x3d,
  0x4a, 0xa0, 0x60, 0xbd, 0x51, 0xd1, 0x70, 0xbe, 0x94, 0x89, 0xaf, 0x3d,
  0x35, 0x9a, 0xbe, 0xbe, 0x04, 0xa1, 0x1c, 0x3d, 0x78, 0xf0, 0xb2, 0xbd,
  0x1c, 0xc0, 0x85, 0x3d, 0x61, 0x47, 0x4e, 0xbe, 0x8d, 0x4f, 0x2f, 0x3d,
  0x07, 0xef, 0xd6, 0x3d, 0x7d, 0x3a, 0x54, 0xbe, 0x35, 0x33, 0xac, 0xbc,
  0xd2, 0x26, 0x0e, 0xbe, 0x7f, 0x14, 0x26, 0xbe, 0x61, 0xcf, 0x8c, 0xbe,
  0x68, 0x9e, 0x50, 0x3d, 0xbf, 0x33, 0x4a, 0x3e, 0x37, 0x63, 0xb8, 0x3a,
  0x62, 0x2d, 0x79, 0x3d, 0xdc, 0x8b, 0x2e, 0xbd, 0xc6, 0xd7, 0x77, 0xbe,
  0xe9, 0xeb, 0x89, 0xbc, 0x9b, 0xb7, 0xc3, 0xbd, 0x95, 0x6f, 0xfd, 0xbd,
  0x34, 0x8a, 0x0d, 0xbe, 0x35, 0xe4, 0xd9, 0x3b, 0xd6, 0xed, 0x0d, 0x3d,
  0x3f, 0x24, 0x1f, 0xbe, 0x96, 0xf6, 0x4b, 0x3e, 0xd4, 0x37, 0xfd, 0x3d,
  0x89, 0x36, 0xaa, 0x3b, 0xaf, 0x3e, 0x63, 0xbe, 0x86, 0x92, 0x1e, 0xbe,
  0x60, 0x6d, 0xfa, 0xbd, 0xe6, 0xa3, 0x1c, 0x3e, 0xcd, 0x72, 0xb0, 0xbe,
  0x21, 0x71, 0xab, 0x3d, 0xed, 0x66, 0xd7, 0xbd, 0x18, 0x4e, 0x36, 0xbe,
  0x88, 0x22, 0x4d, 0xbd, 0x52, 0x93, 0x82, 0xbe, 0x8f, 0x03, 0x48, 0xbd,
  0xa3, 0x5c, 0x78, 0xbe, 0x6d, 0xf7, 0x4e, 0xbe, 0xcd, 0xaa, 0x27, 0xbe,
  0x70, 0xcd, 0x09, 0x3a, 0x4c, 0x7f, 0x4e, 0xbe, 0x38, 0xa8, 0x85, 0xbd,
  0xee, 0x27, 0x27, 0x3e, 0xe7, 0x6c, 0xca, 0x3d, 0x1f, 0x9f, 0xac, 0xbc,
  0xbd, 0xd4, 0x6c, 0xbe, 0xc0, 0x58, 0xb2, 0x3c, 0x62, 0x00, 0x8e, 0x3d,
  0xce, 0x2b, 0xc6, 0x3d, 0x0d, 0x19, 0x44, 0xbe, 0x23, 0xd1, 0x96, 0xbe,
  0xb1, 0x8b, 0xe0, 0x3d, 0x22, 0x5d, 0x35, 0xbe, 0xf3, 0xb0, 0x8a, 0xba,
  0x12, 0x5a, 0x9f, 0xbd, 0x85, 0xc0, 0x32, 0x3c, 0x92, 0xd3, 0xdf, 0xbd,
  0xe0, 0xb1, 0x33, 0xbe, 0x11, 0x25, 0xd0, 0xbe, 0x34, 0x2f, 0x08, 0x3e,
  0x5a, 0x9b, 0xc2, 0xbd, 0x70, 0xbd, 0x1a, 0xbe, 0xce, 0xc3, 0x61, 0xbc,
  0xc8, 0xbf, 0x6b, 0x3e, 0xd4, 0xda, 0x70, 0xbd, 0x9f, 0x82, 0x05, 0xbe,
  0x31, 0xcd, 0x8d, 0xbd, 0x4a, 0x42, 0xab, 0xbe, 0x24, 0x63, 0x9a, 0xbd,
  0x73, 0xde, 0xe3, 0xbe, 0xe4, 0x5c, 0x01, 0xbf, 0xee, 0x6d, 0x34, 0xbe,
  0xea, 0x05, 0x66, 0xbd, 0xae, 0xf0, 0xaf, 0x3b, 0x20, 0xfe, 0xf2, 0xbe,
  0x6c, 0xb4, 0x1e, 0x3d, 0xbe, 0x66, 0x9c, 0xbd, 0x52, 0x59, 0x9f, 0xbd,
  0xed, 0xb4, 0xaa, 0x3d, 0x1a, 0x6e, 0x03, 0xbc, 0x73, 0x33, 0x01, 0xbd,
  0xf1, 0x29, 0x92, 0x3e, 0x9f, 0xd4, 0x90, 0x3d, 0xff, 0x32, 0xff, 0xbd,
  0xc0, 0x4f, 0xd6, 0x3d, 0x5f, 0x02, 0x98, 0xbe, 0x49, 0x47, 0x94, 0xbc,
  0xe4, 0xb2, 0x90, 0xbe, 0xb9, 0x52, 0x99, 0x3e, 0x7d, 0xab, 0xaa, 0xbd,
  0x39, 0xcc, 0xbd, 0xbe, 0x12, 0xdf, 0x04, 0x3e, 0x07, 0x4f, 0x24, 0x3d,
  0x0b, 0xd3, 0x0d, 0xbd, 0x7c, 0x67, 0x75, 0xbd, 0x1b, 0x37, 0x2d, 0x3e,
  0x18, 0x17, 0xe6, 0x3b, 0x8a, 0x62, 0x12, 0x3f, 0x26, 0x53, 0x77, 0x3e,
  0xf5, 0x0f, 0x3e, 0xbd, 0xcf, 0xa2, 0xf8, 0x3c, 0xcc, 0x6e, 0x96, 0xbe,
  0xc2, 0x08, 0x2b, 0x3e, 0x28, 0x85, 0xb2, 0xbe, 0xc2, 0x2c, 0x82, 0x3e,
  0x7f, 0x24, 0x0a, 0x3e, 0x96, 0x40, 0x2a, 0xbf, 0x80, 0x76, 0x8d, 0x3e,
  0x50, 0x2c, 0x28, 0x3e, 0x7a, 0x82, 0xfc, 0x3c, 0x5e, 0x63, 0x7e, 0xbd,
  0x8d, 0x23, 0xc3, 0x3d, 0x97, 0xe8, 0x44, 0xbc, 0xb5, 0x37, 0x0f, 0x3f,
  0xa4, 0xaa, 0x2d, 0x3e, 0x6c, 0x5c, 0xbd, 0xbd, 0x32, 0x02, 0x89, 0xbb,
  0xb3, 0x99, 0xfc, 0xbe, 0x2e, 0xa0, 0x3e, 0xbe, 0x1a, 0x71, 0xab, 0xbd,
  0x1a, 0xc0, 0x2a, 0x3e, 0x6f, 0x2c, 0x75, 0x3e, 0x8e, 0x9f, 0x2d, 0xbf,
  0x3c, 0xda, 0xdd, 0x3e, 0x89, 0x15, 0xd1, 0x3d, 0xca, 0x38, 0x50, 0xbc,
  0xe4, 0xeb, 0xad, 0xbc, 0x5b, 0xb1, 0xbc, 0x3d, 0x76, 0xcd, 0x10, 0xba,
  0xcb, 0xb6, 0xdd, 0x3c, 0x2c, 0xa2, 0x67, 0x3b, 0xad, 0x24, 0x12, 0xbe,
  0x52, 0xc2, 0xa7, 0x3b, 0xf1, 0x79, 0x13, 0xbf, 0xa1, 0x7d, 0x2b, 0xbf,
  0x6b, 0xf7, 0x3c, 0xbe, 0x80, 0xa7, 0xa8, 0x3e, 0x6d, 0xb3, 0xfb, 0x3d,
  0x36, 0x44, 0x12, 0xbf, 0x62, 0x77, 0x8d, 0x3e, 0x1d, 0xd4, 0x2a, 0x3e,
  0x94, 0x45, 0xd4, 0x3c, 0x47, 0xe6, 0x27, 0xbc, 0xb0, 0x7e, 0x73, 0x3e,
  0xf7, 0x78, 0xbb, 0xbc, 0x20, 0x08, 0x05, 0xbc, 0x2c, 0xfc, 0xbf, 0xbc,
  0xaf, 0x02, 0x06, 0xbc, 0xe1, 0xdb, 0x99, 0x3d, 0x8c, 0xe5, 0xf0, 0xbe,
  0xf9, 0x41, 0xab, 0xbe, 0x7b, 0x0d, 0xb2, 0xbd, 0x43, 0xdd, 0x6e, 0x3c,
  0x39, 0x27, 0xa6, 0x3d, 0x7a, 0x32, 0x9f, 0xbe, 0xff, 0x1f, 0xed, 0xb9,
  0xb8, 0x35, 0x0c, 0x3e, 0x33, 0x06, 0xaa, 0x3c, 0x76, 0xf6, 0x5a, 0x3d,
  0x0f, 0xda, 0x56, 0x3e, 0x8e, 0x83, 0x8d, 0xbc, 0x8b, 0xb0, 0xf4, 0x3c,
  0x4e, 0x16, 0x0e, 0x3d, 0xab, 0x6e, 0xd8, 0x3c, 0x3c, 0xa8, 0x77, 0x3c,
  0x02, 0x28, 0xb8, 0xbe, 0x27, 0xf0, 0x8b, 0xbd, 0x24, 0xf2, 0x82, 0xbd,
  0x48, 0xf4, 0xf5, 0x3d, 0x09, 0x41, 0x48, 0x3d, 0xd8, 0x0e, 0x0a, 0x3e,
  0x17, 0xb3, 0x30, 0xbd, 0x33, 0xeb, 0xea, 0xbc, 0xa3, 0xbe, 0x08, 0x3d,
  0x4d, 0x0d, 0x6b, 0xbe, 0x56, 0x74, 0x4b, 0xbc, 0x54, 0x0b, 0xe3, 0x3b,
  0x27, 0xd0, 0x2b, 0x3e, 0x4c, 0x1e, 0x02, 0xbd, 0x5f, 0x4d, 0xab, 0x3d,
  0xaa, 0x17, 0x50, 0x3e, 0x54, 0xd8, 0x46, 0x3e, 0x55, 0xae, 0x12, 0x3e,
  0x21, 0xcc, 0x0f, 0xbe, 0x3d, 0xc2, 0xc6, 0x3c, 0x71, 0x84, 0x2c, 0x3d,
  0x34, 0x2d, 0x89, 0x3c, 0xdf, 0xa2, 0x1f, 0xbc, 0xf5, 0x42, 0x13, 0x3e,
  0xd0, 0x12, 0x1a, 0x3d, 0x15, 0x6c, 0x07, 0xbe, 0x65, 0xe0, 0x54, 0x3c,
  0xb6, 0x2e, 0x97, 0x39, 0xeb, 0xb6, 0xa0, 0xbd, 0xe5, 0x74, 0x7a, 0x3d,
  0xba, 0x4b, 0x4e, 0x3d, 0xf6, 0xbf, 0xc1, 0x3d, 0xd6, 0xfe, 0xe2, 0xbd,
  0x07, 0x94, 0x00, 0xbe, 0xe8, 0x01, 0xa4, 0xbd, 0xad, 0xc9, 0x56, 0x3e,
  0xb5, 0x52, 0x6b, 0xbb, 0xe8, 0x89, 0xa6, 0xbe, 0xb4, 0x74, 0x31, 0xbe,
  0xb2, 0x16, 0x57, 0xbe, 0xde, 0xce, 0xb1, 0xbb, 0xb1, 0x4e, 0x1e, 0x3e,
  0x60, 0xae, 0xcf, 0xbd, 0x9f, 0x38, 0xa9, 0xbd, 0x0d, 0x70, 0x24, 0xbe,
  0x1c, 0x1e, 0x6a, 0xbe, 0x68, 0x4e, 0xd8, 0xbd, 0xc0, 0xe0, 0xef, 0xbd,
  0x15, 0xe8, 0x7b, 0xbc, 0xaa, 0x4a, 0xb1, 0xbe, 0xdf, 0x89, 0x97, 0xbe,
  0x80, 0x96, 0x8b, 0xbe, 0x28, 0x56, 0x06, 0xbe, 0xa8, 0x74, 0x2d, 0xbd,
  0x9c, 0xd4, 0x81, 0xbe, 0x20, 0xc3, 0x64, 0xbe, 0xbc, 0x7e, 0x2f, 0xbe,
  0x3d, 0x87, 0x72, 0x3e, 0x7b, 0x8f, 0x7c, 0x3b, 0xfd, 0x1a, 0xc9, 0xbd,
  0x6a, 0xcc, 0xc6, 0xbe, 0x6c, 0xb0, 0xd0, 0xbe, 0xa6, 0xf5, 0x1d, 0xbc,
  0x2b, 0x2b, 0x84, 0xbe, 0xa1, 0x55, 0x72, 0xbe, 0x9e, 0x46, 0x5c, 0xbe,
  0x16, 0xb4, 0x6b, 0xbb, 0xe8, 0xf6, 0x9c, 0xbe, 0xe0, 0x3d, 0x9e, 0xbe,
  0x91, 0x04, 0xb6, 0x3d, 0xab, 0x89, 0x27, 0xbe, 0x9b, 0xa5, 0x1a, 0xbe,
  0xef, 0xeb, 0xfd, 0xbd, 0x17, 0xf9, 0x7b, 0x3e, 0x93, 0xff, 0x17, 0x3e,
  0xd1, 0x9c, 0xfe, 0xbd, 0x32, 0xb0, 0xb5, 0x3d, 0x1a, 0x52, 0x51, 0x3b,
  0xd8, 0xe1, 0xf4, 0xbd, 0xa6, 0x46, 0x90, 0x3d, 0xae, 0xc8, 0x97, 0x3e,
  0x47, 0xfc, 0x56, 0xbd, 0x2d, 0x4d, 0x28, 0xbe, 0x72, 0xcd, 0xdf, 0xbd,
  0xb1, 0x3f, 0x98, 0xbd, 0x46, 0xf7, 0xdc, 0x3d, 0x3f, 0xc3, 0xa9, 0xbd,
  0x28, 0x2c, 0xb8, 0x3e, 0x32, 0x99, 0x6c, 0xbd, 0x00, 0xb5, 0x4f, 0xbe,
  0x7e, 0x1f, 0x13, 0xbd, 0xde, 0xff, 0xd7, 0xbd, 0xef, 0x9c, 0xc1, 0x3d,
  0x66, 0x54, 0xd4, 0xbd, 0x2f, 0x33, 0x22, 0xbd, 0x23, 0xbc, 0xb3, 0x3e,
  0xa5, 0xab, 0xa4, 0x3e, 0x2e, 0xca, 0x20, 0x3e, 0xb3, 0x2b, 0x87, 0xbd,
  0xaf, 0x33, 0xb2, 0x3d, 0x04, 0xc8, 0x01, 0xbd, 0x85, 0xea, 0x6c, 0x3e,
  0x86, 0xcd, 0x6f, 0xbd, 0xe5, 0xb9, 0x80, 0x3e, 0x48, 0xa2, 0x97, 0xbd,
  0xd8, 0xb5, 0x45, 0x3e, 0xe8, 0x33, 0x07, 0x3e, 0x34, 0xc1, 0xb3, 0xbe,
  0x04, 0xda, 0x0f, 0x3e, 0x00, 0x91, 0xf3, 0x3d, 0xa6, 0x5b, 0x39, 0xbe,
  0x64, 0xb4, 0x5c, 0x3d, 0x8c, 0x46, 0xfd, 0x3e, 0xb7, 0x35, 0xba, 0xbd,
  0x4c, 0x09, 0x5a, 0xbe, 0x8a, 0x4c, 0x93, 0xbc, 0x7f, 0xae, 0x27, 0xbd,
  0x19, 0x1e, 0x00, 0xbe, 0x6a, 0x16, 0x8a, 0xbd, 0x4c, 0x53, 0xf9, 0xbd,
  0xe1, 0xb2, 0xb5, 0xbe, 0x13, 0x4c, 0x7a, 0xbe, 0xd4, 0xcb, 0x77, 0x3d,
  0x04, 0x7e, 0xc9, 0x3c, 0x83, 0x25, 0x79, 0xbe, 0x85, 0xb6, 0x10, 0xbe,
  0xb7, 0x19, 0x0b, 0x3c, 0xc3, 0xbd, 0x74, 0xbd, 0xda, 0x5e, 0xc2, 0x3d,
  0xd4, 0x50, 0x54, 0xbe, 0x40, 0xc8, 0xd1, 0x3d, 0x03, 0x97, 0x5f, 0x3d,
  0x73, 0x98, 0x64, 0xbe, 0xc5, 0xac, 0x61, 0x3c, 0xa8, 0x45, 0x72, 0xbe,
  0xf0, 0xdc, 0x13, 0xbe, 0x36, 0xbb, 0xc9, 0xbe, 0x6c, 0x49, 0xde, 0x3d,
  0xe3, 0x96, 0x7d, 0x3b, 0xd5, 0x13, 0xee, 0xbd, 0x36, 0x48, 0xb9, 0x3d,
  0x25, 0xb9, 0x75, 0xbe, 0xb5, 0x1d, 0xaa, 0x3d, 0xdc, 0xbc, 0xb0, 0x3c,
  0x98, 0xd1, 0x78, 0xbd, 0xfe, 0x19, 0x3a, 0x3d, 0xa9, 0x77, 0x24, 0xbe,
  0xe6, 0xe0, 0xf0, 0x3d, 0x5e, 0xc9, 0xab, 0x3d, 0xf7, 0x3e, 0xc7, 0xbd,
  0xbc, 0x62, 0x27, 0x3d, 0xba, 0x94, 0x4f, 0x3d, 0x7a, 0xcc, 0x0b, 0xbe,
  0x66, 0xee, 0x7b, 0xbd, 0xe0, 0x1d, 0x26, 0x3e, 0xb9, 0xa6, 0xc5, 0x3c,
  0x3b, 0x9b, 0x75, 0xbe, 0xb0, 0xc4, 0x3b, 0xbe, 0x0d, 0x76, 0x55, 0xbe,
  0xe1, 0x8d, 0x5f, 0xbd, 0x4c, 0x5b, 0xc9, 0x3d, 0x23, 0x5d, 0x4c, 0xbe,
  0x71, 0xcc, 0xc7, 0xbd, 0x79, 0xa7, 0x27, 0x3c, 0xf7, 0xa5, 0x90, 0x3d,
  0x08, 0x8f, 0x27, 0x3e, 0xc6, 0x7a, 0xa5, 0xbc, 0x9b, 0x2d, 0xd2, 0x3d,
  0xf2, 0x05, 0xca, 0xbe, 0xf8, 0x6b, 0x6a, 0xbc, 0x6a, 0xc2, 0xe1, 0x3d,
  0x16, 0xbc, 0xfd, 0xbc, 0x9f, 0x87, 0x23, 0xbe, 0xf3, 0x0f, 0xf7, 0xbd,
  0x13, 0x0a, 0xf1, 0xbc, 0x8f, 0xc9, 0x93, 0xbd, 0x5a, 0x4b, 0x39, 0xbe,
  0x2e, 0x0d, 0x29, 0xbe, 0xbf, 0x4e, 0xd4, 0xbd, 0x10, 0xea, 0x13, 0x3d,
  0x23, 0x8e, 0x0c, 0xbc, 0x15, 0x49, 0xb9, 0xbd, 0xdc, 0x05, 0x46, 0xbd,
  0xec, 0x5e, 0x1c, 0xbd, 0x24, 0x8c, 0x0a, 0xbe, 0x1b, 0x1e, 0x3a, 0xbe,
  0xa0, 0x72, 0x86, 0x3d, 0x6b, 0xf4, 0x9b, 0xbd, 0xb7, 0xa7, 0x6e, 0xbe,
  0x8a, 0x8c, 0xf1, 0x3d, 0x54, 0xbd, 0x47, 0xbd, 0x28, 0xb6, 0xa3, 0x3d,
  0x69, 0x81, 0xf5, 0xbd, 0xd0, 0x6a, 0x21, 0xbd, 0x54, 0xc9, 0x91, 0xbd,
  0x6d, 0x2c, 0xbf, 0xbc, 0x42, 0x1e, 0x96, 0xbe, 0xde, 0x35, 0x1f, 0xbe,
  0x51, 0x28, 0x4e, 0xbe, 0x06, 0xab, 0x3c, 0xbe, 0xe7, 0x09, 0xa7, 0xbe,
  0x5a, 0xe3, 0x23, 0xbe, 0xe0, 0xe5, 0x7b, 0xbe, 0x63, 0x0e, 0x91, 0xbd,
  0x37, 0x4b, 0x01, 0xbe, 0x62, 0xbf, 0xd4, 0xbd, 0x5a, 0xd4, 0xfb, 0xbc,
  0x01, 0xcf, 0xab, 0xbc, 0xeb, 0x3e, 0x06, 0xbe, 0x1e, 0xf2, 0xc6, 0x3d,
  0x1e, 0x88, 0xbc, 0x3d, 0x72, 0x2a, 0x25, 0xbd, 0x17, 0x26, 0x11, 0x3e,
  0xfb, 0xc6, 0x24, 0xbc, 0xb5, 0x57, 0x4d, 0xbe, 0xc4, 0x9b, 0x70, 0xbe,
  0x04, 0x75, 0x8d, 0xbe, 0x56, 0x47, 0xbd, 0xbc, 0x05, 0x3f, 0x49, 0xbd,
  0x19, 0x01, 0x6f, 0xbe, 0x3b, 0x59, 0xa7, 0xbd, 0xba, 0xfa, 0x7a, 0x3c,
  0x62, 0x46, 0xba, 0xbd, 0x48, 0xd9, 0x3b, 0xbd, 0xb7, 0x97, 0xb1, 0xbd,
  0x16, 0xe2, 0xb8, 0xbd, 0x0b, 0x17, 0x37, 0x3d, 0xd4, 0xe8, 0xe9, 0xbd,
  0xe7, 0x50, 0x07, 0x3d, 0xc4, 0x86, 0x65, 0xbe, 0x50, 0x4c, 0xca, 0x3d,
  0x17, 0x00, 0x16, 0x3e, 0xfe, 0x9f, 0xd2, 0xbe, 0x4f, 0x6a, 0x8a, 0xbd,
  0xad, 0x0a, 0x24, 0xbd, 0x88, 0x6b, 0xc3, 0xbd, 0x0c, 0x6d, 0xe7, 0x3c,
  0x75, 0xa4, 0x96, 0xbe, 0xc0, 0x48, 0x24, 0xbc, 0xd1, 0x67, 0x67, 0xbe,
  0x03, 0xa5, 0xc1, 0xbc, 0x0c, 0x08, 0x65, 0xbe, 0xe6, 0x1c, 0x95, 0xbe,
  0xf4, 0xfe, 0x8d, 0x3d, 0xe0, 0x55, 0x3e, 0xbe, 0x87, 0x6e, 0x33, 0x3e,
  0x8a, 0xfa, 0x43, 0xbc, 0x08, 0x74, 0xb1, 0xbb, 0xf5, 0xfb, 0x45, 0xbe,
  0xaa, 0x28, 0x46, 0xbe, 0xe8, 0x20, 0xbd, 0x3d, 0x5f, 0x9c, 0x6e, 0xbe,
  0xb1, 0x4b, 0x6d, 0xbe, 0x4d, 0xeb, 0x1d, 0xbe, 0x8e, 0xed, 0xd3, 0xbd,
  0x72, 0x2c, 0xcb, 0x3c, 0x5e, 0x4a, 0x57, 0xbe, 0xff, 0x71, 0xbb, 0xbd,
  0x3c, 0x6b, 0xf3, 0x3c, 0x5b, 0xe3, 0xad, 0x3d, 0xeb, 0xec, 0x76, 0xbd,
  0x11, 0x51, 0xa2, 0x3d, 0x22, 0x32, 0x14, 0xbd, 0x41, 0x9a, 0x2b, 0x3e,
  0xc3, 0xc8, 0xac, 0xbe, 0x95, 0x83, 0x04, 0xbe, 0x57, 0xcd, 0x1b, 0x3e,
  0xe4, 0x23, 0xf7, 0x3d, 0x1f, 0x3f, 0x42, 0xbe, 0x7e, 0x25, 0x5f, 0xbe,
  0x08, 0x53, 0x9d, 0xbc, 0xff, 0xc5, 0x5d, 0x3d, 0xd1, 0x17, 0x49, 0xbe,
  0x9b, 0x5e, 0x56, 0x3d, 0x26, 0x0f, 0x83, 0xbe, 0x42, 0xcb, 0x50, 0xbc,
  0xd0, 0x09, 0x45, 0xbe, 0x88, 0x50, 0xe1, 0xbc, 0xea, 0x10, 0x71, 0xbe,
  0x67, 0x79, 0x28, 0xbe, 0x1a, 0x26, 0xe7, 0xbe, 0xcb, 0xed, 0x03, 0x3d,
  0x87, 0xdc, 0x94, 0x3a, 0x24, 0xf9, 0x35, 0xbe, 0x57, 0x64, 0x3a, 0x3e,
  0x9f, 0xe4, 0x1a, 0x3c, 0xf2, 0x55, 0x1a, 0x3c, 0x94, 0xd6, 0x4a, 0xbe,
  0xb5, 0x13, 0x6c, 0x3d, 0x47, 0x8b, 0xc6, 0xbd, 0xa1, 0x19, 0x14, 0x3e,
  0x3a, 0x37, 0xfc, 0xbd, 0xb6, 0x6c, 0xd5, 0x3c, 0x8c, 0x81, 0x42, 0xbe,
  0xf9, 0x9f, 0xae, 0x3d, 0x80, 0x40, 0xa0, 0x3d, 0x35, 0xe9, 0x1f, 0xbe,
  0x63, 0x5c, 0x1d, 0xbe, 0x7a, 0x7a, 0x01, 0xbe, 0xab, 0x30, 0xc1, 0xbd,
  0x64, 0x41, 0x1e, 0x3e, 0x7c, 0x6c, 0x1d, 0xbe, 0xee, 0x09, 0xd2, 0xbd,
  0xc4, 0x08, 0x17, 0xbe, 0x2c, 0x40, 0x14, 0x3e, 0x77, 0x7f, 0x1c, 0xbc,
  0x99, 0xbe, 0x13, 0xbe, 0x67, 0xaa, 0x4e, 0xbe, 0xe9, 0xbc, 0xec, 0xbc,
  0x5a, 0x9c, 0x79, 0x3d, 0x1f, 0xf8, 0x28, 0xbe, 0x97, 0xac, 0xf6, 0x3d,
  0x84, 0xe2, 0x7c, 0xbe, 0x01, 0x8e, 0x8f, 0xbd, 0x6b, 0x43, 0xea, 0xbd,
  0xf7, 0x0b, 0x95, 0x3c, 0xf3, 0x03, 0x6f, 0xbe, 0x03, 0x58, 0x84, 0xbe,
  0x29, 0x38, 0xe7, 0x3d, 0x91, 0x22, 0xb9, 0x3d, 0xd7, 0x28, 0xa8, 0xbd,
  0xbc, 0x0a, 0xc6, 0xbd, 0xd3, 0xa1, 0x4d, 0xbe, 0x84, 0x6f, 0x18, 0xbd,
  0x4c, 0x13, 0x0c, 0xbc, 0xe0, 0x81, 0xed, 0xbd, 0x6e, 0xc9, 0xf9, 0xbd,
  0x41, 0x1a, 0x69, 0xbe, 0x94, 0x75, 0x34, 0xbe, 0xb2, 0xef, 0x29, 0xbe,
  0x88, 0xea, 0x49, 0x3c, 0xe3, 0x55, 0xae, 0x3d, 0xc7, 0xb6, 0xc1, 0xbc,
  0x12, 0xde, 0x7a, 0xbe, 0x1c, 0x6d, 0x41, 0x3e, 0x9e, 0xd7, 0x31, 0xbd,
  0x95, 0xa7, 0x4a, 0x3d, 0xac, 0x45, 0x12, 0xbe, 0x1f, 0xbf, 0xa5, 0xbd,
  0x9d, 0xbf, 0xc2, 0x3d, 0xa4, 0x14, 0xa5, 0x3d, 0xbd, 0xed, 0x62, 0xbe,
  0x9a, 0x27, 0x5f, 0x3e, 0x13, 0xbc, 0x22, 0xbe, 0x7e, 0x99, 0x5b, 0xbd,
  0x91, 0x53, 0x98, 0xbc, 0x30, 0x8b, 0xd4, 0x3d, 0x7d, 0x26, 0x85, 0x3e,
  0x1b, 0x7e, 0x66, 0xbd, 0x84, 0x27, 0x7d, 0xbd, 0x3d, 0x60, 0xb1, 0xbe,
  0x11, 0x8c, 0xc9, 0x3d, 0x93, 0xf1, 0x76, 0xbe, 0x50, 0xfe, 0xb9, 0xbe,
  0x94, 0x51, 0x19, 0xbe, 0xd1, 0xab, 0x84, 0x3d, 0x24, 0x33, 0x8c, 0xbc,
  0x47, 0x49, 0x4d, 0xbe, 0xd8, 0xe3, 0x07, 0x3e, 0xea, 0xf1, 0x12, 0x3e,
  0x7c, 0xbe, 0x2a, 0xbe, 0x17, 0x88, 0xbc, 0xbc, 0x29, 0xe8, 0x51, 0xbe,
  0xaa, 0x2d, 0x3c, 0xbe, 0x52, 0x25, 0x1b, 0x3f, 0xcc, 0xe2, 0x38, 0xbe,
  0x8c, 0xbf, 0xcc, 0xbe, 0xa8, 0xdc, 0x53, 0xbd, 0x24, 0xdd, 0xe1, 0xbd,
  0x94, 0x12, 0x17, 0xbe, 0x4d, 0x76, 0xcb, 0x3d, 0x00, 0x64, 0x3c, 0x3e,
  0x42, 0x09, 0xf4, 0xbd, 0x8a, 0xdb, 0x25, 0xbd, 0x2a, 0xeb, 0x28, 0xbe,
  0x60, 0xab, 0xd3, 0xbd, 0x69, 0x81, 0x63, 0xbe, 0x9c, 0x8f, 0x41, 0xbc,
  0xfa, 0xb5, 0x2b, 0xbc, 0xa9, 0x70, 0x1f, 0xbe, 0x6d, 0x6c, 0xfb, 0x3e,
  0x3f, 0x8b, 0x2c, 0x3e, 0x38, 0x88, 0xe1, 0xbd, 0xb1, 0x42, 0x07, 0x3e,
  0xea, 0x1c, 0x97, 0x3b, 0x24, 0xb8, 0x5e, 0xbe, 0x02, 0xb7, 0x20, 0xbe,
  0xda, 0x11, 0x92, 0x3e, 0x88, 0x84, 0xa2, 0x3e, 0x8f, 0x82, 0xb7, 0x3c,
  0x32, 0xb5, 0x13, 0xbe, 0x9b, 0xc3, 0xde, 0xbd, 0x70, 0x09, 0x2f, 0x3b,
  0x3f, 0x2e, 0xc2, 0x3d, 0xb8, 0xa4, 0x05, 0x3e, 0xb2, 0xa8, 0xa6, 0xbe,
  0xf2, 0x2a, 0x05, 0x3f, 0xdd, 0xbe, 0xb9, 0x3d, 0x35, 0x6e, 0x33, 0xbe,
  0xba, 0xcb, 0xf6, 0xbd, 0x16, 0xe0, 0x09, 0xbe, 0xcf, 0x7e, 0x27, 0xbe,
  0x92, 0x0e, 0xae, 0xbe, 0x2f, 0xb7, 0x8a, 0x3e, 0x26, 0x6d, 0x11, 0x3e,
  0xaa, 0x29, 0x01, 0xbe, 0x88, 0x9a, 0xf5, 0x3e, 0x4f, 0xa6, 0x5b, 0xbe,
  0xbf, 0x92, 0x97, 0xbd, 0x73, 0xae, 0x28, 0xbe, 0xc3, 0xb1, 0x5b, 0x3d,
  0x72, 0xde, 0x5c, 0x3d, 0x66, 0x6f, 0x5e, 0x3e, 0xc2, 0x29, 0x69, 0xbe,
  0x92, 0x6a, 0x2d, 0xbe, 0xb3, 0x0a, 0x6a, 0x3d, 0xe7, 0xb5, 0x31, 0xbe,
  0xeb, 0xab, 0xd3, 0xbd, 0x0b, 0xf0, 0xbd, 0xbe, 0x64, 0x40, 0xc2, 0x3e,
  0x79, 0x9f, 0xc7, 0xbc, 0x34, 0xab, 0x6a, 0xbe, 0x6d, 0x0b, 0x7b, 0x3e,
  0x6e, 0x5d, 0xab, 0xbe, 0xb6, 0x13, 0x81, 0xbe, 0xa1, 0xef, 0x70, 0x3e,
  0x59, 0xc0, 0xc5, 0xbe, 0x69, 0x50, 0xdc, 0xbc, 0x4b, 0x7d, 0x58, 0x3d,
  0xa1, 0x24, 0x42, 0x3d, 0x63, 0xa2, 0x32, 0x3c, 0xaf, 0x18, 0x03, 0xbe,
  0x4e, 0x5e, 0x13, 0xbe, 0xb1, 0xf0, 0xea, 0xbd, 0x51, 0x5b, 0xea, 0xbd,
  0xfc, 0x30, 0x7c, 0xbd, 0x83, 0x4c, 0xc6, 0xbe, 0x9c, 0x0b, 0x59, 0xbe,
  0xba, 0x86, 0xfc, 0xbd, 0xde, 0xaf, 0x00, 0xbd, 0xa5, 0xeb, 0xb8, 0xbd,
  0x8b, 0xf7, 0x91, 0x3e, 0xc7, 0x34, 0x3a, 0x3e, 0x45, 0x53, 0xaf, 0xbe,
  0x74, 0xe8, 0xf2, 0x3d, 0xe5, 0x67, 0x50, 0x3d, 0xed, 0x8a, 0xbd, 0x3c,
  0x4f, 0x16, 0xc1, 0xbd, 0x7b, 0x62, 0xac, 0xbd, 0x24, 0x52, 0x4c, 0xbe,
  0x3a, 0x50, 0x19, 0xbd, 0x13, 0x5f, 0x80, 0x3e, 0x37, 0x31, 0xfa, 0x3b,
  0xc5, 0x10, 0x81, 0x3c, 0x2d, 0x91, 0x15, 0xbe, 0x80, 0x8b, 0x93, 0x3d,
  0xf8, 0xe0, 0x87, 0x3d, 0xf5, 0x0e, 0xae, 0x3d, 0x41, 0x83, 0x60, 0xbc,
  0x27, 0xa5, 0x7a, 0x3e, 0xb5, 0xf9, 0x35, 0xbe, 0xfb, 0x10, 0x56, 0x3c,
  0xfb, 0x20, 0xa6, 0x3d, 0x39, 0x3f, 0x69, 0xbd, 0x66, 0xbf, 0x2a, 0xbe,
  0xa6, 0xf0, 0x7e, 0xbe, 0xe8, 0x84, 0xf6, 0x3d, 0x31, 0x38, 0x81, 0x3c,
  0x85, 0x74, 0xdc, 0xbd, 0x8a, 0x63, 0x6c, 0x3e, 0x74, 0xe4, 0xdf, 0xbe,
  0xe2, 0xca, 0x41, 0xbe, 0x8e, 0xc5, 0x6a, 0x3d, 0x21, 0xfb, 0x94, 0x3d,
  0xf3, 0x9b, 0xfc, 0x3d, 0xa0, 0x22, 0x07, 0x3e, 0x69, 0xc8, 0x74, 0xbe,
  0xdc, 0xdf, 0x31, 0xbe, 0xcc, 0xff, 0x4e, 0x3d, 0x2b, 0x08, 0xd0, 0x3d,
  0x98, 0x08, 0x85, 0x3e, 0xaf, 0x5c, 0xb9, 0x3c, 0xd4, 0x93, 0xb6, 0x3e,
  0x74, 0xd3, 0x0d, 0x3e, 0xcd, 0x39, 0x31, 0x3c, 0xbc, 0xa0, 0xd7, 0x3e,
  0x14, 0x24, 0xc4, 0xbd, 0x3f, 0xbc, 0xb3, 0x3b, 0x09, 0x85, 0x8e, 0x3d,
  0xbe, 0xa8, 0x79, 0x3c, 0xc6, 0x50, 0xbc, 0xbd, 0x0a, 0x5b, 0x2a, 0x3e,
  0xce, 0x82, 0x26, 0xbe, 0x1a, 0xc0, 0x37, 0xbe, 0x52, 0x2c, 0xe0, 0xbc,
  0xcb, 0x73, 0x66, 0x3e, 0x9d, 0xd4, 0xa7, 0x3c, 0x1e, 0xdb, 0xe0, 0x3d,
  0xd3, 0x42, 0xff, 0x3e, 0x09, 0x3f, 0xa4, 0x3d, 0xd6, 0xa6, 0x53, 0xbd,
  0x2f, 0x0e, 0xbf, 0x3e, 0xd5, 0xe1, 0x8e, 0xbd, 0x46, 0x89, 0x85, 0x3e,
  0x8e, 0x0c, 0xf8, 0x3c, 0xe3, 0x57, 0x02, 0x3e, 0xa3, 0x0c, 0x23, 0xbd,
  0x86, 0x96, 0x66, 0x3d, 0xbd, 0x57, 0x32, 0xbe, 0x5a, 0x15, 0xc8, 0xbc,
  0x2c, 0x8a, 0x2e, 0xbd, 0x1f, 0x91, 0xea, 0x3d, 0x9d, 0xf5, 0x31, 0x3d,
  0x69, 0x53, 0x71, 0x3e, 0xd7, 0x06, 0xcc, 0x3e, 0x57, 0x2c, 0x83, 0x3c,
  0x8c, 0x5e, 0x0d, 0xbe, 0x1a, 0x3f, 0x65, 0x3e, 0x27, 0xe5, 0x26, 0xbe,
  0x16, 0x82, 0x9a, 0x3d, 0xcb, 0xae, 0xca, 0x3c, 0x24, 0x9d, 0xd8, 0x3d,
  0x3f, 0xbd, 0x64, 0xbd, 0x05, 0x5a, 0x07, 0xbd, 0xfe, 0x97, 0x09, 0xbe,
  0x0a, 0xd4, 0x50, 0xbd, 0x75, 0xee, 0x70, 0xbd, 0x6c, 0x38, 0x50, 0xbd,
  0xde, 0x54, 0x94, 0xbe, 0x99, 0xad, 0x85, 0x3e, 0x9a, 0xd2, 0xca, 0x3e,
  0x79, 0x1a, 0xe3, 0xb9, 0x4e, 0xb5, 0xeb, 0xbd, 0xc2, 0xa3, 0xf6, 0x3c,
  0x77, 0x4a, 0x91, 0xbe, 0x4a, 0x8b, 0xe9, 0xbb, 0x08, 0x6a, 0xf5, 0x3c,
  0xfc, 0xab, 0xbf, 0xbc, 0x7e, 0x54, 0x03, 0xbd, 0x2a, 0x23, 0x73, 0xbd,
  0x0a, 0x62, 0x35, 0xbe, 0x1f, 0x53, 0xd4, 0xbd, 0xf6, 0xaa, 0x83, 0x3c,
  0x34, 0x57, 0x7e, 0x3e, 0xf3, 0xfa, 0x38, 0xbd, 0xa4, 0x19, 0x2c, 0x3c,
  0xe9, 0xf9, 0x76, 0x3e, 0x7d, 0xe2, 0xdb, 0xbd, 0x5b, 0x6d, 0x4f, 0xbe,
  0x08, 0xdf, 0xf1, 0x3d, 0xe5, 0xdf, 0x13, 0xbd, 0x50, 0x57, 0xca, 0x3d,
  0x4c, 0x4b, 0x5d, 0x3d, 0x93, 0xf3, 0x88, 0x3e, 0x08, 0x29, 0x6c, 0xbd,
  0x3a, 0xb0, 0x6e, 0x3d, 0xd6, 0xfe, 0x87, 0xbe, 0x9d, 0x1f, 0x5d, 0xbe,
  0x37, 0xb9, 0xeb, 0x3b, 0x74, 0xfc, 0xfd, 0x3d, 0x1c, 0x9e, 0x6d, 0xbe,
  0x30, 0x27, 0x3c, 0xbc, 0x53, 0xa5, 0x7c, 0x3e, 0x34, 0xa9, 0x67, 0xbd,
  0x2e, 0x47, 0x94, 0xbe, 0x6f, 0x88, 0x18, 0x3e, 0xcc, 0x42, 0x35, 0xbe,
  0x60, 0x95, 0xb8, 0x3d, 0xea, 0xad, 0x53, 0x3c, 0xf5, 0xf0, 0xeb, 0xbd,
  0x8f, 0xab, 0xb1, 0xbd, 0xe9, 0x25, 0x13, 0x3e, 0x53, 0x7e, 0x5a, 0x3e,
  0x8c, 0x40, 0xd0, 0xbb, 0xdb, 0xda, 0x6e, 0xbc, 0xb5, 0xa9, 0x31, 0x3e,
  0x7e, 0x12, 0x2d, 0x3e, 0xaf, 0x2a, 0x9e, 0x3e, 0xc3, 0x9c, 0x76, 0xbd,
  0x1b, 0xb1, 0x6f, 0xbc, 0xb0, 0xc2, 0xa4, 0x3c, 0x90, 0x06, 0xd9, 0x3c,
  0x56, 0xd0, 0x96, 0xbd, 0x46, 0x9e, 0x83, 0x3d, 0x37, 0x55, 0xf4, 0x3d,
  0xb6, 0xba, 0x5b, 0xbd, 0xa5, 0x68, 0xad, 0x3e, 0xc9, 0xfa, 0xab, 0xbd,
  0xc1, 0x61, 0xb7, 0x3d, 0x19, 0xef, 0xeb, 0xbb, 0x1d, 0xdb, 0x78, 0x3d,
  0x3d, 0x36, 0xb8, 0x3b, 0x17, 0x48, 0x15, 0xbc, 0xd3, 0xc2, 0xb3, 0xbd,
  0x60, 0x7c, 0x96, 0x3c, 0x7b, 0x2c, 0xf5, 0x3d, 0x62, 0x16, 0x54, 0x3e,
  0x82, 0x75, 0xda, 0xbd, 0xf1, 0x75, 0x6c, 0xbd, 0x30, 0x1b, 0x11, 0xbd,
  0x4f, 0x92, 0x93, 0xbc, 0x67, 0x83, 0x20, 0x3d, 0xde, 0x5f, 0x91, 0xbe,
  0xc5, 0x89, 0x91, 0x3d, 0x4c, 0xb9, 0x85, 0xbe, 0x60, 0x62, 0xe6, 0xbe,
  0xf6, 0x3e, 0x31, 0x3b, 0x34, 0xf8, 0x81, 0xbc, 0xd0, 0x8d, 0x7d, 0xbd,
  0xf0, 0x94, 0xbe, 0xbe, 0x8c, 0xd2, 0x2e, 0xbe, 0xd0, 0x5b, 0x60, 0xbe,
  0xf4, 0x77, 0x82, 0xbe, 0xac, 0x8c, 0x48, 0xbe, 0x17, 0xc3, 0x6d, 0x3d,
  0xa3, 0x62, 0xa4, 0xbe, 0xe1, 0xdc, 0xe3, 0xbd, 0xfc, 0x09, 0xab, 0x3e,
  0x3f, 0xd2, 0x44, 0xbe, 0x17, 0xb9, 0x8e, 0xbd, 0x03, 0x5f, 0xf1, 0xbe,
  0x3b, 0x7b, 0xd2, 0xbe, 0x55, 0xe3, 0x81, 0xbd, 0x29, 0xfd, 0xa0, 0xbe,
  0x61, 0x99, 0xb7, 0x3c, 0x3f, 0x17, 0x65, 0xbe, 0x68, 0x0a, 0xea, 0xbe,
  0xb7, 0xd6, 0xdb, 0xbe, 0x34, 0xe7, 0x9b, 0xbe, 0x54, 0x8b, 0x0c, 0x3e,
  0xb2, 0xb8, 0x4b, 0xbe, 0xed, 0x68, 0x4c, 0x3c, 0x91, 0x3d, 0x4a, 0xbd,
  0x0a, 0x53, 0x06, 0x3e, 0x6c, 0xef, 0x4c, 0xbe, 0x9a, 0x2f, 0xca, 0xbd,
  0x86, 0xb2, 0x1d, 0xbe, 0x09, 0xa0, 0xb6, 0xbe, 0x3d, 0xfa, 0x68, 0xbd,
  0xaa, 0xd3, 0x19, 0xbe, 0x45, 0x19, 0x7a, 0xbd, 0xfc, 0x8f, 0x1a, 0xbe,
  0x83, 0xea, 0x50, 0xbe, 0x97, 0x75, 0xcc, 0xbe, 0xf9, 0xbd, 0x0b, 0xbe,
  0xcb, 0xba, 0x41, 0xbe, 0x92, 0x20, 0xc8, 0x3d, 0xe7, 0x66, 0xa7, 0xbe,
  0x00, 0x5f, 0x06, 0xbe, 0x59, 0xc2, 0x5a, 0x3c, 0x1a, 0xa3, 0x18, 0xbe,
  0xff, 0xa8, 0xb6, 0xbc, 0x81, 0x71, 0x59, 0xbd, 0x34, 0xd0, 0x5f, 0xbe,
  0xe8, 0xaa, 0x06, 0x3d, 0x16, 0xd7, 0xe1, 0xbd, 0xde, 0x1b, 0x8f, 0xbe,
  0xad, 0x34, 0x8a, 0xbe, 0x4b, 0x5c, 0x3b, 0xbd, 0x4d, 0xe0, 0x61, 0xbe,
  0xf6, 0x88, 0x3a, 0xbe, 0x22, 0x75, 0x0e, 0xbe, 0x8f, 0x07, 0x0b, 0xbb,
  0xf5, 0x57, 0x0a, 0xbe, 0x61, 0x93, 0xdd, 0xbd, 0x14, 0xf3, 0xcb, 0x3d,
  0x9d, 0x04, 0x8f, 0xbe, 0x28, 0x9c, 0x88, 0xbe, 0x84, 0x76, 0xee, 0xbe,
  0xd4, 0xd9, 0x20, 0xbe, 0xd5, 0xa2, 0x7d, 0x3d, 0x94, 0x5c, 0x98, 0x3b,
  0x17, 0xe6, 0xf1, 0xbe, 0x73, 0x5b, 0xc5, 0xbe, 0xc5, 0x42, 0x24, 0xbe,
  0xc2, 0xf3, 0x02, 0xbe, 0x31, 0x55, 0x92, 0xbe, 0x58, 0xb9, 0x18, 0x3e,
  0xf5, 0x8b, 0x35, 0xbe, 0xb3, 0xf8, 0x2b, 0x3e, 0xab, 0x70, 0x16, 0x3e,
  0xa6, 0x5e, 0xd1, 0x3c, 0x04, 0xf5, 0x38, 0xbf, 0xce, 0x3a, 0x6b, 0x3e,
  0xb0, 0x50, 0x6d, 0xbe, 0xa3, 0xc9, 0x34, 0x3d, 0x39, 0x4f, 0x2d, 0x3e,
  0xca, 0x18, 0x8c, 0x3d, 0x76, 0xfc, 0x0a, 0xbe, 0xa4, 0xf1, 0x90, 0xbe,
  0x77, 0x7f, 0x93, 0x3e, 0xae, 0xbd, 0xc7, 0x3d, 0xe3, 0xdb, 0xf2, 0xbe,
  0x44, 0xea, 0x37, 0x3f, 0x9d, 0x75, 0x11, 0xbf, 0x6b, 0x4d, 0x87, 0x3d,
  0xe3, 0xd6, 0x86, 0x3d, 0x34, 0x6f, 0x0c, 0xbd, 0xf2, 0x0b, 0x99, 0xbe,
  0x5b, 0x16, 0x50, 0x3e, 0xcd, 0xc1, 0x2f, 0xbe, 0x60, 0x55, 0xc9, 0xbd,
  0x2e, 0x33, 0xaa, 0x3d, 0xd5, 0x7c, 0xaf, 0xbe, 0x6f, 0xad, 0x2c, 0x3f,
  0x18, 0x98, 0xdc, 0xbd, 0xfb, 0x1d, 0x3b, 0x3f, 0x47, 0xf4, 0xb0, 0xbe,
  0x49, 0x06, 0x2b, 0x3e, 0x2a, 0x61, 0x5b, 0x3f, 0x57, 0x53, 0x16, 0xbe,
  0xa7, 0x75, 0x30, 0xbe, 0x17, 0x6d, 0x59, 0x3d, 0x63, 0x40, 0x09, 0x3c,
  0xa7, 0x22, 0x53, 0xbe, 0x7d, 0xf9, 0xd9, 0xbb, 0x90, 0xf8, 0x2c, 0xbe,
  0x2b, 0x9b, 0xec, 0x3c, 0xfe, 0xef, 0x8d, 0xba, 0xf2, 0x6e, 0x27, 0xbd,
  0x7e, 0x3f, 0xb8, 0x3e, 0x4d, 0xfc, 0x70, 0x3e, 0x7b, 0x38, 0xe2, 0x3e,
  0xc0, 0x2d, 0xa1, 0xbe, 0x63, 0xfb, 0x08, 0x3d, 0xe6, 0x54, 0x12, 0x3f,
  0x58, 0xaf, 0x8c, 0xbe, 0xf0, 0x65, 0x9f, 0xbd, 0x3f, 0x82, 0x8b, 0x3c,
  0x99, 0x66, 0xab, 0xbb, 0x37, 0xf2, 0x2b, 0xbe, 0x30, 0xac, 0x1c, 0xbd,
  0x5e, 0x38, 0x67, 0x3c, 0xbc, 0xec, 0x2c, 0x3e, 0xe1, 0x5a, 0x43, 0x3d,
  0x75, 0x35, 0x44, 0x3d, 0x5b, 0xa8, 0x8f, 0x3e, 0x47, 0x9e, 0x5a, 0x3e,
  0xe2, 0xc9, 0xaa, 0x3e, 0x72, 0x67, 0x23, 0xbe, 0xe6, 0xf4, 0x38, 0xbc,
  0x2e, 0x3f, 0xb2, 0x3e, 0xa0, 0x5b, 0xea, 0xbd, 0x37, 0x4c, 0x96, 0x3d,
  0x17, 0x14, 0xac, 0x3c, 0xf0, 0x6d, 0x8c, 0x3d, 0x4d, 0x66, 0xca, 0xbe,
  0x6e, 0x79, 0x1c, 0x3d, 0x86, 0xd1, 0xd3, 0xbd, 0x33, 0xf2, 0xef, 0x3c,
  0x62, 0xb7, 0x85, 0xba, 0x51, 0x5d, 0xa4, 0xbd, 0x9f, 0xa6, 0x42, 0xbd,
  0x63, 0x86, 0x53, 0x3e, 0x6f, 0x65, 0xfd, 0x3e, 0xba, 0xda, 0x43, 0xbe,
  0xf8, 0x45, 0xf6, 0xbd, 0x5d, 0xd8, 0x28, 0x3e, 0xbd, 0xda, 0xce, 0xbe,
  0x0a, 0x44, 0x80, 0xbe, 0xfa, 0xd4, 0xfc, 0x3b, 0x6d, 0x5e, 0x6f, 0xbd,
  0xad, 0xe9, 0x14, 0xbf, 0xa4, 0x4b, 0xcb, 0x3d, 0x14, 0xa1, 0x30, 0xbe,
  0x6a, 0xdf, 0x79, 0xbd, 0x59, 0x64, 0x21, 0x3d, 0x9d, 0x0d, 0x9b, 0xbd,
  0xa6, 0x95, 0xbc, 0xbd, 0xbb, 0xf4, 0x2a, 0x3d, 0x28, 0xc2, 0x92, 0x3e,
  0xd7, 0x15, 0xc5, 0xbe, 0x94, 0xda, 0x59, 0xbe, 0x1f, 0x5f, 0x34, 0x3e,
  0xbc, 0x2e, 0x04, 0xbc, 0xb5, 0xb3, 0xe9, 0xb9, 0xcd, 0x08, 0x94, 0x3b,
  0xa0, 0x0f, 0x55, 0xbc, 0x11, 0x20, 0xe2, 0xbe, 0xdc, 0xca, 0xeb, 0x3d,
  0x3e, 0xde, 0x7c, 0xbe, 0x5c, 0xd4, 0x83, 0xbe, 0xd3, 0x3d, 0xd5, 0xbb,
  0x7f, 0x07, 0x0d, 0xbd, 0x5b, 0x9e, 0x7b, 0xbe, 0x34, 0x5b, 0x51, 0x3d,
  0xfd, 0x8e, 0x86, 0x3e, 0xe4, 0x8b, 0x19, 0xbe, 0x24, 0x69, 0x71, 0xbe,
  0x7d, 0x0f, 0xa4, 0x3a, 0xe5, 0xbf, 0x10, 0x3e, 0x0c, 0x09, 0x24, 0x3d,
  0xb5, 0x52, 0x95, 0xbe, 0xf2, 0x01, 0x79, 0xbe, 0xf9, 0x76, 0xd6, 0xbd,
  0xe8, 0x0e, 0x9f, 0x3e, 0x5f, 0x23, 0x8c, 0x3b, 0x69, 0x0b, 0x60, 0xbd,
  0x8b, 0xf6, 0xd0, 0xbd, 0x52, 0x5d, 0x3d, 0xbd, 0x72, 0xbf, 0x07, 0x3d,
  0x08, 0xf6, 0x8f, 0xbe, 0x46, 0x97, 0x76, 0x3d, 0xa4, 0xd2, 0x0b, 0xbe,
  0xc1, 0x1f, 0x30, 0xbe, 0xc6, 0x34, 0x8e, 0xbd, 0x3d, 0x1a, 0xa9, 0xbd,
  0x06, 0x48, 0x6c, 0xbe, 0x78, 0xef, 0x93, 0xbe, 0x69, 0x32, 0x37, 0xbe,
  0x86, 0x37, 0x46, 0xbd, 0x72, 0x4d, 0xad, 0x3d, 0xb5, 0x9c, 0xd4, 0xbd,
  0x04, 0x46, 0x0a, 0xbe, 0x6c, 0x43, 0x80, 0xbd, 0x90, 0x61, 0x27, 0xbd,
  0x51, 0x6b, 0x40, 0x3e, 0x6a, 0xf5, 0x1d, 0xbe, 0xb0, 0xd3, 0x0b, 0xbe,
  0x76, 0xd3, 0x85, 0xbe, 0xf6, 0x08, 0xd0, 0x3d, 0xc3, 0xef, 0x30, 0x3e,
  0x70, 0x31, 0xf6, 0xbd, 0xa8, 0x53, 0x81, 0x3d, 0x5d, 0x59, 0x75, 0xbe,
  0x00, 0x8d, 0xdf, 0x3c, 0x6e, 0x96, 0x11, 0xbd, 0x39, 0xf2, 0xce, 0xbd,
  0xec, 0x4f, 0xdf, 0xbd, 0x0c, 0x9a, 0xee, 0xbd, 0xa8, 0x84, 0x0e, 0xbd,
  0x7d, 0x83, 0xff, 0xbd, 0xbe, 0x10, 0x50, 0x3d, 0x3c, 0x59, 0x6a, 0x3c,
  0x88, 0x9f, 0x13, 0x3e, 0x41, 0xf4, 0x5e, 0xbe, 0x50, 0x1a, 0x12, 0x3e,
  0x5b, 0x8d, 0x87, 0x3c, 0x24, 0x4e, 0x3c, 0xbc, 0x34, 0xae, 0x23, 0x3b,
  0x93, 0x81, 0xb0, 0xbe, 0x45, 0x98, 0x1a, 0x3d, 0x0d, 0x1c, 0x96, 0x3d,
  0xd5, 0xc2, 0x1f, 0x3e, 0x20, 0x6e, 0xd6, 0xbc, 0xf9, 0xf7, 0xac, 0x3d,
  0xe6, 0x00, 0xd4, 0x3d, 0xd9, 0xb5, 0x40, 0x3a, 0xd5, 0xc6, 0x12, 0x3d,
  0xe4, 0x32, 0xa9, 0xbd, 0xfa, 0xfd, 0x1d, 0xbe, 0xf5, 0x40, 0xd9, 0x3c,
  0x1b, 0x59, 0x8e, 0xbb, 0xd8, 0x71, 0x28, 0x3d, 0x22, 0x1e, 0x32, 0xbe,
  0x4f, 0x5f, 0x4e, 0xbe, 0xd4, 0x55, 0xb5, 0xbe, 0xd8, 0x56, 0x71, 0xbe,
  0x8c, 0x32, 0x11, 0x3d, 0x60, 0x91, 0x2c, 0x3d, 0x58, 0x00, 0x74, 0x3b,
  0x48, 0x12, 0x02, 0xbe, 0x6d, 0xb1, 0x91, 0xbd, 0x7a, 0x68, 0xd8, 0xbd,
  0x35, 0xef, 0x31, 0xbe, 0xe8, 0xcf, 0x2d, 0xbe, 0x5b, 0x4f, 0x08, 0xbe,
  0xa7, 0x88, 0x37, 0xbe, 0x7e, 0xcb, 0xdd, 0x3d, 0x76, 0xd3, 0x2f, 0x3e,
  0x86, 0x6a, 0x00, 0x3c, 0x1b, 0x32, 0x1e, 0x3d, 0x6b, 0x55, 0x9b, 0xbe,
  0xbd, 0xd6, 0xa0, 0x3b, 0xae, 0x6c, 0x49, 0xbe, 0x67, 0xd3, 0x43, 0xbc,
  0xe0, 0xb2, 0x21, 0xbc, 0xa5, 0xd2, 0x14, 0xbe, 0x09, 0x09, 0x0d, 0x3d,
  0x85, 0xe2, 0xf4, 0xbd, 0x10, 0x37, 0xb0, 0xbd, 0x6d, 0xb3, 0xfa, 0xbc,
  0x1f, 0xdc, 0x17, 0x3e, 0xe4, 0x1b, 0x43, 0xbd, 0x0d, 0x4d, 0x5c, 0xbe,
  0xb2, 0x96, 0x0a, 0xbe, 0x38, 0x42, 0x84, 0xbd, 0x27, 0xff, 0xea, 0xbd,
  0x45, 0x47, 0x09, 0xbe, 0x08, 0xb9, 0x99, 0xbd, 0x53, 0x10, 0x26, 0x3d,
  0x4b, 0xf6, 0xa6, 0x3d, 0xce, 0x66, 0xc8, 0x3c, 0x11, 0x27, 0x5d, 0xbd,
  0xfa, 0xd9, 0x87, 0x3d, 0x83, 0x6d, 0x3f, 0xbe, 0x4a, 0x59, 0x08, 0xbe,
  0xf7, 0x23, 0x1f, 0xbe, 0x33, 0x19, 0xda, 0x3d, 0x60, 0x25, 0x18, 0xbe,
  0x4e, 0x0d, 0x4a, 0xbe, 0x0b, 0x13, 0x70, 0x3c, 0x4f, 0x6c, 0x87, 0x3d,
  0x0b, 0x86, 0x25, 0xbe, 0xa0, 0x1e, 0x88, 0xbe, 0xf5, 0x05, 0x36, 0xbe,
  0x29, 0x33, 0x18, 0xbd, 0x61, 0x23, 0x04, 0xbe, 0xdb, 0xd9, 0xa8, 0xbd,
  0xdd, 0xc6, 0x31, 0xbe, 0x88, 0x14, 0x3c, 0x3d, 0xef, 0x40, 0x46, 0xbe,
  0x14, 0x75, 0x54, 0xbe, 0xb6, 0x8e, 0x46, 0x3d, 0x65, 0x62, 0xbe, 0x3d,
  0xcc, 0x75, 0x32, 0xbe, 0x04, 0xe6, 0x78, 0xbe, 0xab, 0x88, 0x4f, 0x3b,
  0x8c, 0xf6, 0xb2, 0x3d, 0xc8, 0x27, 0x1a, 0xbd, 0xc5, 0xa9, 0x57, 0xbe,
  0x95, 0xc1, 0xd6, 0xbd, 0xc6, 0x94, 0xd0, 0x3d, 0x6c, 0x32, 0x2a, 0xbe,
  0x81, 0x2f, 0x05, 0xbd, 0x37, 0xa5, 0x10, 0xbe, 0xcd, 0x77, 0x7a, 0xbe,
  0xa7, 0x60, 0x8a, 0xbd, 0x9c, 0xc2, 0xcf, 0x3d, 0x60, 0x60, 0x62, 0x3d,
  0x0d, 0x02, 0x43, 0xbe, 0x69, 0x27, 0xea, 0x3d, 0xd4, 0xac, 0x6c, 0x3d,
  0xc9, 0x8c, 0xe1, 0xbc, 0x1b, 0xe8, 0x4d, 0xbd, 0x64, 0xcb, 0x86, 0x3d,
  0x38, 0x27, 0x5a, 0xbe, 0xa2, 0x0b, 0x8b, 0xbd, 0xb9, 0x7b, 0x80, 0x3d,
  0x6a, 0xbd, 0x76, 0xbd, 0x4e, 0x76, 0x0a, 0xbe, 0x8b, 0x0c, 0x3e, 0x3e,
  0xc0, 0xea, 0xda, 0xbc, 0x56, 0x67, 0x01, 0x3b, 0x1e, 0xc8, 0x39, 0xbe,
  0x0a, 0x4e, 0x19, 0xbe, 0x64, 0xcb, 0xb2, 0xbd, 0x82, 0xf6, 0xdc, 0x3c,
  0x95, 0xb4, 0x2c, 0xbe, 0xc5, 0x29, 0xc9, 0x3d, 0x67, 0xd3, 0x6f, 0xbd,
  0x8c, 0xb8, 0xd2, 0x3c, 0x2b, 0xc2, 0xaf, 0xbe, 0x29, 0xa1, 0x01, 0x3d,
  0x9d, 0xd5, 0x0e, 0xbe, 0x2a, 0x90, 0xf7, 0x3d, 0x68, 0xfe, 0xc9, 0xbd,
  0x86, 0xda, 0xcf, 0x3d, 0xb5, 0x1a, 0x23, 0xbe, 0xb0, 0x80, 0x52, 0xbe,
  0x73, 0x90, 0xd7, 0x3b, 0x32, 0x8f, 0x49, 0xbe, 0xd7, 0xc6, 0x34, 0xbe,
  0x50, 0x46, 0xd9, 0xbd, 0x86, 0xf2, 0x20, 0x3e, 0x47, 0x4c, 0x7a, 0x3d,
  0x5c, 0x4f, 0x14, 0x3e, 0x01, 0x07, 0xf9, 0xbc, 0x81, 0x1e, 0xa3, 0xbe,
  0x02, 0x62, 0x03, 0xbe, 0xc4, 0xc2, 0x37, 0xbe, 0x89, 0xa1, 0x0d, 0x3d,
  0x7a, 0xf4, 0x33, 0x3b, 0x90, 0xc3, 0xde, 0xbd, 0x19, 0xd4, 0xc7, 0x3d,
  0x63, 0xfc, 0xcd, 0x3d, 0x7e, 0xbd, 0xb9, 0xbd, 0xe5, 0x6e, 0x94, 0xbd,
  0x7c, 0x18, 0x78, 0xbd, 0x3d, 0xde, 0x8f, 0xbd, 0x2a, 0xaa, 0x02, 0xbc,
  0x22, 0xc1, 0xfc, 0x3d, 0x98, 0x44, 0xc8, 0x3d, 0x0b, 0xc0, 0x0b, 0xbe,
  0x24, 0xd5, 0x87, 0xbe, 0xd3, 0x89, 0x95, 0x3d, 0x67, 0x41, 0x09, 0x3e,
  0xdd, 0x93, 0x06, 0xbe, 0xd8, 0xdc, 0x30, 0xbe, 0xb3, 0xe7, 0x7d, 0xbe,
  0xda, 0xb1, 0xb5, 0x3d, 0xb8, 0x04, 0x30, 0xbe, 0xcb, 0x78, 0x30, 0x3b,
  0x23, 0x1c, 0x49, 0xbe, 0x6f, 0x83, 0xa6, 0xbd, 0x8e, 0x30, 0xb2, 0x3d,
  0x05, 0xb5, 0x39, 0xbe, 0xc3, 0x5d, 0x06, 0xbe, 0x29, 0xbe, 0x1b, 0xbb,
  0x31, 0x1b, 0x30, 0xbe, 0x0e, 0xd7, 0x24, 0xbe, 0x4f, 0x03, 0xff, 0xbd,
  0x79, 0x1f, 0x26, 0xbe, 0xd4, 0xd2, 0xbd, 0x3d, 0x7f, 0x1c, 0x5c, 0xbd,
  0x00, 0x1d, 0x01, 0xbe, 0xc1, 0xd7, 0x6c, 0xbd, 0x25, 0xfb, 0xad, 0xbd,
  0xe9, 0x2e, 0xbc, 0x3d, 0xeb, 0xd1, 0x3b, 0xbd, 0xe3, 0xed, 0xbc, 0x3b,
  0xeb, 0x45, 0x17, 0xbe, 0x91, 0x15, 0x52, 0xbe, 0xa9, 0xf2, 0x26, 0x3d,
  0xf2, 0xcf, 0x03, 0xbe, 0x20, 0x7d, 0x6b, 0xbe, 0x6f, 0xd7, 0x5d, 0xbe,
  0xe2, 0xac, 0xb2, 0x3a, 0x04, 0x1d, 0x6d, 0x3e, 0x3c, 0x37, 0x11, 0x3e,
  0x7b, 0xe3, 0x83, 0xbd, 0x2e, 0x27, 0xec, 0xbe, 0x08, 0x6b, 0x8b, 0xbc,
  0x62, 0x2d, 0xcd, 0xbd, 0xd4, 0x1a, 0x00, 0xbe, 0x5a, 0x70, 0x3f, 0x3c,
  0x56, 0x25, 0x4b, 0xbe, 0x1f, 0xc2, 0xd7, 0xbe, 0x6c, 0x1a, 0xdc, 0xbd,
  0xc0, 0xa9, 0xbd, 0xbd, 0xcf, 0xe8, 0x56, 0xbd, 0xf7, 0xb8, 0xa8, 0x3d,
  0x8c, 0xc3, 0x82, 0xbc, 0xd4, 0x32, 0x35, 0x3e, 0xa5, 0xc0, 0x39, 0x3e,
  0xf0, 0x0b, 0x09, 0x3e, 0x3a, 0x1c, 0x3c, 0xbe, 0xb8, 0xc0, 0x63, 0xbe,
  0x4f, 0xa6, 0x2b, 0xbd, 0x2c, 0x30, 0x8e, 0x3e, 0x46, 0xe8, 0x0f, 0xbe,
  0x7a, 0x01, 0xac, 0xbe, 0x7d, 0x49, 0xfd, 0xbd, 0xb3, 0xa7, 0xb7, 0x3e,
  0x65, 0xc8, 0x3a, 0xbe, 0xb1, 0xdc, 0x70, 0x3d, 0x2f, 0xd3, 0x59, 0x3c,
  0x2e, 0x03, 0x1f, 0x3e, 0xde, 0xe4, 0xf1, 0x3c, 0xa1, 0xf5, 0x06, 0xbb,
  0x1c, 0x2e, 0x8b, 0x3c, 0x5c, 0x5c, 0xb9, 0xbd, 0x6e, 0x44, 0x32, 0xbd,
  0xb3, 0xe6, 0x4a, 0xbe, 0xad, 0x34, 0xe5, 0x3b, 0x80, 0xe7, 0x9d, 0x3e,
  0xcc, 0x30, 0x79, 0x3d, 0xd5, 0x91, 0x66, 0xbe, 0xce, 0x84, 0xc8, 0xbc,
  0x8b, 0xc3, 0xad, 0x3d, 0x84, 0x97, 0x04, 0xbe, 0x90, 0x32, 0x0b, 0xbd,
  0xe3, 0x84, 0x3e, 0xbd, 0xf8, 0xc4, 0xb8, 0x3e, 0x50, 0xfb, 0x9d, 0xbd,
  0xc3, 0xa8, 0x4f, 0x3d, 0x9f, 0x0d, 0x8b, 0x3d, 0x9d, 0x8d, 0xa1, 0xbd,
  0x9c, 0x1a, 0x1c, 0xbe, 0x2e, 0x4d, 0xca, 0xbd, 0xca, 0xd9, 0xa8, 0xbc,
  0x1c, 0xaf, 0x88, 0x3e, 0x1d, 0x36, 0x99, 0xb9, 0xb2, 0xc4, 0x0b, 0xbe,
  0x10, 0x2f, 0x8a, 0x3d, 0xb5, 0x60, 0x12, 0x3e, 0x02, 0xb7, 0x13, 0xbe,
  0x0d, 0x66, 0x64, 0xbe, 0x79, 0xfb, 0x2c, 0x3d, 0x50, 0x3d, 0x96, 0x3e,
  0x05, 0x91, 0x99, 0xbc, 0x0b, 0x33, 0x8e, 0x3d, 0xa9, 0x87, 0x37, 0x3d,
  0xbb, 0x82, 0x4f, 0xbe, 0xd0, 0x7c, 0x83, 0xbe, 0xb6, 0x88, 0xc9, 0xbd,
  0x90, 0x68, 0x61, 0xbd, 0x5f, 0x29, 0x7d, 0x3e, 0xb7, 0x4c, 0x66, 0xbe,
  0x39, 0xa0, 0x02, 0xbc, 0x10, 0x3b, 0x3a, 0x3e, 0x58, 0x31, 0x17, 0x3e,
  0x53, 0xb1, 0xd5, 0xbd, 0x6a, 0x6d, 0x63, 0xbc, 0x4a, 0x09, 0x07, 0xbe,
  0xf3, 0x7e, 0x92, 0x3e, 0xa0, 0x1e, 0x73, 0x3d, 0x23, 0xa1, 0x2d, 0x3e,
  0xc1, 0x49, 0x6f, 0x3e, 0x71, 0x13, 0x70, 0xbe, 0x15, 0xe1, 0x95, 0xbe,
  0xb9, 0xb5, 0xbc, 0xbe, 0xdb, 0x8f, 0xa7, 0xbe, 0x4e, 0xff, 0x57, 0x3e,
  0x77, 0x89, 0x95, 0xbe, 0x4c, 0xea, 0xbf, 0xbd, 0x8e, 0x28, 0x06, 0xbe,
  0xb9, 0xcc, 0xe5, 0x3d, 0x81, 0x78, 0x00, 0xbe, 0x00, 0x27, 0xd6, 0x3b,
  0x0b, 0xfe, 0xd8, 0x3d, 0x37, 0xd8, 0x87, 0x3e, 0x3a, 0x08, 0xea, 0xbc,
  0x4a, 0xab, 0xb9, 0x3b, 0x8a, 0x0e, 0x65, 0xbd, 0x33, 0x61, 0x58, 0xbe,
  0xa8, 0xb6, 0x1e, 0xbd, 0xb3, 0x3e, 0x31, 0xbe, 0x67, 0xa2, 0xaa, 0xbe,
  0xe6, 0x7f, 0xac, 0x3d, 0xd8, 0x70, 0x0a, 0xbe, 0xc3, 0x34, 0x93, 0xbe,
  0xe7, 0x51, 0x4c, 0x3c, 0x9d, 0x72, 0x62, 0x3e, 0xcc, 0x9d, 0xca, 0xbd,
  0x52, 0xc6, 0x80, 0xbe, 0xb8, 0x08, 0x06, 0xbe, 0x11, 0x77, 0x10, 0xbf,
  0x4a, 0x14, 0x90, 0xbe, 0x48, 0xec, 0xf5, 0xbe, 0x23, 0x2f, 0x77, 0xbe,
  0xe6, 0x07, 0x51, 0xbe, 0x72, 0x05, 0x6e, 0xbe, 0x88, 0x24, 0x78, 0xbc,
  0xac, 0x37, 0xd4, 0x3d, 0x56, 0xb5, 0x52, 0xbe, 0x85, 0x62, 0xd5, 0xbe,
  0x58, 0x87, 0x1e, 0xbe, 0x7a, 0xed, 0x02, 0xbd, 0xb0, 0xa9, 0x1e, 0xbf,
  0xcb, 0xf4, 0x9d, 0xbe, 0xdd, 0x8b, 0x20, 0x3d, 0xda, 0xc6, 0x19, 0x3d,
  0x27, 0x80, 0x42, 0xbd, 0xd0, 0x6e, 0x1e, 0xbe, 0x7b, 0x65, 0xe5, 0xbe,
  0x35, 0x37, 0xf8, 0xbd, 0x5b, 0xd2, 0x1c, 0xbe, 0xc8, 0xd9, 0xc2, 0xbc,
  0x1d, 0x7f, 0xa1, 0xbb, 0xca, 0x53, 0x22, 0x3d, 0xc2, 0xb8, 0x47, 0xbd,
  0x8f, 0x9d, 0xd1, 0xbe, 0xb9, 0x8c, 0xfd, 0xbc, 0x09, 0x07, 0xdf, 0x3d,
  0x86, 0x68, 0x3f, 0xbe, 0x54, 0x84, 0xa6, 0xbe, 0x31, 0x6a, 0x84, 0xbe,
  0xb5, 0x85, 0x78, 0xbe, 0xaf, 0xcf, 0x92, 0xbd, 0x5f, 0x90, 0xfd, 0xbd,
  0xa7, 0xf1, 0xf1, 0xbe, 0xef, 0x86, 0xc4, 0xbe, 0xaa, 0x68, 0x40, 0x3c,
  0xf9, 0xa2, 0x9f, 0xbe, 0xc8, 0x27, 0x13, 0xbe, 0x60, 0x7b, 0xca, 0x3b,
  0xb0, 0xb2, 0x95, 0xbe, 0xbb, 0x7b, 0xda, 0xbe, 0x08, 0x9b, 0xbe, 0x3b,
  0x8b, 0x9f, 0x16, 0x3e, 0xc8, 0x11, 0x36, 0xbe, 0xd0, 0xe4, 0x2f, 0xbe,
  0xd7, 0xe4, 0x20, 0xbd, 0x7d, 0xe5, 0x5d, 0xbe, 0x80, 0xee, 0x63, 0x3d,
  0x34, 0xd2, 0x5e, 0xbe, 0xb9, 0xa4, 0xda, 0xbe, 0xac, 0xf5, 0x9c, 0xbe,
  0xa0, 0x1e, 0x36, 0xbe, 0x19, 0xcc, 0x4d, 0xbf, 0xf0, 0x27, 0xd6, 0xbe,
  0x83, 0xf7, 0xb9, 0x3d, 0x1f, 0x2b, 0xd4, 0xbe, 0x96, 0x5e, 0x96, 0xbe,
  0x66, 0x97, 0xcf, 0xbe, 0x8d, 0x13, 0x15, 0xbe, 0x09, 0x12, 0x11, 0xbf,
  0xa6, 0xae, 0x57, 0xbf, 0xb2, 0xef, 0x14, 0x3e, 0x95, 0x5e, 0x9e, 0x3c,
  0x82, 0x05, 0xe5, 0x3c, 0x7b, 0xb7, 0x77, 0xbd, 0xbb, 0x72, 0x62, 0xbe,
  0x28, 0x79, 0xaa, 0x3d, 0xd5, 0xac, 0x3d, 0xbe, 0xdc, 0x4e, 0x84, 0x3d,
  0xbd, 0x31, 0x97, 0xbd, 0x00, 0xeb, 0xba, 0x3d, 0xfb, 0x38, 0xc9, 0x3e,
  0x83, 0xb4, 0xd8, 0x3e, 0xc1, 0xf9, 0x81, 0x3e, 0xba, 0x37, 0x52, 0xbe,
  0x59, 0x8d, 0xab, 0xbd, 0x87, 0x7f, 0x9b, 0xbd, 0x24, 0xa5, 0x2f, 0x3e,
  0xdd, 0x04, 0xa5, 0xbd, 0x0f, 0xe3, 0xa1, 0x3c, 0x5f, 0xbe, 0xa4, 0x3c,
  0x4e, 0x8d, 0x66, 0xbe, 0x7b, 0x7a, 0x6d, 0xbd, 0xaf, 0x4a, 0x8b, 0xbd,
  0xab, 0x62, 0x80, 0x3d, 0x9c, 0x68, 0xa5, 0x3d, 0x80, 0x58, 0x0a, 0xbe,
  0xf1, 0xd2, 0x2c, 0x3e, 0xd0, 0x31, 0x26, 0x3e, 0x12, 0x65, 0x1b, 0x3e,
  0x4d, 0x14, 0xff, 0xbd, 0xcd, 0xe0, 0xd8, 0x3d, 0x90, 0x62, 0x06, 0xbd,
  0xa7, 0x48, 0x45, 0x3e, 0x8e, 0x56, 0xce, 0xbc, 0x9a, 0xb8, 0x0f, 0x3d,
  0x76, 0x0f, 0xe1, 0x3d, 0xbd, 0x41, 0xc5, 0xba, 0xfc, 0x86, 0xde, 0x3d,
  0xbf, 0x67, 0xa5, 0xbd, 0x7a, 0xe3, 0x48, 0x3e, 0x0a, 0x18, 0xa5, 0xbc,
  0x11, 0x9c, 0xad, 0xbe, 0xb4, 0xe5, 0x11, 0xbd, 0x8c, 0x35, 0x2a, 0x3f,
  0x08, 0xae, 0xb7, 0x3d, 0xe5, 0xb5, 0x02, 0xbd, 0x63, 0x2a, 0x15, 0x3d,
  0x21, 0x70, 0x2f, 0xbb, 0xaf, 0x0f, 0x17, 0x3c, 0x4b, 0x03, 0x93, 0x3c,
  0xcd, 0x94, 0x22, 0xbd, 0x2b, 0xe7, 0xc1, 0xbd, 0xa2, 0x3a, 0x85, 0xbe,
  0xd7, 0x19, 0x38, 0xbe, 0x67, 0xe4, 0x8f, 0x3d, 0xb0, 0xf8, 0xa9, 0xbd,
  0x42, 0x89, 0x14, 0xbe, 0xaa, 0xe2, 0x4f, 0x3d, 0xc9, 0x13, 0xaa, 0xbd,
  0x33, 0x40, 0x14, 0xbe, 0xa1, 0x6d, 0x23, 0xbd, 0x11, 0x21, 0x64, 0xbe,
  0xeb, 0x21, 0x95, 0xbd, 0x54, 0xfd, 0xf1, 0xbd, 0xf9, 0xbb, 0x0b, 0xbe,
  0x29, 0x98, 0xb5, 0x3d, 0x15, 0x23, 0x23, 0xbd, 0x7c, 0x59, 0x92, 0xbe,
  0x12, 0x10, 0xd8, 0xbd, 0x01, 0xaa, 0xd5, 0xbd, 0x36, 0xe1, 0x61, 0xbe,
  0x0c, 0x3f, 0xd9, 0xbd, 0x8c, 0xef, 0x11, 0xbe, 0xb4, 0xb9, 0xb9, 0x3d,
  0x07, 0xc9, 0x1e, 0xbe, 0x66, 0x69, 0xf0, 0xbd, 0x82, 0x5a, 0xd1, 0x3d,
  0xd6, 0x2c, 0x07, 0x3e, 0x98, 0x62, 0x82, 0x3d, 0xd7, 0xf0, 0xf6, 0x3d,
  0x11, 0x9c, 0xba, 0x3d, 0xe1, 0xae, 0x71, 0x3d, 0x04, 0x2b, 0x69, 0xbe,
  0xf9, 0x0a, 0x10, 0xbe, 0x92, 0x99, 0x4d, 0x3e, 0xa9, 0xc2, 0xc0, 0xbd,
  0xfa, 0x76, 0x19, 0xbe, 0x1a, 0x28, 0xb3, 0xbd, 0xe2, 0x96, 0xe3, 0x3b,
  0xe1, 0x8f, 0xca, 0x3d, 0x70, 0x68, 0xba, 0x3d, 0xcc, 0x6a, 0x40, 0x3e,
  0x60, 0x80, 0x77, 0x3c, 0x14, 0xaa, 0x89, 0x3d, 0xb2, 0xf9, 0xd9, 0xbd,
  0x8c, 0x27, 0x84, 0x3d, 0x52, 0xf8, 0xc2, 0x3c, 0xb4, 0x2f, 0xbb, 0x3c,
  0x3a, 0x88, 0xa2, 0xbd, 0xc1, 0xca, 0x2c, 0xbe, 0xbf, 0xa7, 0x78, 0xbe,
  0x9d, 0xb6, 0xc4, 0xba, 0xa4, 0x62, 0xc0, 0xbd, 0x5d, 0x08, 0x24, 0xbe,
  0x76, 0x1e, 0x82, 0xbe, 0x1d, 0x31, 0xa5, 0xbd, 0x3e, 0xc8, 0x61, 0x3d,
  0x05, 0x7c, 0x46, 0xbe, 0x81, 0x9c, 0x06, 0x3e, 0x85, 0x6a, 0x43, 0xbe,
  0x0a, 0x0f, 0xa0, 0xbc, 0xcf, 0x62, 0xd6, 0xbb, 0xf5, 0x00, 0xa0, 0x3d,
  0x96, 0x6e, 0x48, 0x3c, 0xbc, 0xaf, 0x14, 0x3d, 0x37, 0x2f, 0xf2, 0xbd,
  0xf2, 0x20, 0x17, 0x3d, 0x53, 0x0e, 0x23, 0xbd, 0x59, 0x1c, 0x2a, 0x3e,
  0x5a, 0x5b, 0x10, 0xba, 0xd9, 0x8b, 0xa6, 0xbd, 0x4d, 0x59, 0x5d, 0xbe,
  0xa8, 0xcc, 0x69, 0x3c, 0x4d, 0x9d, 0x0b, 0xbe, 0x5b, 0x79, 0x32, 0x3e,
  0x90, 0x3b, 0x9f, 0x3d, 0x18, 0x3e, 0xf1, 0xbd, 0xaa, 0x6d, 0x84, 0xbd,
  0x86, 0xd9, 0x19, 0x3c, 0xe3, 0xec, 0xf4, 0x3c, 0x12, 0x95, 0x3b, 0xbe,
  0x30, 0x37, 0x09, 0xbe, 0xda, 0x23, 0x0d, 0x3e, 0xd1, 0x6e, 0xa9, 0xbd,
  0xb0, 0xbc, 0x0b, 0x3e, 0xd9, 0x57, 0x2f, 0xbe, 0xa1, 0x12, 0xd5, 0xbd,
  0x3b, 0xa6, 0xa7, 0x3c, 0x2b, 0xf5, 0xe7, 0xbc, 0x42, 0x78, 0x24, 0xbd,
  0xb2, 0x91, 0xba, 0x3d, 0x1b, 0x0e, 0xd6, 0xbd, 0x49, 0x49, 0x19, 0xbd,
  0xc4, 0x9a, 0x25, 0xbb, 0xf8, 0xc8, 0xce, 0xbd, 0xfe, 0x60, 0x80, 0xbe,
  0x38, 0x34, 0x56, 0xbe, 0x69, 0x1f, 0xb6, 0xbd, 0xf6, 0xa7, 0x52, 0xbd,
  0xf2, 0xd3, 0x38, 0xbe, 0x92, 0xdd, 0x60, 0xbe, 0x18, 0x73, 0xfb, 0xbd,
  0x35, 0x82, 0x97, 0xbd, 0x32, 0xa6, 0x53, 0x3e, 0x25, 0x2e, 0x39, 0xbe,
  0xc0, 0x75, 0x04, 0xbe, 0xa7, 0x29, 0x93, 0xbe, 0x91, 0xad, 0xea, 0xbd,
  0x5c, 0x0c, 0x53, 0xbe, 0xbe, 0x42, 0x30, 0xbd, 0xe3, 0x8d, 0x81, 0x3d,
  0x97, 0x81, 0x0a, 0xbe, 0x51, 0x10, 0x86, 0xbe, 0x67, 0x58, 0x6b, 0xbe,
  0xdd, 0xb3, 0x6a, 0x3c, 0x73, 0x8b, 0x6b, 0x3d, 0x93, 0x74, 0x15, 0xbe,
  0x19, 0x44, 0x81, 0xbc, 0x23, 0x3d, 0x38, 0xbe, 0x63, 0x72, 0x40, 0x3c,
  0x66, 0xef, 0x09, 0xbd, 0x39, 0xbf, 0xb9, 0xbb, 0x18, 0xd0, 0x27, 0xbe,
  0xc2, 0xcb, 0x90, 0xbe, 0x96, 0x56, 0x81, 0xbe, 0xba, 0x32, 0x86, 0xbd,
  0xb2, 0x84, 0x27, 0xbd, 0x76, 0x4e, 0x7c, 0xbe, 0xd2, 0xef, 0x0c, 0x3e,
  0x86, 0xfc, 0xe5, 0x3c, 0x0e, 0x30, 0x39, 0x3e, 0x8d, 0x71, 0xf8, 0x3d,
  0xd0, 0x72, 0xd1, 0xbd, 0xc6, 0x84, 0x8d, 0xbe, 0x20, 0x46, 0xb5, 0xbe,
  0x6c, 0x87, 0x05, 0x3d, 0x6d, 0x8c, 0x63, 0x3e, 0x36, 0x0a, 0x8c, 0x3e,
  0x40, 0x73, 0xbd, 0xbe, 0xab, 0xee, 0x07, 0xbe, 0x91, 0xeb, 0xa6, 0x3e,
  0xa2, 0x4d, 0x8b, 0xbe, 0x4f, 0x99, 0xad, 0xbd, 0xa3, 0xa6, 0x86, 0xbd,
  0xd0, 0x3c, 0xa7, 0x3e, 0x8c, 0x84, 0xcf, 0x3d, 0x8a, 0x7d, 0x8a, 0xbc,
  0xb8, 0x39, 0xad, 0x3c, 0x8f, 0x43, 0xab, 0x3d, 0xbb, 0x57, 0x03, 0xbe,
  0x67, 0x1d, 0xe7, 0xbe, 0x38, 0x1c, 0x36, 0xbd, 0x22, 0xbd, 0x5f, 0x3e,
  0xec, 0xaa, 0xad, 0xbd, 0xfe, 0x11, 0x7c, 0xbe, 0xf4, 0x6f, 0x0f, 0xbe,
  0xea, 0x60, 0x4d, 0x3e, 0xe0, 0x9b, 0x8d, 0xbe, 0xc0, 0x0e, 0xca, 0x3d,
  0x24, 0xeb, 0x8a, 0x3d, 0x22, 0x92, 0xc0, 0x3e, 0x0a, 0xe5, 0xed, 0x3c,
  0x4d, 0x82, 0xe8, 0x3a, 0x91, 0x13, 0x93, 0x3c, 0x29, 0x84, 0xd1, 0x3d,
  0x1a, 0xa7, 0x66, 0xbe, 0xf9, 0xff, 0xbc, 0xbe, 0xfe, 0x11, 0xc4, 0xbc,
  0x3c, 0xb3, 0x6f, 0x3e, 0x49, 0x4e, 0x94, 0x3d, 0x61, 0xaf, 0xa1, 0xbd,
  0x19, 0x34, 0x68, 0x3d, 0x35, 0xb4, 0x3a, 0x3d, 0x6e, 0x01, 0xea, 0xbd,
  0xa0, 0x19, 0x82, 0xbe, 0x41, 0x76, 0x43, 0xbd, 0x99, 0x9a, 0x90, 0x3e,
  0x9c, 0x36, 0xc1, 0x3c, 0x0c, 0x1d, 0x4f, 0x3c, 0xdc, 0x18, 0x9b, 0x3d,
  0x02, 0x7c, 0x3b, 0x3d, 0x39, 0xfc, 0x68, 0xbe, 0x93, 0x8c, 0xbd, 0xbe,
  0xc2, 0x0e, 0x0b, 0xbd, 0x0d, 0xa1, 0x2f, 0x3e, 0x9a, 0xfc, 0x55, 0xbd,
  0xed, 0x1c, 0x17, 0xbe, 0xd5, 0x99, 0x9c, 0x3e, 0x67, 0xa2, 0xbd, 0x3d,
  0x08, 0xf9, 0x30, 0xbe, 0x59, 0x05, 0x89, 0xbe, 0xc1, 0xf2, 0x25, 0xbe,
  0xeb, 0x28, 0xc2, 0x3e, 0x0b, 0xdb, 0x59, 0x3d, 0xf5, 0xb5, 0xa4, 0x3d,
  0x9e, 0xd2, 0xcf, 0x3d, 0xd1, 0x14, 0xb7, 0x3b, 0x5f, 0x50, 0x6b, 0xbe,
  0xfb, 0x8f, 0x4b, 0xbe, 0xb3, 0x0f, 0x3a, 0xbe, 0x96, 0x75, 0x97, 0x3e,
  0x03, 0x44, 0x58, 0xbe, 0x97, 0xfc, 0x77, 0xbe, 0xcd, 0x65, 0x79, 0x3e,
  0x5a, 0x5f, 0xfe, 0x3d, 0xb2, 0x55, 0xe0, 0xbd, 0x05, 0xef, 0x93, 0xbe,
  0x6c, 0x47, 0x0d, 0xbe, 0xe5, 0xfd, 0x8b, 0x3e, 0xd0, 0x40, 0xa5, 0x3d,
  0xd6, 0xd2, 0x18, 0x3e, 0xd7, 0xe5, 0xdb, 0x3d, 0xea, 0x2e, 0x72, 0x3c,
  0x2e, 0xde, 0x40, 0xbd, 0x3a, 0x95, 0x3c, 0xbd, 0x66, 0x9f, 0x9f, 0xbe,
  0x92, 0x2c, 0x12, 0x3e, 0x00, 0xc9, 0x99, 0xbc, 0x74, 0xa3, 0x09, 0xbd,
  0x50, 0x3e, 0x88, 0x3c, 0x7e, 0x92, 0x94, 0x3d, 0xe7, 0xd3, 0xeb, 0xbd,
  0x97, 0x2a, 0x89, 0x3d, 0x37, 0x39, 0x4c, 0xbe, 0xb9, 0x8c, 0xa4, 0x3d,
  0x6b, 0xfb, 0x8e, 0xbe, 0x17, 0x70, 0xe4, 0xbe, 0x08, 0x7a, 0xf7, 0xbc,
  0x11, 0x7c, 0x78, 0xbe, 0xd5, 0xb7, 0xd6, 0xbd, 0xda, 0x46, 0xed, 0xbd,
  0xce, 0xa5, 0xd6, 0xbd, 0xb0, 0xf3, 0x58, 0xbe, 0xdb, 0xf3, 0x89, 0xbd,
  0x39, 0x35, 0xab, 0x3d, 0x08, 0xe8, 0xe0, 0x3e, 0x98, 0x05, 0x36, 0xbe,
  0x3a, 0x35, 0x00, 0xbd, 0x7d, 0xcb, 0xa0, 0xbc, 0x46, 0xd4, 0xc6, 0xbd,
  0x00, 0xf5, 0x20, 0xbe, 0xbc, 0xc5, 0x79, 0xbe, 0x22, 0x15, 0x7f, 0x3d,
  0xb0, 0x42, 0x89, 0x3d, 0x4f, 0x58, 0xc2, 0x3d, 0x9a, 0x92, 0x8e, 0x3d,
  0xaf, 0x63, 0xb6, 0x3b, 0x91, 0xfe, 0xca, 0xbd, 0xfc, 0x27, 0xf4, 0xbd,
  0x2c, 0xe6, 0xa0, 0x3d, 0x99, 0x56, 0x55, 0x3e, 0x1e, 0xf3, 0x4d, 0x3e,
  0xfb, 0xde, 0x09, 0xbd, 0x21, 0xe1, 0x86, 0x3d, 0x67, 0x2b, 0x26, 0x3e,
  0xa7, 0x47, 0x35, 0xbe, 0x9e, 0x17, 0xb5, 0xbd, 0x90, 0xdc, 0x42, 0xbe,
  0x5c, 0x6d, 0x7b, 0x3d, 0x7c, 0x9d, 0xb8, 0xbd, 0xa5, 0xe6, 0x07, 0x3d,
  0xd9, 0xc5, 0xfe, 0xbd, 0xe1, 0xb0, 0x64, 0x3e, 0xc3, 0x8f, 0x13, 0xbe,
  0x17, 0xcc, 0x66, 0xbd, 0x55, 0xd4, 0x82, 0x3e, 0x01, 0x9a, 0xb8, 0x3c,
  0x88, 0x08, 0x90, 0x3e, 0xd2, 0x09, 0xd4, 0xbd, 0xb6, 0x42, 0xd7, 0x3d,
  0x4f, 0x16, 0x02, 0x3e, 0x37, 0x8e, 0xbc, 0x3c, 0x55, 0x85, 0x37, 0x3e,
  0x0f, 0x80, 0x86, 0xbe, 0x86, 0xf8, 0x10, 0x3e, 0xcf, 0x92, 0x51, 0x3c,
  0x5e, 0xa2, 0x64, 0xbd, 0x6d, 0x21, 0x1c, 0xbd, 0x9a, 0x0a, 0xa1, 0x3b,
  0x1e, 0x75, 0xe1, 0xbd, 0x28, 0x98, 0x54, 0xbe, 0x7d, 0x2f, 0x8a, 0x3e,
  0x34, 0x4a, 0xee, 0x3d, 0xfa, 0xed, 0xa9, 0x3e, 0x4b, 0x2c, 0x92, 0xbc,
  0x64, 0x5b, 0x24, 0x3e, 0x26, 0x88, 0x8e, 0x3d, 0xb7, 0xc9, 0x97, 0x3d,
  0x71, 0xf8, 0xe8, 0xbb, 0x43, 0x60, 0xe2, 0xbe, 0xc7, 0xd0, 0xa9, 0xbd,
  0x29, 0x09, 0x93, 0x3d, 0x38, 0x92, 0x12, 0xbe, 0x32, 0x67, 0x12, 0xbe,
  0x8b, 0xdf, 0x90, 0xbd, 0xb1, 0x27, 0xf9, 0x3d, 0x6f, 0x0c, 0xd3, 0xbc,
  0xec, 0x6d, 0x52, 0x3d, 0x31, 0xd2, 0x5e, 0x3e, 0x93, 0x0b, 0xb3, 0x3e,
  0xd1, 0xfe, 0xb7, 0xbb, 0xdb, 0xfb, 0x78, 0xbc, 0x74, 0x3c, 0xac, 0x3d,
  0xc8, 0x43, 0x29, 0xbe, 0x82, 0x4f, 0x7e, 0xbe, 0xea, 0xcc, 0xdc, 0xbe,
  0xf5, 0x36, 0x41, 0xbd, 0x83, 0x99, 0x74, 0xbd, 0x63, 0x72, 0x7c, 0xbe,
  0x29, 0x4d, 0x81, 0xbe, 0x41, 0x9a, 0xdf, 0x3d, 0x4a, 0xde, 0x02, 0xbe,
  0xe8, 0x31, 0xc3, 0xbd, 0x0f, 0x7b, 0xdd, 0xbd, 0x69, 0xe7, 0x8b, 0x3c,
  0xa2, 0xf2, 0x22, 0x3e, 0x7f, 0x38, 0x71, 0xbe, 0xfb, 0x07, 0x90, 0xbd,
  0xa2, 0xf5, 0x81, 0x3d, 0xce, 0xd2, 0x9e, 0xbc, 0x85, 0x9f, 0x7e, 0xbe,
  0x56, 0x18, 0x90, 0xbe, 0x8a, 0xcd, 0x0e, 0xbe, 0xee, 0x3f, 0x50, 0xbd,
  0xa1, 0x00, 0x47, 0x3e, 0x78, 0x8c, 0x96, 0xbe, 0x23, 0x64, 0x03, 0x3e,
  0x7d, 0xd5, 0x89, 0x3e, 0x2b, 0x10, 0x2f, 0xbc, 0xc3, 0x92, 0x65, 0xbd,
  0xf1, 0x67, 0x8c, 0x3d, 0x69, 0x99, 0x8e, 0x3e, 0x7f, 0x65, 0x0c, 0xbe,
  0xa0, 0x77, 0xbb, 0xbc, 0x62, 0xfd, 0xff, 0xff, 0x10, 0x00, 0x00, 0x00,
  0x07, 0x00, 0x00, 0x00, 0x14, 0x00, 0x00, 0x00, 0x2c, 0x00, 0x00, 0x00,
  0x02, 0x00, 0x00, 0x00, 0x10, 0x00, 0x00, 0x00, 0x70, 0x00, 0x00, 0x00,
  0x17, 0x00, 0x00, 0x00, 0x73, 0x65, 0x71, 0x75, 0x65, 0x6e, 0x74, 0x69,
  0x61, 0x6c, 0x2f, 0x64, 0x65, 0x6e, 0x73, 0x65, 0x2f, 0x4d, 0x61, 0x74,
  0x4d, 0x75, 0x6c, 0x00, 0xcc, 0xfc, 0xff, 0xff, 0xd6, 0xfd, 0xff, 0xff,
  0x04, 0x00, 0x00, 0x00, 0x08, 0x00, 0x00, 0x00, 0xff, 0xff, 0xff, 0xff,
  0x70, 0x00, 0x00, 0x00, 0x00, 0x00, 0x0e, 0x00, 0x18, 0x00, 0x08, 0x00,
  0x07, 0x00, 0x0c, 0x00, 0x10, 0x00, 0x14, 0x00, 0x0e, 0x00, 0x00, 0x00,
  0x00, 0x00, 0x00, 0x02, 0x10, 0x00, 0x00, 0x00, 0x06, 0x00, 0x00, 0x00,
  0x10, 0x00, 0x00, 0x00, 0x2c, 0x00, 0x00, 0x00, 0x01, 0x00, 0x00, 0x00,
  0x02, 0x00, 0x00, 0x00, 0x18, 0x00, 0x00, 0x00, 0x73, 0x65, 0x71, 0x75,
  0x65, 0x6e, 0x74, 0x69, 0x61, 0x6c, 0x2f, 0x66, 0x6c, 0x61, 0x74, 0x74,
  0x65, 0x6e, 0x2f, 0x43, 0x6f, 0x6e, 0x73, 0x74, 0x00, 0x00, 0x00, 0x00,
  0x34, 0xfd, 0xff, 0xff, 0x3e, 0xfe, 0xff, 0xff, 0x04, 0x00, 0x00, 0x00,
  0x10, 0x00, 0x00, 0x00, 0x88, 0xa0, 0x49, 0x3f, 0x49, 0x1d, 0xd7, 0xbe,
  0x68, 0xac, 0x47, 0xc0, 0x46, 0x74, 0x62, 0x3f, 0x26, 0xfe, 0xff, 0xff,
  0x10, 0x00, 0x00, 0x00, 0x05, 0x00, 0x00, 0x00, 0x10, 0x00, 0x00, 0x00,
  0x44, 0x00, 0x00, 0x00, 0x01, 0x00, 0x00, 0x00, 0x04, 0x00, 0x00, 0x00,
  0x32, 0x00, 0x00, 0x00, 0x73, 0x65, 0x71, 0x75, 0x65, 0x6e, 0x74, 0x69,
  0x61, 0x6c, 0x2f, 0x64, 0x65, 0x6e, 0x73, 0x65, 0x5f, 0x31, 0x2f, 0x42,
  0x69, 0x61, 0x73, 0x41, 0x64, 0x64, 0x2f, 0x52, 0x65, 0x61, 0x64, 0x56,
  0x61, 0x72, 0x69, 0x61, 0x62, 0x6c, 0x65, 0x4f, 0x70, 0x2f, 0x72, 0x65,
  0x73, 0x6f, 0x75, 0x72, 0x63, 0x65, 0x00, 0x00, 0xa8, 0xfd, 0xff, 0xff,
  0xb2, 0xfe, 0xff, 0xff, 0x04, 0x00, 0x00, 0x00, 0x40, 0x00, 0x00, 0x00,
  0xd5, 0x1f, 0x84, 0xbe, 0xd7, 0x71, 0x11, 0xbe, 0x3e, 0x5d, 0x45, 0xbf,
  0xa7, 0x1d, 0xa6, 0xbe, 0x7b, 0x04, 0x9d, 0xbe, 0xf6, 0x91, 0x9e, 0x3f,
  0x3c, 0x94, 0x7c, 0x40, 0xd3, 0xbb, 0xd4, 0xbf, 0x64, 0xb7, 0x67, 0x40,
  0x27, 0xd1, 0xac, 0xbe, 0x2f, 0x07, 0x8f, 0xbe, 0x7e, 0x71, 0xac, 0xbe,
  0xf8, 0x8a, 0x9e, 0xbf, 0x2f, 0x53, 0x49, 0xbe, 0x3b, 0xeb, 0x1b, 0x3f,
  0xfa, 0x9d, 0xb5, 0xbe, 0xca, 0xfe, 0xff, 0xff, 0x10, 0x00, 0x00, 0x00,
  0x04, 0x00, 0x00, 0x00, 0x10, 0x00, 0x00, 0x00, 0x44, 0x00, 0x00, 0x00,
  0x01, 0x00, 0x00, 0x00, 0x10, 0x00, 0x00, 0x00, 0x30, 0x00, 0x00, 0x00,
  0x73, 0x65, 0x71, 0x75, 0x65, 0x6e, 0x74, 0x69, 0x61, 0x6c, 0x2f, 0x64,
  0x65, 0x6e, 0x73, 0x65, 0x2f, 0x42, 0x69, 0x61, 0x73, 0x41, 0x64, 0x64,
  0x2f, 0x52, 0x65, 0x61, 0x64, 0x56, 0x61, 0x72, 0x69, 0x61, 0x62, 0x6c,
  0x65, 0x4f, 0x70, 0x2f, 0x72, 0x65, 0x73, 0x6f, 0x75, 0x72, 0x63, 0x65,
  0x00, 0x00, 0x00, 0x00, 0x4c, 0xfe, 0xff, 0xff, 0x56, 0xff, 0xff, 0xff,
  0x04, 0x00, 0x00, 0x00, 0x40, 0x00, 0x00, 0x00, 0xbc, 0x53, 0xa1, 0xbd,
  0x8f, 0xea, 0x0b, 0xc0, 0x6d, 0xed, 0x60, 0xbd, 0xbe, 0xfa, 0x5e, 0x3f,
  0x96, 0xe4, 0x5b, 0x3f, 0x15, 0xfb, 0xbf, 0xbf, 0x05, 0xca, 0xbb, 0x3d,
  0x2f, 0x5f, 0xbd, 0x40, 0x14, 0xb4, 0xb2, 0xbf, 0x41, 0x24, 0x55, 0xbb,
  0x5b, 0x93, 0xef, 0x3e, 0xc5, 0x05, 0xd4, 0xbf, 0x04, 0x86, 0xd6, 0xbf,
  0x52, 0xb8, 0xab, 0xbd, 0xa6, 0x79, 0x88, 0x40, 0xea, 0x3c, 0x20, 0xc0,
  0x6e, 0xff, 0xff, 0xff, 0x10, 0x00, 0x00, 0x00, 0x03, 0x00, 0x00, 0x00,
  0x10, 0x00, 0x00, 0x00, 0x48, 0x00, 0x00, 0x00, 0x01, 0x00, 0x00, 0x00,
  0x10, 0x00, 0x00, 0x00, 0x33, 0x00, 0x00, 0x00, 0x73, 0x65, 0x71, 0x75,
  0x65, 0x6e, 0x74, 0x69, 0x61, 0x6c, 0x2f, 0x63, 0x6f, 0x6e, 0x76, 0x32,
  0x64, 0x5f, 0x31, 0x2f, 0x42, 0x69, 0x61, 0x73, 0x41, 0x64, 0x64, 0x2f,
  0x52, 0x65, 0x61, 0x64, 0x56, 0x61, 0x72, 0x69, 0x61, 0x62, 0x6c, 0x65,
  0x4f, 0x70, 0x2f, 0x72, 0x65, 0x73, 0x6f, 0x75, 0x72, 0x63, 0x65, 0x00,
  0x04, 0x00, 0x06, 0x00, 0x04, 0x00, 0x00, 0x00, 0x00, 0x00, 0x06, 0x00,
  0x08, 0x00, 0x04, 0x00, 0x06, 0x00, 0x00, 0x00, 0x04, 0x00, 0x00, 0x00,
  0x20, 0x00, 0x00, 0x00, 0xe3, 0x77, 0xd8, 0x3d, 0x63, 0xa0, 0xe5, 0xbf,
  0x12, 0xab, 0x03, 0xc0, 0xae, 0xc1, 0xad, 0xbf, 0x58, 0x1c, 0x47, 0xbe,
  0xcd, 0x8c, 0x7e, 0xc0, 0x43, 0x7c, 0x18, 0xc0, 0x8f, 0x39, 0x82, 0xbf,
  0x00, 0x00, 0x0e, 0x00, 0x14, 0x00, 0x04, 0x00, 0x00, 0x00, 0x08, 0x00,
  0x0c, 0x00, 0x10, 0x00, 0x0e, 0x00, 0x00, 0x00, 0x10, 0x00, 0x00, 0x00,
  0x02, 0x00, 0x00, 0x00, 0x10, 0x00, 0x00, 0x00, 0x44, 0x00, 0x00, 0x00,
  0x01, 0x00, 0x00, 0x00, 0x08, 0x00, 0x00, 0x00, 0x31, 0x00, 0x00, 0x00,
  0x73, 0x65, 0x71, 0x75, 0x65, 0x6e, 0x74, 0x69, 0x61, 0x6c, 0x2f, 0x63,
  0x6f, 0x6e, 0x76, 0x32, 0x64, 0x2f, 0x42, 0x69, 0x61, 0x73, 0x41, 0x64,
  0x64, 0x2f, 0x52, 0x65, 0x61, 0x64, 0x56, 0x61, 0x72, 0x69, 0x61, 0x62,
  0x6c, 0x65, 0x4f, 0x70, 0x2f, 0x72, 0x65, 0x73, 0x6f, 0x75, 0x72, 0x63,
  0x65, 0x00, 0x00, 0x00, 0x90, 0xff, 0xff, 0xff, 0x14, 0x00, 0x18, 0x00,
  0x04, 0x00, 0x00, 0x00, 0x08, 0x00, 0x0c, 0x00, 0x10, 0x00, 0x00, 0x00,
  0x00, 0x00, 0x14, 0x00, 0x14, 0x00, 0x00, 0x00, 0x14, 0x00, 0x00, 0x00,
  0x01, 0x00, 0x00, 0x00, 0x20, 0x00, 0x00, 0x00, 0x44, 0x00, 0x00, 0x00,
  0x2c, 0x00, 0x00, 0x00, 0x04, 0x00, 0x00, 0x00, 0x01, 0x00, 0x00, 0x00,
  0x40, 0x00, 0x00, 0x00, 0x03, 0x00, 0x00, 0x00, 0x01, 0x00, 0x00, 0x00,
  0x0c, 0x00, 0x00, 0x00, 0x63, 0x6f, 0x6e, 0x76, 0x32, 0x64, 0x5f, 0x69,
  0x6e, 0x70, 0x75, 0x74, 0x00, 0x00, 0x00, 0x00, 0x04, 0x00, 0x00, 0x00,
  0xff, 0xff, 0xff, 0xff, 0x40, 0x00, 0x00, 0x00, 0x03, 0x00, 0x00, 0x00,
  0x01, 0x00, 0x00, 0x00, 0xfc, 0xff, 0xff, 0xff, 0x04, 0x00, 0x04, 0x00,
  0x04, 0x00, 0x00, 0x00
};
unsigned int model_tflite_len = 13052;

