#include "magic_wand_model_data.h"


// We need to keep the data array aligned on some architectures.

#ifdef __has_attribute

#define HAVE_ATTRIBUTE(x) __has_attribute(x)

#else

#define HAVE_ATTRIBUTE(x) 0

#endif

#if HAVE_ATTRIBUTE(aligned) || (defined(__GNUC__) && !defined(__clang__))

#define DATA_ALIGN_ATTRIBUTE __attribute__((aligned(4)))

#else

#define DATA_ALIGN_ATTRIBUTE

#endif

const unsigned char g_magic_wand_model_data[] = {
  0x1c, 0x00, 0x00, 0x00, 0x54, 0x46, 0x4c, 0x33, 0x14, 0x00, 0x20, 0x00,
  0x04, 0x00, 0x08, 0x00, 0x0c, 0x00, 0x10, 0x00, 0x14, 0x00, 0x00, 0x00,
  0x18, 0x00, 0x1c, 0x00, 0x14, 0x00, 0x00, 0x00, 0x03, 0x00, 0x00, 0x00,
  0x18, 0x00, 0x00, 0x00, 0x2c, 0x00, 0x00, 0x00, 0xd8, 0x00, 0x00, 0x00,
  0x2c, 0x00, 0x00, 0x00, 0x80, 0x00, 0x00, 0x00, 0x78, 0x00, 0x00, 0x00,
  0x05, 0x00, 0x00, 0x00, 0x28, 0x07, 0x00, 0x00, 0x44, 0x06, 0x00, 0x00,
  0xbc, 0x03, 0x00, 0x00, 0xf8, 0x02, 0x00, 0x00, 0xac, 0x01, 0x00, 0x00,
  0x01, 0x00, 0x00, 0x00, 0xd0, 0x00, 0x00, 0x00, 0x14, 0x00, 0x00, 0x00,
  0x98, 0x32, 0x00, 0x00, 0x94, 0x32, 0x00, 0x00, 0x8c, 0x31, 0x00, 0x00,
  0xd8, 0x30, 0x00, 0x00, 0x30, 0x30, 0x00, 0x00, 0xbc, 0x2f, 0x00, 0x00,
  0x50, 0x2f, 0x00, 0x00, 0x00, 0x13, 0x00, 0x00, 0xec, 0x11, 0x00, 0x00,
  0x10, 0x10, 0x00, 0x00, 0xb4, 0x07, 0x00, 0x00, 0x6c, 0x32, 0x00, 0x00,
  0x68, 0x32, 0x00, 0x00, 0x64, 0x32, 0x00, 0x00, 0x60, 0x32, 0x00, 0x00,
  0x5c, 0x32, 0x00, 0x00, 0x58, 0x32, 0x00, 0x00, 0x54, 0x32, 0x00, 0x00,
  0x50, 0x32, 0x00, 0x00, 0x3c, 0x00, 0x00, 0x00, 0x00, 0x00, 0x00, 0x00,
  0x01, 0x00, 0x00, 0x00, 0x0c, 0x00, 0x00, 0x00, 0x08, 0x00, 0x0c, 0x00,
  0x04, 0x00, 0x08, 0x00, 0x08, 0x00, 0x00, 0x00, 0x08, 0x00, 0x00, 0x00,
  0x13, 0x00, 0x00, 0x00, 0x13, 0x00, 0x00, 0x00, 0x6d, 0x69, 0x6e, 0x5f,
  0x72, 0x75, 0x6e, 0x74, 0x69, 0x6d, 0x65, 0x5f, 0x76, 0x65, 0x72, 0x73,
  0x69, 0x6f, 0x6e, 0x00, 0xfa, 0xce, 0xff, 0xff, 0x04, 0x00, 0x00, 0x00,
  0x10, 0x00, 0x00, 0x00, 0x31, 0x2e, 0x35, 0x2e, 0x30, 0x00, 0x00, 0x00,
  0x00, 0x00, 0x00, 0x00, 0x00, 0x00, 0x00, 0x00, 0x0f, 0x00, 0x00, 0x00,
  0x4d, 0x4c, 0x49, 0x52, 0x20, 0x43, 0x6f, 0x6e, 0x76, 0x65, 0x72, 0x74,
  0x65, 0x64, 0x2e, 0x00, 0x00, 0x00, 0x0e, 0x00, 0x18, 0x00, 0x04, 0x00,
  0x08, 0x00, 0x0c, 0x00, 0x10, 0x00, 0x14, 0x00, 0x0e, 0x00, 0x00, 0x00,
  0x14, 0x00, 0x00, 0x00, 0x5c, 0x00, 0x00, 0x00, 0x60, 0x00, 0x00, 0x00,
  0x64, 0x00, 0x00, 0x00, 0x84, 0x00, 0x00, 0x00, 0x12, 0x00, 0x00, 0x00,
  0x58, 0x31, 0x00, 0x00, 0xe8, 0x30, 0x00, 0x00, 0x44, 0x30, 0x00, 0x00,
  0x9c, 0x2f, 0x00, 0x00, 0xf4, 0x2e, 0x00, 0x00, 0x94, 0x2e, 0x00, 0x00,
  0x2c, 0x2e, 0x00, 0x00, 0xd8, 0x11, 0x00, 0x00, 0xbc, 0x10, 0x00, 0x00,
  0xe0, 0x0e, 0x00, 0x00, 0x0c, 0x06, 0x00, 0x00, 0x28, 0x05, 0x00, 0x00,
  0xe8, 0x03, 0x00, 0x00, 0x3c, 0x03, 0x00, 0x00, 0x98, 0x02, 0x00, 0x00,
  0xd4, 0x01, 0x00, 0x00, 0x10, 0x01, 0x00, 0x00, 0x84, 0x00, 0x00, 0x00,
  0x01, 0x00, 0x00, 0x00, 0x00, 0x00, 0x00, 0x00, 0x01, 0x00, 0x00, 0x00,
  0x11, 0x00, 0x00, 0x00, 0x08, 0x00, 0x00, 0x00, 0x74, 0x05, 0x00, 0x00,
  0x94, 0x04, 0x00, 0x00, 0x78, 0x03, 0x00, 0x00, 0xbc, 0x02, 0x00, 0x00,
  0x30, 0x02, 0x00, 0x00, 0x50, 0x01, 0x00, 0x00, 0xa8, 0x00, 0x00, 0x00,
  0x10, 0x00, 0x00, 0x00, 0x04, 0x00, 0x00, 0x00, 0x6d, 0x61, 0x69, 0x6e,
  0x00, 0x00, 0x00, 0x00, 0x7a, 0xff, 0xff, 0xff, 0x00, 0x00, 0x00, 0x09,
  0x04, 0x00, 0x00, 0x00, 0x1c, 0x00, 0x00, 0x00, 0x10, 0x00, 0x00, 0x00,
  0x04, 0x00, 0x00, 0x00, 0xf6, 0xcf, 0xff, 0xff, 0x00, 0x00, 0x80, 0x3f,
  0x01, 0x00, 0x00, 0x00, 0x11, 0x00, 0x00, 0x00, 0x01, 0x00, 0x00, 0x00,
  0x10, 0x00, 0x00, 0x00, 0xa0, 0xfa, 0xff, 0xff, 0x19, 0x00, 0x00, 0x00,
  0x00, 0x00, 0x00, 0x19, 0x01, 0x00, 0x00, 0x00, 0x84, 0xcf, 0xff, 0xff,
  0x14, 0x00, 0x00, 0x00, 0x12, 0x00, 0x00, 0x00, 0x18, 0x00, 0x00, 0x00,
  0x30, 0x00, 0x00, 0x00, 0x20, 0x00, 0x00, 0x00, 0x02, 0x00, 0x00, 0x00,
  0x01, 0x00, 0x00, 0x00, 0x03, 0x00, 0x00, 0x00, 0x08, 0x00, 0x00, 0x00,
  0x49, 0x64, 0x65, 0x6e, 0x74, 0x69, 0x74, 0x79, 0x00, 0x00, 0x00, 0x00,
  0x02, 0x00, 0x00, 0x00, 0xff, 0xff, 0xff, 0xff, 0x03, 0x00, 0x00, 0x00,
  0x68, 0xd0, 0xff, 0xff, 0x00, 0x00, 0x0e, 0x00, 0x18, 0x00, 0x08, 0x00,
  0x0c, 0x00, 0x10, 0x00, 0x07, 0x00, 0x14, 0x00, 0x0e, 0x00, 0x00, 0x00,
  0x00, 0x00, 0x00, 0x08, 0x03, 0x00, 0x00, 0x00, 0x18, 0x00, 0x00, 0x00,
  0x0c, 0x00, 0x00, 0x00, 0x04, 0x00, 0x00, 0x00, 0x84, 0xcf, 0xff, 0xff,
  0x01, 0x00, 0x00, 0x00, 0x10, 0x00, 0x00, 0x00, 0x03, 0x00, 0x00, 0x00,
  0x0f, 0x00, 0x00, 0x00, 0x07, 0x00, 0x00, 0x00, 0x04, 0x00, 0x00, 0x00,
  0x0c, 0xd0, 0xff, 0xff, 0x14, 0x00, 0x00, 0x00, 0x11, 0x00, 0x00, 0x00,
  0x18, 0x00, 0x00, 0x00, 0x5c, 0x00, 0x00, 0x00, 0x4c, 0x00, 0x00, 0x00,
  0x02, 0x00, 0x00, 0x00, 0x01, 0x00, 0x00, 0x00, 0x03, 0x00, 0x00, 0x00,
  0x34, 0x00, 0x00, 0x00, 0x73, 0x65, 0x71, 0x75, 0x65, 0x6e, 0x74, 0x69,
  0x61, 0x6c, 0x2f, 0x64, 0x65, 0x6e, 0x73, 0x65, 0x5f, 0x31, 0x2f, 0x4d,
  0x61, 0x74, 0x4d, 0x75, 0x6c, 0x3b, 0x73, 0x65, 0x71, 0x75, 0x65, 0x6e,
  0x74, 0x69, 0x61, 0x6c, 0x2f, 0x64, 0x65, 0x6e, 0x73, 0x65, 0x5f, 0x31,
  0x2f, 0x42, 0x69, 0x61, 0x73, 0x41, 0x64, 0x64, 0x00, 0x00, 0x00, 0x00,
  0x02, 0x00, 0x00, 0x00, 0xff, 0xff, 0xff, 0xff, 0x03, 0x00, 0x00, 0x00,
  0x0c, 0xd0, 0xff, 0xff, 0xda, 0xfc, 0xff, 0xff, 0x00, 0x00, 0x00, 0x08,
  0x03, 0x00, 0x00, 0x00, 0x24, 0x00, 0x00, 0x00, 0x18, 0x00, 0x00, 0x00,
  0x0c, 0x00, 0x00, 0x00, 0x00, 0x00, 0x06, 0x00, 0x08, 0x00, 0x07, 0x00,
  0x06, 0x00, 0x00, 0x00, 0x00, 0x00, 0x00, 0x01, 0x01, 0x00, 0x00, 0x00,
  0x0f, 0x00, 0x00, 0x00, 0x03, 0x00, 0x00, 0x00, 0x0e, 0x00, 0x00, 0x00,
  0x06, 0x00, 0x00, 0x00, 0x03, 0x00, 0x00, 0x00, 0xe8, 0xfb, 0xff, 0xff,
  0x09, 0x00, 0x00, 0x00, 0x00, 0x00, 0x00, 0x09, 0x01, 0x00, 0x00, 0x00,
  0xcc, 0xd0, 0xff, 0xff, 0x14, 0x00, 0x00, 0x00, 0x10, 0x00, 0x00, 0x00,
  0x18, 0x00, 0x00, 0x00, 0x6c, 0x00, 0x00, 0x00, 0x5c, 0x00, 0x00, 0x00,
  0x02, 0x00, 0x00, 0x00, 0x01, 0x00, 0x00, 0x00, 0x10, 0x00, 0x00, 0x00,
  0x46, 0x00, 0x00, 0x00, 0x73, 0x65, 0x71, 0x75, 0x65, 0x6e, 0x74, 0x69,
  0x61, 0x6c, 0x2f, 0x64, 0x65, 0x6e, 0x73, 0x65, 0x2f, 0x4d, 0x61, 0x74,
  0x4d, 0x75, 0x6c, 0x3b, 0x73, 0x65, 0x71, 0x75, 0x65, 0x6e, 0x74, 0x69,
  0x61, 0x6c, 0x2f, 0x64, 0x65, 0x6e, 0x73, 0x65, 0x2f, 0x52, 0x65, 0x6c,
  0x75, 0x3b, 0x73, 0x65, 0x71, 0x75, 0x65, 0x6e, 0x74, 0x69, 0x61, 0x6c,
  0x2f, 0x64, 0x65, 0x6e, 0x73, 0x65, 0x2f, 0x42, 0x69, 0x61, 0x73, 0x41,
  0x64, 0x64, 0x00, 0x00, 0x02, 0x00, 0x00, 0x00, 0xff, 0xff, 0xff, 0xff,
  0x10, 0x00, 0x00, 0x00, 0xec, 0xd1, 0xff, 0xff, 0x00, 0x00, 0x0a, 0x00,
  0x10, 0x00, 0x04, 0x00, 0x08, 0x00, 0x0c, 0x00, 0x0a, 0x00, 0x00, 0x00,
  0x02, 0x00, 0x00, 0x00, 0x10, 0x00, 0x00, 0x00, 0x04, 0x00, 0x00, 0x00,
  0x01, 0x00, 0x00, 0x00, 0x0e, 0x00, 0x00, 0x00, 0x02, 0x00, 0x00, 0x00,
  0x0d, 0x00, 0x00, 0x00, 0x05, 0x00, 0x00, 0x00, 0xa8, 0xfc, 0xff, 0xff,
  0x16, 0x00, 0x00, 0x00, 0x00, 0x00, 0x00, 0x16, 0x01, 0x00, 0x00, 0x00,
  0x8c, 0xd1, 0xff, 0xff, 0x14, 0x00, 0x00, 0x00, 0x0f, 0x00, 0x00, 0x00,
  0x18, 0x00, 0x00, 0x00, 0x40, 0x00, 0x00, 0x00, 0x30, 0x00, 0x00, 0x00,
  0x02, 0x00, 0x00, 0x00, 0x01, 0x00, 0x00, 0x00, 0x70, 0x00, 0x00, 0x00,
  0x1a, 0x00, 0x00, 0x00, 0x73, 0x65, 0x71, 0x75, 0x65, 0x6e, 0x74, 0x69,
  0x61, 0x6c, 0x2f, 0x66, 0x6c, 0x61, 0x74, 0x74, 0x65, 0x6e, 0x2f, 0x52,
  0x65, 0x73, 0x68, 0x61, 0x70, 0x65, 0x00, 0x00, 0x02, 0x00, 0x00, 0x00,
  0xff, 0xff, 0xff, 0xff, 0x70, 0x00, 0x00, 0x00, 0x70, 0xd1, 0xff, 0xff,
  0x3e, 0xfe, 0xff, 0xff, 0x00, 0x00, 0x00, 0x05, 0x01, 0x00, 0x00, 0x00,
  0x38, 0x00, 0x00, 0x00, 0x2c, 0x00, 0x00, 0x00, 0x14, 0x00, 0x00, 0x00,
  0x00, 0x00, 0x0e, 0x00, 0x14, 0x00, 0x00, 0x00, 0x10, 0x00, 0x0c, 0x00,
  0x08, 0x00, 0x04, 0x00, 0x0e, 0x00, 0x00, 0x00, 0x03, 0x00, 0x00, 0x00,
  0x01, 0x00, 0x00, 0x00, 0x03, 0x00, 0x00, 0x00, 0x01, 0x00, 0x00, 0x00,
  0x01, 0x00, 0x00, 0x00, 0x0d, 0x00, 0x00, 0x00, 0x01, 0x00, 0x00, 0x00,
  0x0c, 0x00, 0x00, 0x00, 0x2c, 0xd2, 0xff, 0xff, 0x14, 0x00, 0x00, 0x00,
  0x0e, 0x00, 0x00, 0x00, 0x20, 0x00, 0x00, 0x00, 0x58, 0x00, 0x00, 0x00,
  0x40, 0x00, 0x00, 0x00, 0x04, 0x00, 0x00, 0x00, 0x01, 0x00, 0x00, 0x00,
  0x07, 0x00, 0x00, 0x00, 0x01, 0x00, 0x00, 0x00, 0x10, 0x00, 0x00, 0x00,
  0x22, 0x00, 0x00, 0x00, 0x73, 0x65, 0x71, 0x75, 0x65, 0x6e, 0x74, 0x69,
  0x61, 0x6c, 0x2f, 0x6d, 0x61, 0x78, 0x5f, 0x70, 0x6f, 0x6f, 0x6c, 0x69,
  0x6e, 0x67, 0x32, 0x64, 0x5f, 0x31, 0x2f, 0x4d, 0x61, 0x78, 0x50, 0x6f,
  0x6f, 0x6c, 0x00, 0x00, 0x04, 0x00, 0x00, 0x00, 0xff, 0xff, 0xff, 0xff,
  0x07, 0x00, 0x00, 0x00, 0x01, 0x00, 0x00, 0x00, 0x10, 0x00, 0x00, 0x00,
  0x28, 0xd2, 0xff, 0xff, 0x1a, 0xfe, 0xff, 0xff, 0x00, 0x00, 0x00, 0x01,
  0x24, 0x00, 0x00, 0x00, 0x18, 0x00, 0x00, 0x00, 0x04, 0x00, 0x00, 0x00,
  0x0c, 0xfe, 0xff, 0xff, 0x01, 0x00, 0x00, 0x00, 0x01, 0x00, 0x00, 0x00,
  0x00, 0x00, 0x00, 0x01, 0x01, 0x00, 0x00, 0x00, 0x0c, 0x00, 0x00, 0x00,
  0x03, 0x00, 0x00, 0x00, 0x0b, 0x00, 0x00, 0x00, 0x09, 0x00, 0x00, 0x00,
  0x02, 0x00, 0x00, 0x00, 0xd4, 0xd2, 0xff, 0xff, 0x14, 0x00, 0x00, 0x00,
  0x0d, 0x00, 0x00, 0x00, 0x20, 0x00, 0x00, 0x00, 0xb8, 0x00, 0x00, 0x00,
  0xa0, 0x00, 0x00, 0x00, 0x04, 0x00, 0x00, 0x00, 0x01, 0x00, 0x00, 0x00,
  0x15, 0x00, 0x00, 0x00, 0x01, 0x00, 0x00, 0x00, 0x10, 0x00, 0x00, 0x00,
  0x83, 0x00, 0x00, 0x00, 0x73, 0x65, 0x71, 0x75, 0x65, 0x6e, 0x74, 0x69,
  0x61, 0x6c, 0x2f, 0x63, 0x6f, 0x6e, 0x76, 0x32, 0x64, 0x5f, 0x31, 0x2f,
  0x52, 0x65, 0x6c, 0x75, 0x3b, 0x73, 0x65, 0x71, 0x75, 0x65, 0x6e, 0x74,
  0x69, 0x61, 0x6c, 0x2f, 0x63, 0x6f, 0x6e, 0x76, 0x32, 0x64, 0x5f, 0x31,
  0x2f, 0x42, 0x69, 0x61, 0x73, 0x41, 0x64, 0x64, 0x3b, 0x73, 0x65, 0x71,
  0x75, 0x65, 0x6e, 0x74, 0x69, 0x61, 0x6c, 0x2f, 0x63, 0x6f, 0x6e, 0x76,
  0x32, 0x64, 0x5f, 0x31, 0x2f, 0x43, 0x6f, 0x6e, 0x76, 0x32, 0x44, 0x3b,
  0x73, 0x65, 0x71, 0x75, 0x65, 0x6e, 0x74, 0x69, 0x61, 0x6c, 0x2f, 0x63,
  0x6f, 0x6e, 0x76, 0x32, 0x64, 0x5f, 0x31, 0x2f, 0x42, 0x69, 0x61, 0x73,
  0x41, 0x64, 0x64, 0x2f, 0x52, 0x65, 0x61, 0x64, 0x56, 0x61, 0x72, 0x69,
  0x61, 0x62, 0x6c, 0x65, 0x4f, 0x70, 0x2f, 0x72, 0x65, 0x73, 0x6f, 0x75,
  0x72, 0x63, 0x65, 0x00, 0x04, 0x00, 0x00, 0x00, 0xff, 0xff, 0xff, 0xff,
  0x15, 0x00, 0x00, 0x00, 0x01, 0x00, 0x00, 0x00, 0x10, 0x00, 0x00, 0x00,
  0x40, 0xd4, 0xff, 0xff, 0x00, 0x00, 0x0e, 0x00, 0x1a, 0x00, 0x08, 0x00,
  0x0c, 0x00, 0x10, 0x00, 0x07, 0x00, 0x14, 0x00, 0x0e, 0x00, 0x00, 0x00,
  0x00, 0x00, 0x00, 0x05, 0x01, 0x00, 0x00, 0x00, 0x3c, 0x00, 0x00, 0x00,
  0x30, 0x00, 0x00, 0x00, 0x14, 0x00, 0x00, 0x00, 0x00, 0x00, 0x0e, 0x00,
  0x18, 0x00, 0x17, 0x00, 0x10, 0x00, 0x0c, 0x00, 0x08, 0x00, 0x04, 0x00,
  0x0e, 0x00, 0x00, 0x00, 0x03, 0x00, 0x00, 0x00, 0x03, 0x00, 0x00, 0x00,
  0x03, 0x00, 0x00, 0x00, 0x03, 0x00, 0x00, 0x00, 0x00, 0x00, 0x00, 0x01,
  0x01, 0x00, 0x00, 0x00, 0x0b, 0x00, 0x00, 0x00, 0x01, 0x00, 0x00, 0x00,
  0x0a, 0x00, 0x00, 0x00, 0x2c, 0xff, 0xff, 0xff, 0x11, 0x00, 0x00, 0x00,
  0x00, 0x00, 0x00, 0x11, 0x01, 0x00, 0x00, 0x00, 0x10, 0xd4, 0xff, 0xff,
  0x14, 0x00, 0x00, 0x00, 0x0c, 0x00, 0x00, 0x00, 0x20, 0x00, 0x00, 0x00,
  0x58, 0x00, 0x00, 0x00, 0x40, 0x00, 0x00, 0x00, 0x04, 0x00, 0x00, 0x00,
  0x01, 0x00, 0x00, 0x00, 0x15, 0x00, 0x00, 0x00, 0x01, 0x00, 0x00, 0x00,
  0x08, 0x00, 0x00, 0x00, 0x20, 0x00, 0x00, 0x00, 0x73, 0x65, 0x71, 0x75,
  0x65, 0x6e, 0x74, 0x69, 0x61, 0x6c, 0x2f, 0x6d, 0x61, 0x78, 0x5f, 0x70,
  0x6f, 0x6f, 0x6c, 0x69, 0x6e, 0x67, 0x32, 0x64, 0x2f, 0x4d, 0x61, 0x78,
  0x50, 0x6f, 0x6f, 0x6c, 0x00, 0x00, 0x00, 0x00, 0x04, 0x00, 0x00, 0x00,
  0xff, 0xff, 0xff, 0xff, 0x15, 0x00, 0x00, 0x00, 0x01, 0x00, 0x00, 0x00,
  0x08, 0x00, 0x00, 0x00, 0x1c, 0xd5, 0xff, 0xff, 0x00, 0x00, 0x0e, 0x00,
  0x14, 0x00, 0x00, 0x00, 0x08, 0x00, 0x0c, 0x00, 0x07, 0x00, 0x10, 0x00,
  0x0e, 0x00, 0x00, 0x00, 0x00, 0x00, 0x00, 0x01, 0x30, 0x00, 0x00, 0x00,
  0x24, 0x00, 0x00, 0x00, 0x10, 0x00, 0x00, 0x00, 0x0c, 0x00, 0x10, 0x00,
  0x00, 0x00, 0x04, 0x00, 0x08, 0x00, 0x0f, 0x00, 0x0c, 0x00, 0x00, 0x00,
  0x01, 0x00, 0x00, 0x00, 0x01, 0x00, 0x00, 0x00, 0x00, 0x00, 0x00, 0x01,
  0x01, 0x00, 0x00, 0x00, 0x0a, 0x00, 0x00, 0x00, 0x03, 0x00, 0x00, 0x00,
  0x00, 0x00, 0x00, 0x00, 0x08, 0x00, 0x00, 0x00, 0x01, 0x00, 0x00, 0x00,
  0x0c, 0x00, 0x10, 0x00, 0x0b, 0x00, 0x00, 0x00, 0x0c, 0x00, 0x04, 0x00,
  0x0c, 0x00, 0x00, 0x00, 0x03, 0x00, 0x00, 0x00, 0x00, 0x00, 0x00, 0x03,
  0x01, 0x00, 0x00, 0x00, 0xf0, 0xd4, 0xff, 0xff, 0x14, 0x00, 0x00, 0x00,
  0x0b, 0x00, 0x00, 0x00, 0x20, 0x00, 0x00, 0x00, 0xb0, 0x00, 0x00, 0x00,
  0x98, 0x00, 0x00, 0x00, 0x04, 0x00, 0x00, 0x00, 0x01, 0x00, 0x00, 0x00,
  0x40, 0x00, 0x00, 0x00, 0x03, 0x00, 0x00, 0x00, 0x08, 0x00, 0x00, 0x00,
  0x7b, 0x00, 0x00, 0x00, 0x73, 0x65, 0x71, 0x75, 0x65, 0x6e, 0x74, 0x69,
  0x61, 0x6c, 0x2f, 0x63, 0x6f, 0x6e, 0x76, 0x32, 0x64, 0x2f, 0x52, 0x65,
  0x6c, 0x75, 0x3b, 0x73, 0x65, 0x71, 0x75, 0x65, 0x6e, 0x74, 0x69, 0x61,
  0x6c, 0x2f, 0x63, 0x6f, 0x6e, 0x76, 0x32, 0x64, 0x2f, 0x42, 0x69, 0x61,
  0x73, 0x41, 0x64, 0x64, 0x3b, 0x73, 0x65, 0x71, 0x75, 0x65, 0x6e, 0x74,
  0x69, 0x61, 0x6c, 0x2f, 0x63, 0x6f, 0x6e, 0x76, 0x32, 0x64, 0x2f, 0x43,
  0x6f, 0x6e, 0x76, 0x32, 0x44, 0x3b, 0x73, 0x65, 0x71, 0x75, 0x65, 0x6e,
  0x74, 0x69, 0x61, 0x6c, 0x2f, 0x63, 0x6f, 0x6e, 0x76, 0x32, 0x64, 0x2f,
  0x42, 0x69, 0x61, 0x73, 0x41, 0x64, 0x64, 0x2f, 0x52, 0x65, 0x61, 0x64,
  0x56, 0x61, 0x72, 0x69, 0x61, 0x62, 0x6c, 0x65, 0x4f, 0x70, 0x2f, 0x72,
  0x65, 0x73, 0x6f, 0x75, 0x72, 0x63, 0x65, 0x00, 0x04, 0x00, 0x00, 0x00,
  0xff, 0xff, 0xff, 0xff, 0x40, 0x00, 0x00, 0x00, 0x03, 0x00, 0x00, 0x00,
  0x08, 0x00, 0x00, 0x00, 0x44, 0xd5, 0xff, 0xff, 0x4e, 0xd6, 0xff, 0xff,
  0x04, 0x00, 0x00, 0x00, 0x00, 0x08, 0x00, 0x00, 0xe3, 0x8e, 0x42, 0x3e,
  0xd1, 0xe4, 0x95, 0xbc, 0xf8, 0x60, 0x00, 0x3d, 0xe4, 0xb4, 0x9a, 0xbd,
  0x05, 0x9d, 0x57, 0xbd, 0x90, 0xf6, 0xb8, 0xbd, 0x2f, 0xe4, 0x49, 0x3e,
  0x01, 0x8c, 0x64, 0x3e, 0x93, 0x0f, 0x04, 0xbd, 0x05, 0xd2, 0x35, 0xbc,
  0xbc, 0x37, 0x41, 0x3d, 0x83, 0xb5, 0x58, 0x3e, 0x8c, 0x3d, 0xa5, 0xbd,
  0x22, 0x5d, 0x99, 0x3e, 0x0e, 0x9d, 0x2d, 0x3e, 0x63, 0xfc, 0xa9, 0xbd,
  0x55, 0x51, 0x9b, 0xbd, 0x8b, 0x06, 0xb8, 0x3e, 0x81, 0x6f, 0x68, 0x3d,
  0xa7, 0xba, 0x52, 0xbd, 0x42, 0x3b, 0x07, 0xbe, 0x27, 0xec, 0x69, 0x3e,
  0x91, 0xbe, 0x93, 0x3d, 0xa1, 0x88, 0x2c, 0xbc, 0xa9, 0x5c, 0x22, 0x3e,
  0x88, 0x0f, 0xa7, 0xba, 0x59, 0x02, 0x84, 0x3c, 0x36, 0x8d, 0xcd, 0xbd,
  0x56, 0x60, 0xe0, 0xbd, 0xfa, 0x2d, 0xab, 0xbd, 0xb0, 0x4f, 0x0f, 0xbe,
  0x6e, 0xcb, 0x19, 0xbd, 0x9c, 0x53, 0xec, 0xbe, 0x2c, 0x9d, 0xcf, 0xba,
  0xff, 0xde, 0x83, 0xbd, 0x68, 0x84, 0x1b, 0xbe, 0xe1, 0x65, 0x83, 0x3e,
  0x4a, 0xe4, 0x4a, 0xbe, 0xed, 0xda, 0x19, 0x3e, 0x62, 0xab, 0x4a, 0xbe,
  0x36, 0x1c, 0x6f, 0xbe, 0x2b, 0xdd, 0x9b, 0xbe, 0x9c, 0x7d, 0xe2, 0xbb,
  0x5e, 0xaf, 0x3d, 0x3c, 0xc8, 0x6f, 0x8d, 0x3d, 0x0a, 0x6d, 0x55, 0xbe,
  0x59, 0x72, 0xf5, 0x3e, 0x1d, 0xa5, 0x12, 0xbe, 0x42, 0xc0, 0x2e, 0x3e,
  0xc0, 0x60, 0x25, 0xbf, 0xbe, 0x0b, 0x99, 0x3e, 0xf4, 0xb0, 0x9d, 0x3b,
  0xa2, 0x87, 0xe8, 0x3e, 0x2d, 0x70, 0x54, 0xbe, 0xd4, 0x5a, 0x2a, 0x3e,
  0x6e, 0xa5, 0x82, 0xbd, 0x16, 0x2e, 0x54, 0x3e, 0xb5, 0x84, 0xe6, 0xbe,
  0x29, 0xb2, 0x0f, 0xbf, 0xeb, 0xff, 0x08, 0x3d, 0x59, 0x8c, 0xe0, 0x3d,
  0x3f, 0xc2, 0x13, 0xbe, 0xb3, 0x73, 0x87, 0xbe, 0x7e, 0x34, 0x39, 0xbd,
  0x9b, 0x4f, 0xca, 0xbc, 0x3e, 0x89, 0x8b, 0xbc, 0x4e, 0xb2, 0xdc, 0xbc,
  0x16, 0xa6, 0x27, 0xbe, 0xf3, 0x93, 0x29, 0x3d, 0x5a, 0x58, 0x02, 0xbe,
  0x8a, 0x80, 0x1a, 0xbe, 0xf0, 0x20, 0xea, 0xbd, 0x6b, 0xe5, 0x92, 0xbe,
  0x2e, 0xe0, 0x91, 0xbe, 0xf3, 0xe2, 0x11, 0xbd, 0x2c, 0xda, 0x7b, 0xbd,
  0x49, 0x01, 0xb0, 0x3c, 0x8d, 0x32, 0x81, 0xbe, 0x59, 0xee, 0xea, 0x3e,
  0x87, 0x5f, 0xba, 0xbd, 0x12, 0xd7, 0x44, 0x3e, 0x36, 0xc8, 0x94, 0xbe,
  0x39, 0x44, 0x95, 0x3d, 0xac, 0x19, 0xad, 0x3d, 0xb4, 0xf5, 0x01, 0x3f,
  0xc5, 0x1c, 0x3d, 0xbe, 0x37, 0x7b, 0x50, 0x3e, 0x55, 0x67, 0xc0, 0xbc,
  0xd7, 0x01, 0x98, 0x3d, 0x6c, 0x53, 0xcf, 0xbd, 0xc6, 0x35, 0xbf, 0xbe,
  0x2a, 0xc5, 0x26, 0x3e, 0x10, 0x9b, 0x2d, 0x3e, 0xc7, 0xa9, 0x97, 0xbd,
  0x8a, 0x5b, 0x6c, 0xbd, 0xbf, 0xa6, 0x08, 0xbd, 0x72, 0xaa, 0x9a, 0xbd,
  0xf0, 0x31, 0x59, 0xbe, 0x2c, 0x3f, 0xea, 0xbe, 0x0b, 0xa6, 0x09, 0xbe,
  0xc8, 0xeb, 0x0d, 0x3e, 0x2f, 0x07, 0x4b, 0xbd, 0x84, 0x71, 0xd5, 0xbe,
  0xe1, 0x6d, 0x86, 0xbd, 0x23, 0xd4, 0x10, 0xbe, 0xf6, 0x2d, 0x8f, 0x3c,
  0x9c, 0x18, 0xe3, 0xbd, 0x9b, 0x13, 0x21, 0xbe, 0xcc, 0xa0, 0xb5, 0x3c,
  0x4d, 0x64, 0xc9, 0xbd, 0xf6, 0x1c, 0xa4, 0xbe, 0x74, 0x54, 0x9a, 0xbd,
  0x07, 0x65, 0xa7, 0xbe, 0xca, 0x4a, 0x41, 0xbe, 0x72, 0x5d, 0xbd, 0x3e,
  0x3a, 0x08, 0xb3, 0xbd, 0xa8, 0x04, 0x9e, 0x3e, 0xe8, 0x58, 0xd7, 0xbd,
  0x39, 0xcc, 0x08, 0x3e, 0x66, 0xb0, 0x85, 0xbc, 0x4c, 0x29, 0xb7, 0x3d,
  0xac, 0x04, 0x31, 0xbe, 0xf1, 0xbd, 0x65, 0x3e, 0x25, 0xbe, 0x77, 0x3e,
  0x8e, 0x66, 0xb4, 0x3e, 0xbb, 0x25, 0xb8, 0xbd, 0x65, 0xf8, 0x06, 0x3f,
  0x05, 0xa6, 0x2e, 0x3d, 0x54, 0x0f, 0x2b, 0x3e, 0x8d, 0x5e, 0x15, 0x3f,
  0xcd, 0xb7, 0xb4, 0xbd, 0xa2, 0x6b, 0xa3, 0xbe, 0x56, 0x9a, 0x5d, 0x3c,
  0x74, 0x6f, 0xc5, 0xbc, 0xa9, 0x68, 0x2a, 0x3e, 0xcc, 0xd4, 0x75, 0xbe,
  0x05, 0x7e, 0x2b, 0x3d, 0x47, 0xe9, 0x05, 0xbe, 0x6f, 0x60, 0x58, 0xbd,
  0xd0, 0x5f, 0x5c, 0xbe, 0x57, 0xb2, 0xb6, 0x3d, 0xfd, 0xd4, 0x1a, 0x3e,
  0xca, 0x21, 0x1c, 0x3f, 0x82, 0x48, 0x66, 0xbe, 0x5e, 0x26, 0x26, 0xbe,
  0xae, 0x26, 0x65, 0xbd, 0xe3, 0x03, 0x7a, 0x3e, 0xd2, 0x6f, 0xd9, 0xbd,
  0xdb, 0xec, 0x9c, 0x3c, 0x40, 0x96, 0xfa, 0xbd, 0xdc, 0xf3, 0x25, 0x3e,
  0xd7, 0x84, 0x30, 0xbe, 0x2a, 0xea, 0x51, 0xbd, 0xa8, 0x9d, 0x3e, 0xbe,
  0x23, 0xf7, 0x4a, 0x3e, 0x2b, 0x69, 0x97, 0xbd, 0xa1, 0xb5, 0x89, 0xbd,
  0xaa, 0xe8, 0xb3, 0xbe, 0x62, 0x1e, 0x87, 0xbd, 0xb4, 0x52, 0x63, 0xbd,
  0x42, 0xec, 0x4f, 0x3f, 0xf8, 0xee, 0xc6, 0x3b, 0x84, 0x31, 0x5a, 0xbd,
  0x9f, 0x69, 0x35, 0x3c, 0x46, 0x49, 0xde, 0x3d, 0xea, 0x8a, 0xce, 0xbd,
  0xf3, 0x86, 0xe7, 0x3e, 0xa9, 0xb6, 0xb7, 0xbc, 0x6b, 0xa6, 0x5b, 0xbe,
  0xaf, 0xea, 0x58, 0xbd, 0x87, 0x59, 0x00, 0xbe, 0x99, 0x9e, 0x30, 0x3d,
  0xaa, 0x55, 0xcd, 0x3c, 0xc5, 0x5d, 0xb8, 0xbd, 0x55, 0xe4, 0x00, 0x3f,
  0x14, 0x99, 0xda, 0xbc, 0x08, 0xdb, 0x75, 0xbe, 0x46, 0xc6, 0x1a, 0xbb,
  0xe0, 0x84, 0x41, 0xbe, 0x9e, 0x71, 0x85, 0xbb, 0x42, 0xd7, 0x96, 0x3c,
  0xf4, 0xf7, 0xd9, 0xbd, 0xe9, 0x79, 0xeb, 0xbe, 0xa0, 0x1b, 0xcb, 0xbc,
  0x66, 0xf6, 0xb8, 0xbe, 0xda, 0x44, 0x56, 0xbc, 0x78, 0x71, 0x3e, 0xbe,
  0x03, 0xfb, 0xc1, 0xbd, 0x02, 0xe6, 0x23, 0x3e, 0x72, 0xd5, 0x20, 0xbe,
  0x44, 0x66, 0x28, 0xbf, 0x8a, 0x5a, 0x6c, 0xbd, 0xae, 0x6f, 0x6a, 0x3e,
  0xb5, 0x54, 0x8c, 0xbe, 0x0d, 0x6c, 0xe8, 0xbe, 0xba, 0x29, 0x75, 0xbe,
  0xab, 0xe0, 0x2a, 0xbf, 0x06, 0xd7, 0x93, 0xbe, 0xd6, 0x05, 0xca, 0xbe,
  0xb7, 0x6d, 0x4e, 0xbe, 0x21, 0xe2, 0x7c, 0x3e, 0xd1, 0xa0, 0x37, 0x3e,
  0x97, 0xc6, 0x62, 0x3d, 0x63, 0x44, 0x45, 0xbe, 0xc9, 0x0e, 0xbf, 0x3d,
  0xe2, 0x2c, 0xec, 0x3e, 0x04, 0xe8, 0x3d, 0x3e, 0x5a, 0x36, 0x4e, 0xbe,
  0xd0, 0x52, 0xa0, 0xbe, 0x4a, 0x67, 0xf5, 0x3d, 0x53, 0x7a, 0x73, 0x3d,
  0xbf, 0x47, 0xf6, 0xbd, 0xeb, 0x31, 0xc4, 0x3d, 0xa8, 0x44, 0x51, 0xbe,
  0xe9, 0x96, 0xb3, 0x3c, 0xe3, 0xbf, 0x0b, 0xbe, 0xf3, 0xe0, 0xf2, 0x3c,
  0x74, 0x4f, 0xa3, 0xbd, 0xcf, 0xab, 0x33, 0x3e, 0x73, 0x75, 0xbd, 0xbd,
  0x2d, 0x24, 0xb1, 0x3d, 0x44, 0x85, 0x33, 0x3c, 0xee, 0x1d, 0x8e, 0x3d,
  0xd3, 0x3b, 0xc2, 0xbd, 0x0b, 0x1d, 0xd7, 0xbe, 0xf1, 0x6c, 0x9a, 0xbe,
  0x1e, 0x53, 0xed, 0xbe, 0x21, 0x14, 0x36, 0xbe, 0xa7, 0x40, 0x7a, 0xbe,
  0x3b, 0x9b, 0x9f, 0xbe, 0x5b, 0x2f, 0x12, 0xbf, 0x77, 0xd3, 0xe3, 0xbd,
  0xd7, 0x75, 0xb0, 0xbe, 0x27, 0xfd, 0x71, 0xbe, 0xc4, 0x57, 0xe6, 0x3d,
  0x3e, 0x57, 0xdf, 0xbd, 0x1e, 0xdd, 0x4d, 0x3d, 0x23, 0xee, 0x77, 0x3d,
  0x26, 0x5f, 0xad, 0xbe, 0x73, 0x20, 0x57, 0x3d, 0x2b, 0x58, 0x45, 0x3e,
  0x96, 0x37, 0x6f, 0x3d, 0x53, 0xd2, 0x8a, 0xbd, 0x55, 0x4b, 0x57, 0xbd,
  0xf1, 0x2e, 0x8f, 0xbd, 0x50, 0xa0, 0x08, 0xbe, 0xd7, 0xd9, 0x71, 0x3e,
  0xb2, 0x11, 0xb5, 0xbc, 0xfa, 0x96, 0xf8, 0x3d, 0x2a, 0xda, 0x99, 0x3e,
  0x56, 0x70, 0xb8, 0xbb, 0xbc, 0x20, 0x8a, 0x3d, 0xe8, 0xf3, 0xfe, 0x3c,
  0x15, 0x78, 0x6f, 0x3e, 0x7f, 0x86, 0xf7, 0x3e, 0x65, 0x2d, 0xb1, 0x3d,
  0x3e, 0x04, 0xf5, 0xbd, 0x75, 0x53, 0x5d, 0x3d, 0x3c, 0x30, 0x3c, 0xbe,
  0xec, 0x02, 0x2b, 0xbd, 0xa7, 0x8e, 0xd9, 0xbd, 0xd5, 0x8c, 0x7b, 0xbe,
  0x64, 0xc6, 0x75, 0x3c, 0xb1, 0x76, 0x82, 0xbe, 0xf7, 0xdf, 0x14, 0xbe,
  0x08, 0xa1, 0x59, 0xbd, 0x4d, 0xfc, 0x45, 0xbe, 0x70, 0x93, 0x84, 0x3e,
  0x52, 0x8e, 0x6a, 0x3d, 0x5c, 0x6d, 0x0c, 0x3e, 0x4e, 0x08, 0xb0, 0xbd,
  0x36, 0x83, 0x6b, 0xbe, 0x3c, 0xc6, 0xbf, 0x3b, 0xb6, 0x0e, 0x9f, 0xbe,
  0x64, 0x20, 0xeb, 0xbc, 0x3f, 0x38, 0x65, 0xbb, 0x1b, 0x68, 0x57, 0xbe,
  0x93, 0xb3, 0x07, 0xbe, 0xf0, 0x0b, 0xc8, 0xbd, 0xf5, 0xcd, 0xc9, 0xbc,
  0x01, 0x95, 0x43, 0xbe, 0x5b, 0xa5, 0xeb, 0x3d, 0x9b, 0x6e, 0x93, 0xbd,
  0x3e, 0x2d, 0xa7, 0x3e, 0x0f, 0xb3, 0x3e, 0xbe, 0xad, 0x54, 0x06, 0xbe,
  0x14, 0x4b, 0xc6, 0xbd, 0xa6, 0x9e, 0xbb, 0xbc, 0x25, 0xe8, 0x12, 0x3e,
  0x3e, 0xba, 0xad, 0xbd, 0xe0, 0x48, 0x9d, 0xbd, 0x9d, 0x4f, 0x28, 0x3f,
  0x01, 0x41, 0x4b, 0x3c, 0x92, 0x62, 0xdd, 0xbd, 0x13, 0xdd, 0x55, 0x3e,
  0x4f, 0x04, 0xb6, 0xbd, 0xc5, 0x70, 0x92, 0x3d, 0x14, 0x36, 0xec, 0xbd,
  0x2b, 0x75, 0x8a, 0xbd, 0x43, 0x9d, 0x0d, 0xbe, 0x31, 0x98, 0x13, 0x3e,
  0xe4, 0xee, 0x5e, 0xbe, 0x84, 0x0e, 0x69, 0x3d, 0x64, 0x12, 0x80, 0xbd,
  0xfa, 0xf6, 0x57, 0x3d, 0xdc, 0x16, 0x52, 0xbe, 0xdf, 0xe8, 0x5d, 0xbe,
  0x05, 0x10, 0x17, 0xbe, 0x15, 0x37, 0x74, 0x3e, 0x98, 0xd7, 0x08, 0xbe,
  0x9d, 0xfe, 0x7e, 0xbd, 0x64, 0x4f, 0xa3, 0xbd, 0xf6, 0xb1, 0xa2, 0xbe,
  0x98, 0x4e, 0x8b, 0xbd, 0x22, 0xc2, 0xd4, 0xbd, 0x69, 0x9b, 0x6d, 0xbe,
  0x31, 0x80, 0x94, 0x3e, 0x47, 0x00, 0x43, 0xbd, 0xd1, 0xc0, 0x2d, 0xbe,
  0xe9, 0x7f, 0x42, 0xbe, 0xd5, 0x0f, 0xd9, 0xbe, 0x90, 0x5d, 0x9d, 0x3b,
  0x59, 0xb0, 0x25, 0xbe, 0x79, 0x8f, 0xfc, 0xbd, 0xd2, 0x90, 0x96, 0xbe,
  0xca, 0x2e, 0x04, 0x3d, 0xdd, 0x9d, 0x6f, 0xbe, 0x9e, 0x28, 0xed, 0x3d,
  0xec, 0xbe, 0xd0, 0xbe, 0x2a, 0x56, 0x9a, 0xbd, 0x14, 0xa6, 0xbf, 0xbe,
  0x33, 0x93, 0x96, 0xbe, 0x30, 0x24, 0x0f, 0xbe, 0x18, 0xeb, 0x0c, 0xbd,
  0x26, 0x7d, 0x4f, 0xbe, 0xb4, 0xbd, 0xd1, 0xbd, 0xf1, 0x4c, 0x13, 0xbe,
  0x7d, 0x91, 0x67, 0xbd, 0x4c, 0x52, 0xb6, 0xbd, 0x46, 0x27, 0x92, 0xbe,
  0x7b, 0x6b, 0x37, 0xbe, 0xce, 0x47, 0xb0, 0x3d, 0xf2, 0x17, 0xd6, 0x3d,
  0x3f, 0x27, 0x12, 0xbd, 0x77, 0x37, 0xfe, 0x3b, 0xe6, 0x4b, 0x06, 0xbd,
  0x06, 0xe0, 0x20, 0xbd, 0x8d, 0x06, 0xb2, 0xbe, 0x0a, 0x0d, 0x91, 0xbe,
  0xe6, 0x12, 0xed, 0xbd, 0x3d, 0x14, 0xc0, 0xbe, 0x15, 0xda, 0x12, 0x3e,
  0x8f, 0x3a, 0xa8, 0x3e, 0x6b, 0x50, 0x16, 0xbd, 0x71, 0xc5, 0xe5, 0xbd,
  0xde, 0xf8, 0x8f, 0xbd, 0x9d, 0x46, 0x76, 0x3d, 0xb9, 0xc6, 0x64, 0xbe,
  0xd6, 0x33, 0x5a, 0x3e, 0x4e, 0xef, 0x80, 0x3d, 0x95, 0xd3, 0x85, 0x3d,
  0x8d, 0x64, 0x0c, 0xbe, 0xfa, 0x35, 0x8a, 0xbe, 0x2e, 0x99, 0xba, 0xbe,
  0x1f, 0x8f, 0xab, 0x3a, 0x5d, 0x1d, 0x1a, 0xbe, 0x77, 0x54, 0x48, 0xbd,
  0x75, 0xb4, 0x4b, 0xbe, 0x1f, 0x3f, 0xbf, 0x3d, 0xa6, 0x2f, 0x17, 0x3d,
  0x21, 0xec, 0xd6, 0xbd, 0x2b, 0xc5, 0x98, 0xbc, 0x27, 0x90, 0x0f, 0xbd,
  0x92, 0xf0, 0x8e, 0xbe, 0xaf, 0xc3, 0x4c, 0xbd, 0x07, 0xa6, 0x4f, 0x3e,
  0xc2, 0xa3, 0xf1, 0xbd, 0x41, 0x62, 0x73, 0xbd, 0xb0, 0x45, 0x50, 0x3d,
  0x09, 0x8d, 0x2f, 0x3e, 0xa8, 0x39, 0x50, 0xbe, 0x2d, 0xd8, 0x4a, 0xbe,
  0x56, 0xca, 0x3b, 0xbd, 0x24, 0x1c, 0x3d, 0xbd, 0xaa, 0x49, 0x6e, 0x3e,
  0x15, 0xb0, 0x5c, 0xbe, 0x30, 0xeb, 0xa8, 0xbd, 0x19, 0xb9, 0x18, 0x3c,
  0x1d, 0xa9, 0xec, 0xbc, 0xf1, 0x93, 0xa1, 0xbd, 0xbf, 0x45, 0x29, 0xbe,
  0xb9, 0x6f, 0xce, 0x3d, 0xf4, 0x0a, 0xdf, 0xbd, 0x0e, 0xb4, 0xd4, 0xbe,
  0x48, 0xf4, 0xb3, 0xbd, 0xee, 0x3a, 0xce, 0x3d, 0x94, 0x86, 0xc9, 0xbe,
  0xdb, 0xd7, 0x81, 0xbd, 0xcc, 0xd9, 0x01, 0xbe, 0x62, 0x4e, 0xb2, 0x3c,
  0xd8, 0xae, 0xba, 0x3d, 0xb3, 0xe2, 0xb6, 0x3d, 0x86, 0x5d, 0x38, 0xbe,
  0x8b, 0xc0, 0x3c, 0x3e, 0x21, 0x07, 0x30, 0xbe, 0x42, 0xd8, 0x63, 0xbc,
  0x74, 0x4b, 0xa2, 0xbd, 0xa9, 0xa2, 0xbd, 0x3d, 0xee, 0x86, 0x72, 0xbe,
  0x23, 0x8e, 0xb3, 0xbc, 0xca, 0x90, 0xa8, 0x3d, 0x1b, 0x95, 0x85, 0xbd,
  0x72, 0x5b, 0x37, 0xbe, 0xce, 0x80, 0x20, 0xbe, 0xb1, 0xb5, 0xe7, 0xbb,
  0xac, 0x14, 0x18, 0xbc, 0x2b, 0x35, 0x8c, 0x3e, 0xfe, 0xc2, 0xb5, 0xbd,
  0xda, 0x7c, 0xe6, 0x3d, 0x37, 0x5e, 0xbb, 0xbe, 0x6a, 0x88, 0x09, 0xbe,
  0x5f, 0x52, 0xf0, 0x3d, 0x68, 0xab, 0x8b, 0x3e, 0xca, 0xd6, 0x9b, 0xbe,
  0x9e, 0x6f, 0x1a, 0x3e, 0x6f, 0x24, 0x9b, 0x3e, 0x1e, 0xe0, 0xd4, 0x3d,
  0x72, 0x88, 0xb6, 0xbe, 0x56, 0x79, 0x91, 0x3c, 0x81, 0x36, 0x69, 0x3e,
  0xcd, 0xa4, 0xa9, 0x3e, 0xa0, 0xd1, 0xeb, 0xbe, 0x69, 0x12, 0xc8, 0xbd,
  0x02, 0x80, 0x41, 0xbe, 0x79, 0xcb, 0x9d, 0x3d, 0x0e, 0xfe, 0x5e, 0xbe,
  0xbc, 0x37, 0x14, 0x3e, 0xf1, 0x67, 0xf5, 0x3c, 0x6e, 0x8c, 0x6b, 0x3e,
  0xc4, 0x99, 0x8f, 0xbe, 0xd5, 0x58, 0xf2, 0x3d, 0xf1, 0xdd, 0xa0, 0xbe,
  0x26, 0x1e, 0xc9, 0x3c, 0x41, 0x85, 0x29, 0xbe, 0x84, 0xf6, 0xef, 0x3d,
  0xe0, 0xa1, 0xdd, 0x3e, 0x69, 0x6a, 0x34, 0x3e, 0xa6, 0xf3, 0x81, 0xbe,
  0x85, 0x1c, 0x8a, 0xbe, 0xe3, 0x6d, 0xb1, 0xbc, 0x63, 0xc4, 0xed, 0x3e,
  0x6e, 0x1a, 0xee, 0xbd, 0xad, 0x63, 0x8b, 0x3c, 0xb5, 0x7f, 0xb3, 0xbe,
  0xc9, 0x15, 0xf7, 0xbd, 0x38, 0x9a, 0x62, 0xbe, 0xe8, 0x3e, 0xe1, 0xbd,
  0xc3, 0xa5, 0xb8, 0x3c, 0x2a, 0x3b, 0xac, 0xbe, 0x6d, 0x1f, 0x50, 0xbb,
  0x87, 0x81, 0x13, 0x3e, 0x15, 0x9c, 0xea, 0xbe, 0xf2, 0x45, 0xb0, 0xbb,
  0xc1, 0x0b, 0xbe, 0x3d, 0x4d, 0x3b, 0x70, 0xbe, 0xba, 0x67, 0x86, 0xbd,
  0x55, 0x91, 0x07, 0xbe, 0x33, 0x09, 0x05, 0x3e, 0xdf, 0xa7, 0xe8, 0xbc,
  0x7b, 0x68, 0x89, 0xbe, 0x17, 0xbb, 0xb8, 0xbc, 0xfd, 0xdf, 0x02, 0x3d,
  0xa4, 0x56, 0x60, 0xbe, 0x78, 0x92, 0x53, 0x3e, 0x28, 0xe9, 0x28, 0xbc,
  0x3e, 0x4a, 0x12, 0xba, 0x46, 0xf0, 0x2d, 0xbd, 0x06, 0xd2, 0x39, 0xbd,
  0x20, 0x0e, 0x2e, 0x3d, 0xb2, 0x65, 0xeb, 0x3c, 0xea, 0x34, 0xf9, 0xbe,
  0x83, 0xd9, 0xad, 0xbd, 0x48, 0x11, 0xf8, 0xbe, 0xeb, 0xaf, 0xb7, 0xbe,
  0xc4, 0x43, 0x9a, 0xbd, 0xe1, 0xe9, 0xc8, 0xbe, 0x30, 0x87, 0xa7, 0xbe,
  0x15, 0x82, 0xf0, 0xbd, 0xa4, 0x47, 0xf7, 0x3e, 0xf5, 0x01, 0x57, 0x3e,
  0xf9, 0x77, 0x1f, 0xbf, 0x1d, 0xb8, 0x92, 0xbe, 0x22, 0x36, 0xb6, 0xbe,
  0x50, 0x40, 0x0c, 0xbe, 0x84, 0xe7, 0xdb, 0x3e, 0x3b, 0x5f, 0x6a, 0xbd,
  0x9d, 0xbf, 0xb0, 0x3e, 0x46, 0x89, 0x66, 0x3e, 0x41, 0xf2, 0x56, 0x3e,
  0xdc, 0xf8, 0x64, 0xbe, 0x69, 0x5b, 0x67, 0xbc, 0x33, 0x05, 0xa2, 0x3e,
  0xca, 0x47, 0x94, 0x3d, 0x85, 0x93, 0x05, 0xbe, 0x51, 0xfa, 0xc2, 0xbe,
  0x07, 0x39, 0x99, 0xbd, 0x9a, 0x8a, 0x63, 0xbc, 0x00, 0xe0, 0xa4, 0xbd,
  0xbc, 0x1b, 0x5d, 0x3e, 0x04, 0x2f, 0xb4, 0xbc, 0x07, 0xfc, 0x0b, 0x3e,
  0xcd, 0x16, 0xed, 0xbc, 0x26, 0xde, 0xff, 0xff, 0x10, 0x00, 0x00, 0x00,
  0x0a, 0x00, 0x00, 0x00, 0x1c, 0x00, 0x00, 0x00, 0x38, 0x00, 0x00, 0x00,
  0x04, 0x00, 0x00, 0x00, 0x10, 0x00, 0x00, 0x00, 0x04, 0x00, 0x00, 0x00,
  0x01, 0x00, 0x00, 0x00, 0x08, 0x00, 0x00, 0x00, 0x1a, 0x00, 0x00, 0x00,
  0x73, 0x65, 0x71, 0x75, 0x65, 0x6e, 0x74, 0x69, 0x61, 0x6c, 0x2f, 0x63,
  0x6f, 0x6e, 0x76, 0x32, 0x64, 0x5f, 0x31, 0x2f, 0x43, 0x6f, 0x6e, 0x76,
  0x32, 0x44, 0x00, 0x00, 0x9c, 0xdd, 0xff, 0xff, 0xa6, 0xde, 0xff, 0xff,
  0x04, 0x00, 0x00, 0x00, 0x80, 0x01, 0x00, 0x00, 0xa6, 0xfd, 0xca, 0x3b,
  0xcc, 0x42, 0x0e, 0x3d, 0x47, 0x83, 0xab, 0xbd, 0x2f, 0x9d, 0x97, 0xbd,
  0xc7, 0x43, 0xcb, 0xbd, 0x58, 0x86, 0x08, 0xbf, 0x62, 0xd5, 0x63, 0x3d,
  0xc4, 0x99, 0x68, 0x3d, 0xc1, 0xe7, 0x51, 0x3e, 0xd5, 0xc5, 0x38, 0x3d,
  0x2c, 0xd5, 0xaa, 0xbb, 0x9d, 0x61, 0xbd, 0x3e, 0x16, 0xbf, 0x11, 0xbc,
  0xad, 0x2c, 0xc5, 0xbc, 0xe9, 0xbd, 0x4c, 0xbd, 0x13, 0x7b, 0xeb, 0xbd,
  0x5b, 0xf2, 0x07, 0x3c, 0x34, 0x68, 0x12, 0xbf, 0x98, 0xef, 0x43, 0x3e,
  0x9f, 0xab, 0x35, 0x3e, 0x16, 0x29, 0x02, 0x3f, 0xf7, 0xf0, 0x64, 0x3d,
  0x55, 0xe9, 0xee, 0x3d, 0xea, 0xd4, 0x5d, 0x3e, 0xbc, 0xe5, 0xe4, 0x3d,
  0x21, 0x12, 0xe7, 0x3e, 0xba, 0xa2, 0x55, 0x3e, 0xd0, 0xbb, 0x7e, 0xbb,
  0xe8, 0x38, 0x9b, 0xbe, 0x7d, 0x0e, 0x8a, 0x3e, 0xc0, 0xdd, 0xe9, 0x3d,
  0xc3, 0x3f, 0x4c, 0x3d, 0x31, 0xb3, 0xaa, 0x3a, 0xbb, 0xd3, 0x0f, 0xbe,
  0x8d, 0x7c, 0x84, 0xbe, 0xa4, 0x9f, 0xcd, 0xbe, 0x4a, 0x17, 0xd1, 0x3d,
  0x26, 0x29, 0x4a, 0xbe, 0xe7, 0xa5, 0xb9, 0x3d, 0xa1, 0x77, 0xf6, 0xbc,
  0xb8, 0xd9, 0x8c, 0xbd, 0x9b, 0xd7, 0x1c, 0x3e, 0xf4, 0x08, 0x49, 0xbe,
  0x64, 0xa4, 0xb4, 0x3d, 0xd2, 0x35, 0xd5, 0x3c, 0x29, 0x19, 0x18, 0xbe,
  0xe7, 0x8f, 0x2e, 0x3e, 0x52, 0xaf, 0xb0, 0x3c, 0xe8, 0x75, 0x84, 0xbe,
  0x81, 0x2c, 0xa1, 0x3e, 0x51, 0xcd, 0x86, 0x3e, 0x65, 0xb9, 0xf5, 0xbd,
  0xd4, 0xae, 0x58, 0x3e, 0xf8, 0xfa, 0xa1, 0x3d, 0xb8, 0x83, 0x49, 0x3e,
  0x55, 0xd2, 0xc6, 0xbd, 0x1d, 0xf6, 0x0e, 0xbe, 0x7b, 0x19, 0x61, 0x3e,
  0xf7, 0x65, 0xc2, 0xbe, 0xe6, 0x05, 0x1d, 0xbe, 0x71, 0xa9, 0xfb, 0xbe,
  0xe7, 0xea, 0xac, 0xbd, 0xc1, 0x9b, 0x75, 0xbd, 0x18, 0x93, 0x5e, 0x3f,
  0x31, 0xde, 0xfa, 0x3c, 0x93, 0x47, 0x9f, 0xbd, 0x3b, 0xaf, 0x66, 0xbe,
  0x94, 0xd9, 0x87, 0xbc, 0x4a, 0x21, 0x40, 0x3e, 0xe4, 0x0f, 0x8a, 0x3d,
  0x13, 0x45, 0x0b, 0x3e, 0x73, 0x11, 0x38, 0xbe, 0xa1, 0x64, 0x00, 0x3d,
  0xab, 0x43, 0xed, 0xbc, 0x50, 0x4c, 0x9b, 0xbd, 0x4f, 0xd8, 0xb8, 0x3e,
  0x0e, 0x78, 0x9c, 0xbc, 0xc7, 0xff, 0xed, 0xbe, 0xc6, 0x73, 0x9f, 0xbe,
  0x9a, 0x11, 0x75, 0x3d, 0x7e, 0x68, 0xf6, 0x3e, 0x5d, 0x84, 0xee, 0xbd,
  0x5c, 0x05, 0x89, 0xbb, 0xbd, 0x82, 0x5a, 0x3d, 0xca, 0xf8, 0x1c, 0x3e,
  0xbb, 0xf3, 0x5b, 0xbe, 0xb0, 0xf3, 0x0e, 0x3e, 0x8a, 0xdd, 0xea, 0xbd,
  0x51, 0xe4, 0xfe, 0x3b, 0xc5, 0xc1, 0x0a, 0x3c, 0xd6, 0xb1, 0xb4, 0xbd,
  0xfa, 0xd9, 0x6a, 0xbd, 0x30, 0x9f, 0xf9, 0x3c, 0xa6, 0xa1, 0x04, 0x3e,
  0x78, 0x9a, 0xfa, 0xbd, 0x31, 0xa8, 0xba, 0x3c, 0xfe, 0xdf, 0xff, 0xff,
  0x10, 0x00, 0x00, 0x00, 0x09, 0x00, 0x00, 0x00, 0x1c, 0x00, 0x00, 0x00,
  0x38, 0x00, 0x00, 0x00, 0x04, 0x00, 0x00, 0x00, 0x08, 0x00, 0x00, 0x00,
  0x04, 0x00, 0x00, 0x00, 0x03, 0x00, 0x00, 0x00, 0x01, 0x00, 0x00, 0x00,
  0x18, 0x00, 0x00, 0x00, 0x73, 0x65, 0x71, 0x75, 0x65, 0x6e, 0x74, 0x69,
  0x61, 0x6c, 0x2f, 0x63, 0x6f, 0x6e, 0x76, 0x32, 0x64, 0x2f, 0x43, 0x6f,
  0x6e, 0x76, 0x32, 0x44, 0x00, 0x00, 0x00, 0x00, 0x74, 0xdf, 0xff, 0xff,
  0x7e, 0xe0, 0xff, 0xff, 0x04, 0x00, 0x00, 0x00, 0xc0, 0x00, 0x00, 0x00,
  0x1a, 0x11, 0x6f, 0x3e, 0x6e, 0x9b, 0x1d, 0xbe, 0xec, 0xac, 0xe5, 0xbe,
  0xa8, 0x51, 0x86, 0x3e, 0x0a, 0x8e, 0x8c, 0x3e, 0x91, 0xcd, 0x1f, 0x3e,
  0xa0, 0x42, 0xc6, 0xbd, 0x1a, 0x7f, 0x47, 0x3e, 0x11, 0x3e, 0x2a, 0xbe,
  0x3f, 0x23, 0x2e, 0x3e, 0xaa, 0xb7, 0x90, 0x3e, 0xc1, 0x56, 0x6a, 0xbe,
  0xfe, 0xd9, 0xc3, 0x3d, 0x65, 0x6e, 0x66, 0xbe, 0x90, 0xa4, 0x97, 0xbe,
  0x5f, 0x90, 0xae, 0x3e, 0x9f, 0x07, 0x4f, 0x3e, 0x29, 0x04, 0x43, 0xbe,
  0xd6, 0xcd, 0xa8, 0x3e, 0x31, 0xfa, 0xb3, 0xbe, 0x5e, 0x63, 0xaa, 0xbd,
  0xb2, 0x5d, 0x0f, 0xbe, 0x2f, 0xa1, 0x15, 0xbe, 0xe5, 0x45, 0x66, 0x3e,
  0x71, 0x9b, 0xe5, 0xbd, 0xe3, 0x89, 0xfb, 0x3d, 0xc3, 0x4a, 0x5c, 0xbe,
  0x50, 0xa4, 0xa2, 0xbe, 0xd2, 0x2a, 0xd3, 0xbe, 0x25, 0xec, 0x80, 0xbe,
  0x63, 0xb6, 0xc5, 0xbe, 0xbd, 0x26, 0xd1, 0xbd, 0xa0, 0xba, 0x95, 0x3e,
  0x84, 0x84, 0x3f, 0xbe, 0xef, 0x40, 0xb8, 0x3e, 0x17, 0xd6, 0x4c, 0xbc,
  0x0f, 0x21, 0x74, 0xbe, 0xd4, 0x93, 0x1f, 0xbf, 0xe6, 0x57, 0x48, 0xbd,
  0x03, 0x0a, 0x22, 0x3e, 0xe1, 0x4a, 0x39, 0xbe, 0x58, 0x64, 0xee, 0x3d,
  0xef, 0xcf, 0x87, 0x3e, 0x78, 0x03, 0x07, 0xbf, 0xb2, 0x77, 0x20, 0xbf,
  0xa7, 0x14, 0x35, 0xbe, 0xfb, 0x95, 0xa0, 0xbe, 0xa0, 0x5b, 0xe8, 0xbc,
  0x16, 0xe1, 0xff, 0xff, 0x10, 0x00, 0x00, 0x00, 0x08, 0x00, 0x00, 0x00,
  0x14, 0x00, 0x00, 0x00, 0x30, 0x00, 0x00, 0x00, 0x02, 0x00, 0x00, 0x00,
  0x03, 0x00, 0x00, 0x00, 0x10, 0x00, 0x00, 0x00, 0x19, 0x00, 0x00, 0x00,
  0x73, 0x65, 0x71, 0x75, 0x65, 0x6e, 0x74, 0x69, 0x61, 0x6c, 0x2f, 0x64,
  0x65, 0x6e, 0x73, 0x65, 0x5f, 0x31, 0x2f, 0x4d, 0x61, 0x74, 0x4d, 0x75,
  0x6c, 0x00, 0x00, 0x00, 0x84, 0xe0, 0xff, 0xff, 0x8e, 0xe1, 0xff, 0xff,
  0x04, 0x00, 0x00, 0x00, 0x00, 0x1c, 0x00, 0x00, 0xcb, 0xba, 0x06, 0x3c,
  0x49, 0x89, 0xae, 0xbe, 0x4f, 0x94, 0x99, 0xbe, 0xda, 0xb0, 0x34, 0xbe,
  0xe2, 0x45, 0x54, 0xbe, 0x6e, 0x50, 0x0e, 0xbf, 0x66, 0x08, 0x14, 0x3d,
  0x42, 0x42, 0x0e, 0x3e, 0xbd, 0xcb, 0x74, 0x3e, 0x07, 0xcf, 0xfc, 0xbe,
  0xf4, 0x6a, 0xc6, 0xbd, 0x6c, 0x5d, 0x17, 0xbe, 0xd4, 0xb7, 0xdb, 0x3c,
  0xc3, 0xd8, 0x26, 0x3d, 0x06, 0xeb, 0x24, 0x3e, 0x7d, 0x8c, 0x49, 0xbe,
  0x88, 0xde, 0x9b, 0x3d, 0xcf, 0xe7, 0x87, 0xbe, 0x51, 0x98, 0x02, 0x3e,
  0x9f, 0xbb, 0xcb, 0xbd, 0x07, 0xe4, 0x57, 0x3e, 0xf0, 0x58, 0xa6, 0xbe,
  0x71, 0x3e, 0x33, 0xbd, 0x69, 0xe1, 0x06, 0x3e, 0x64, 0x8b, 0xad, 0x3d,
  0xd1, 0x8d, 0x44, 0xbf, 0x4f, 0xa0, 0x78, 0x3c, 0x19, 0x60, 0x56, 0x3e,
  0xfa, 0xfa, 0xdf, 0x3c, 0x9d, 0xff, 0x96, 0x3e, 0x95, 0x6a, 0x9b, 0x3c,
  0xca, 0x72, 0xa4, 0x3e, 0x49, 0xbc, 0x05, 0x3e, 0x4e, 0x3e, 0x2b, 0xbe,
  0xa1, 0xd0, 0x8e, 0x3d, 0xa1, 0xb6, 0xda, 0x3d, 0xcc, 0x4c, 0x9d, 0x3e,
  0x43, 0xfc, 0x3a, 0xbe, 0x75, 0xad, 0x19, 0xbe, 0x6a, 0x0b, 0x66, 0xbd,
  0x1e, 0x45, 0x02, 0x3e, 0x59, 0x0b, 0x02, 0xbf, 0xbf, 0x21, 0x98, 0xbe,
  0x6d, 0x37, 0x5f, 0x3e, 0x95, 0xb5, 0xcd, 0x3c, 0xf9, 0x6c, 0xaa, 0x3e,
  0x82, 0xc2, 0x49, 0x3d, 0xeb, 0x41, 0x80, 0x3e, 0xa2, 0x15, 0xa3, 0x3c,
  0x21, 0xc1, 0x63, 0x3d, 0xe2, 0x47, 0x86, 0x3d, 0x5b, 0x68, 0x98, 0x3d,
  0xa6, 0x24, 0x9b, 0x3e, 0x0b, 0xaf, 0x9c, 0x3d, 0xd1, 0x59, 0x86, 0x3e,
  0x73, 0x9b, 0x12, 0xbe, 0x12, 0x2c, 0x4d, 0x3c, 0x21, 0x3e, 0x81, 0xbe,
  0xa7, 0x79, 0xea, 0xbc, 0xfd, 0x34, 0xa8, 0x3e, 0xd7, 0x74, 0xf8, 0xbc,
  0xb8, 0x79, 0xbc, 0x3e, 0xcb, 0x9e, 0x52, 0x3d, 0x23, 0xcb, 0x00, 0x3d,
  0x53, 0xc6, 0x95, 0x3d, 0x8d, 0x64, 0xeb, 0xbb, 0x69, 0x40, 0x91, 0xbc,
  0x32, 0xd6, 0x0f, 0xbe, 0xc3, 0xff, 0x39, 0x3d, 0x4a, 0xc3, 0x29, 0xbe,
  0x06, 0x72, 0xae, 0xbd, 0x18, 0x5e, 0x21, 0xbe, 0xe3, 0x8d, 0xb5, 0x3c,
  0x4d, 0xaa, 0xf5, 0xbe, 0x56, 0xa5, 0x13, 0xbc, 0x18, 0x1b, 0x00, 0x3e,
  0x9f, 0x9a, 0x92, 0xbd, 0x9d, 0xd6, 0x61, 0x3e, 0xb6, 0xc9, 0xb7, 0xbd,
  0xa9, 0xf8, 0x2e, 0xbe, 0xba, 0x0a, 0x8d, 0x3d, 0x79, 0x96, 0x73, 0xbe,
  0xea, 0xc6, 0x09, 0xbe, 0xef, 0x9b, 0x92, 0xbe, 0xbb, 0x8a, 0x62, 0x3d,
  0x0e, 0xd1, 0xc0, 0xbd, 0x1c, 0xa4, 0xae, 0xbd, 0x8b, 0x97, 0x91, 0xbe,
  0xfa, 0xec, 0xa6, 0x3d, 0x7a, 0xe4, 0xa6, 0xbe, 0x6b, 0xa8, 0x72, 0xbe,
  0x5a, 0xc6, 0xba, 0x3e, 0xb3, 0xd3, 0x95, 0x3d, 0x90, 0x74, 0x1b, 0x3e,
  0x37, 0xa1, 0xc1, 0x3d, 0xdc, 0xfe, 0x65, 0xbd, 0xce, 0x0e, 0xa3, 0xbc,
  0xce, 0xd6, 0x2f, 0xbd, 0xf3, 0xd1, 0x0c, 0x3d, 0x8c, 0x26, 0xb3, 0xbd,
  0xda, 0x05, 0xa4, 0x3c, 0x25, 0x27, 0x19, 0xbe, 0xd7, 0x9f, 0xc5, 0xbd,
  0xc0, 0x10, 0x96, 0xbe, 0xd6, 0x3f, 0x70, 0x3e, 0x73, 0x92, 0x7e, 0xbd,
  0xc8, 0xfa, 0xb3, 0x3c, 0x78, 0x42, 0x06, 0x3e, 0xcd, 0x2d, 0x11, 0x3e,
  0xb1, 0x2c, 0x11, 0xbd, 0x0d, 0x0a, 0xf3, 0xbd, 0x40, 0xe7, 0x86, 0xbe,
  0x89, 0xf4, 0x3e, 0x3d, 0xaf, 0x8c, 0x5f, 0x3d, 0x1a, 0x32, 0x19, 0x3d,
  0x0d, 0x16, 0x3b, 0x3a, 0x51, 0xb6, 0x24, 0xbe, 0xdc, 0xf3, 0x81, 0x3e,
  0xfa, 0x8f, 0xcf, 0xbe, 0x70, 0x85, 0x62, 0x3d, 0xa3, 0xdb, 0x9e, 0xbd,
  0x7b, 0xf9, 0x9e, 0x3e, 0xdc, 0xd4, 0x85, 0x3f, 0x15, 0x27, 0x90, 0x3e,
  0x90, 0x60, 0xce, 0x3d, 0xf6, 0x62, 0x97, 0xbe, 0x93, 0x45, 0xab, 0xbe,
  0xa9, 0x26, 0xec, 0xbd, 0x6d, 0x8f, 0x4e, 0xbd, 0xcd, 0x1b, 0x00, 0xbd,
  0x6f, 0xfb, 0xce, 0x3d, 0x7a, 0x17, 0x8a, 0x3e, 0x09, 0x84, 0x5d, 0xbe,
  0xd5, 0x14, 0x43, 0x3d, 0x77, 0x1d, 0x9a, 0x3c, 0xfd, 0xee, 0x6c, 0x3e,
  0x7a, 0x32, 0xdb, 0xbd, 0x8e, 0xcf, 0x4c, 0x3e, 0x78, 0x4e, 0x5c, 0x3f,
  0x84, 0xc5, 0x93, 0xbe, 0xf4, 0xf5, 0x02, 0xbe, 0x49, 0x47, 0x3b, 0xbe,
  0x4b, 0xe9, 0x46, 0xbe, 0x6c, 0x07, 0xf9, 0x3c, 0x67, 0x88, 0x91, 0xbd,
  0x4f, 0x0d, 0xb9, 0x3e, 0xc0, 0x82, 0xda, 0x3e, 0x3f, 0x9b, 0x0c, 0x3f,
  0x3b, 0x26, 0x2e, 0xbd, 0x56, 0xaa, 0x90, 0xbc, 0x51, 0x26, 0x0f, 0x3c,
  0x4a, 0x3a, 0x66, 0x3e, 0x6c, 0x35, 0xb5, 0xbe, 0x77, 0xf2, 0x08, 0xbd,
  0x97, 0xd5, 0x5e, 0x3f, 0xf0, 0xe8, 0x6f, 0xbe, 0xbc, 0x9d, 0x4f, 0xbe,
  0x62, 0x7a, 0x94, 0xbd, 0x71, 0x2e, 0x72, 0xbe, 0x3a, 0xa4, 0xeb, 0xbd,
  0xd2, 0x85, 0x50, 0xbc, 0xb0, 0x15, 0x13, 0x3f, 0xbc, 0x8c, 0x65, 0x3e,
  0xde, 0x7f, 0xef, 0x3e, 0xbe, 0x89, 0x87, 0xbe, 0xf5, 0x71, 0x6b, 0x3e,
  0xc0, 0x00, 0x99, 0xbd, 0xa3, 0x36, 0xd1, 0xbd, 0xad, 0x9e, 0x53, 0xbd,
  0x29, 0x5d, 0x4d, 0x3c, 0x0c, 0x1b, 0x75, 0x3f, 0xde, 0x6c, 0x2f, 0x3d,
  0xf4, 0x37, 0xa4, 0x3c, 0x1f, 0x51, 0x81, 0xbe, 0x8a, 0xc0, 0xd8, 0xbd,
  0x8f, 0x48, 0xbc, 0x3e, 0x32, 0xff, 0x55, 0x3d, 0x83, 0x0f, 0x2a, 0x3e,
  0x6f, 0x3f, 0xfc, 0x3d, 0xee, 0x5c, 0x2e, 0x3e, 0xe9, 0xd3, 0xd8, 0xbe,
  0xac, 0x97, 0x27, 0x3e, 0xc7, 0x58, 0x3b, 0xbe, 0x3e, 0x65, 0xc2, 0x3c,
  0x2f, 0x0d, 0x75, 0x3d, 0x3b, 0x51, 0x8a, 0x3e, 0x6f, 0xec, 0x76, 0x3f,
  0x03, 0xb9, 0x40, 0x3e, 0x93, 0xa5, 0xef, 0x3d, 0x78, 0xf7, 0x86, 0xbe,
  0x22, 0x3a, 0x22, 0xbd, 0x62, 0x4f, 0xb8, 0x3d, 0xb7, 0x51, 0xae, 0xbc,
  0xe7, 0x51, 0x9f, 0xbd, 0xb3, 0xa4, 0x57, 0xbd, 0xd1, 0x14, 0xb9, 0x3d,
  0x2f, 0xae, 0x00, 0xbe, 0x20, 0xb5, 0xe2, 0x3e, 0xa4, 0xfb, 0x1c, 0x3d,
  0x94, 0xd4, 0x47, 0xbe, 0x4c, 0x43, 0xf3, 0x3c, 0x1d, 0xe0, 0x81, 0x3e,
  0xec, 0x54, 0x9b, 0x3f, 0xbc, 0x18, 0xa9, 0x3d, 0xf7, 0xc2, 0xab, 0xbc,
  0xe8, 0x34, 0x18, 0xbe, 0xc5, 0x5d, 0x44, 0xbe, 0x1d, 0x0c, 0x61, 0xbe,
  0xe9, 0x6d, 0x28, 0xbc, 0xc8, 0x21, 0xbc, 0x3c, 0xf8, 0x51, 0x6d, 0x3d,
  0x45, 0x58, 0x2f, 0x3e, 0xa1, 0x50, 0xa9, 0xbe, 0x53, 0xbc, 0xe9, 0xbd,
  0x9b, 0xbf, 0x14, 0xbe, 0x3d, 0x39, 0x55, 0x3d, 0xa1, 0x4c, 0x4d, 0x3d,
  0xad, 0xd2, 0x45, 0xbe, 0x32, 0x37, 0x08, 0x3f, 0x41, 0x34, 0xbf, 0xbd,
  0xaa, 0x77, 0x13, 0xbc, 0x46, 0xcd, 0x64, 0xbe, 0xb8, 0xa0, 0x4c, 0xbc,
  0x35, 0xdf, 0xd1, 0xbe, 0x99, 0xbd, 0xf6, 0xbd, 0xeb, 0x2a, 0xb5, 0xbd,
  0xe9, 0xc6, 0x87, 0xbc, 0x5e, 0x12, 0xfe, 0x3c, 0x47, 0x1d, 0xd6, 0xbd,
  0xfa, 0x2a, 0x89, 0xbe, 0x83, 0x03, 0x01, 0xbe, 0x8e, 0xac, 0x63, 0xbe,
  0xa8, 0xbc, 0x99, 0x3c, 0x64, 0xed, 0x08, 0x3e, 0x03, 0x2c, 0x55, 0x3d,
  0x55, 0xaf, 0x1d, 0xbe, 0xde, 0x32, 0x89, 0xbe, 0xc2, 0x11, 0xae, 0x3d,
  0x38, 0x15, 0x1f, 0x3e, 0x7e, 0x07, 0x0f, 0x3d, 0xa7, 0x47, 0x6b, 0xbe,
  0x74, 0xe6, 0x72, 0xbd, 0x98, 0x65, 0x3e, 0x3d, 0xd6, 0xfe, 0x4a, 0xbe,
  0x24, 0xb9, 0xde, 0x3c, 0xc8, 0xbe, 0x89, 0xbe, 0x62, 0x8a, 0x1a, 0xbe,
  0x4e, 0x46, 0x0c, 0xbd, 0x8b, 0xc2, 0x35, 0x3d, 0xe2, 0x07, 0xd5, 0x3d,
  0x07, 0xa5, 0x15, 0xbe, 0x6a, 0x3d, 0xe2, 0xbd, 0xc9, 0x22, 0xc4, 0x3d,
  0x59, 0xe3, 0x09, 0x3e, 0x1f, 0xca, 0x24, 0x3e, 0xad, 0xbb, 0x0b, 0xbe,
  0x74, 0x86, 0x17, 0xbe, 0x83, 0x86, 0xe7, 0xbd, 0x31, 0xed, 0x2c, 0xbe,
  0x49, 0xe6, 0x6f, 0xbe, 0xce, 0x9c, 0x97, 0xbd, 0xc2, 0x6f, 0x3f, 0xbd,
  0xa9, 0x9a, 0xc4, 0xbd, 0x6f, 0xa9, 0x9c, 0x3b, 0x08, 0x80, 0x46, 0xbe,
  0xb3, 0xd4, 0x06, 0xbc, 0x1c, 0xb9, 0x9c, 0x3d, 0xaf, 0x41, 0x3e, 0x3e,
  0xc2, 0x89, 0x20, 0xbe, 0xaf, 0xbf, 0xe8, 0x3d, 0x62, 0xf1, 0x05, 0xbe,
  0x0b, 0xc4, 0x20, 0x3e, 0xce, 0x56, 0xc4, 0xbe, 0x3d, 0x8a, 0x04, 0xbd,
  0x02, 0x8f, 0x0a, 0xbe, 0x28, 0x3b, 0xd6, 0x3d, 0xed, 0x17, 0xa7, 0xbd,
  0xaa, 0x97, 0x6c, 0xbd, 0xaa, 0xb8, 0xe3, 0x3c, 0x82, 0x44, 0x57, 0xbe,
  0xb7, 0xcd, 0xd5, 0x3d, 0x72, 0x97, 0x6d, 0x3c, 0x5a, 0xcb, 0xa6, 0x3c,
  0x7d, 0xab, 0x2e, 0x3e, 0xa5, 0xc5, 0xf3, 0xbd, 0xaf, 0xf4, 0xe7, 0x3d,
  0x82, 0x63, 0x19, 0x3d, 0xf9, 0xdb, 0x41, 0xbe, 0x1e, 0xf6, 0xb4, 0xbe,
  0xa0, 0x3d, 0x09, 0x3e, 0x68, 0x65, 0x63, 0xbe, 0x39, 0xa6, 0xf4, 0xbd,
  0x80, 0xcb, 0x0e, 0xbd, 0xbc, 0x80, 0x2c, 0x3d, 0xbd, 0x97, 0x63, 0xbd,
  0xef, 0x43, 0x2a, 0xbe, 0x9e, 0x3f, 0xdf, 0xbd, 0x8d, 0x31, 0x92, 0xbd,
  0x61, 0x86, 0xa6, 0xbd, 0xf0, 0x47, 0xc9, 0xbc, 0x4d, 0x07, 0x6a, 0x3d,
  0x9b, 0x96, 0x28, 0xbd, 0x8e, 0x5f, 0x18, 0x3e, 0x9a, 0x9d, 0x27, 0xbc,
  0x98, 0x15, 0x53, 0xbe, 0x20, 0xa5, 0x16, 0xbe, 0xb9, 0x90, 0xe3, 0x3c,
  0xf9, 0xf5, 0x8a, 0x3b, 0x9c, 0x30, 0xd4, 0xbd, 0x83, 0x0c, 0x89, 0x3d,
  0x8a, 0x61, 0x3a, 0xbe, 0xd8, 0x64, 0xf9, 0x3b, 0x27, 0xf4, 0xd3, 0xbd,
  0xf1, 0xf2, 0x64, 0xbd, 0xc2, 0xa1, 0x5b, 0xbe, 0x24, 0x50, 0x75, 0x3d,
  0xa4, 0xdd, 0xa1, 0xb8, 0x70, 0xe9, 0x39, 0x3d, 0xb3, 0xda, 0x6a, 0xbe,
  0x2e, 0xb3, 0x0e, 0x3e, 0x1e, 0x56, 0x75, 0xbe, 0xab, 0x6a, 0x3a, 0x3d,
  0xcd, 0x2a, 0x35, 0xbd, 0x68, 0x84, 0x28, 0xbe, 0xf9, 0x60, 0x67, 0xbe,
  0xd6, 0x76, 0x91, 0xbe, 0xb0, 0x1e, 0x26, 0xbe, 0x49, 0x44, 0x53, 0x3c,
  0x46, 0x37, 0xe8, 0xbd, 0x88, 0xda, 0x24, 0xbe, 0x0b, 0x96, 0xfb, 0xbc,
  0x04, 0x68, 0x59, 0x3e, 0x42, 0xf1, 0x5b, 0xbd, 0x47, 0xd5, 0x7c, 0x3d,
  0x73, 0x4a, 0x47, 0xbe, 0x4f, 0x41, 0x9f, 0x3d, 0x40, 0x91, 0x6c, 0xbe,
  0xe0, 0x25, 0xf1, 0xbd, 0x10, 0xac, 0xe6, 0x39, 0xdd, 0xd2, 0x64, 0xbe,
  0x14, 0x65, 0x3a, 0xbe, 0x8c, 0xab, 0x80, 0xbe, 0x25, 0xba, 0x8b, 0xbd,
  0x04, 0xfd, 0x1e, 0xbe, 0x96, 0x3b, 0xc5, 0x3d, 0x08, 0xac, 0x40, 0xbd,
  0xa0, 0x8e, 0xd0, 0x3f, 0xf6, 0x46, 0xe5, 0x3c, 0x46, 0xbc, 0x10, 0xbe,
  0xa7, 0x27, 0x8c, 0xbe, 0xcf, 0x36, 0x6b, 0x3b, 0xdf, 0x64, 0x1d, 0xbd,
  0x2e, 0xe3, 0x5c, 0xbd, 0x89, 0x43, 0x20, 0xbe, 0xe9, 0xc3, 0x0e, 0x3e,
  0x96, 0xc4, 0x8b, 0x3d, 0x3b, 0xce, 0x11, 0x3a, 0x86, 0x2d, 0xa6, 0x3d,
  0x67, 0xc5, 0xf5, 0x3e, 0x71, 0x97, 0x11, 0xbe, 0x9f, 0x11, 0x8a, 0xbc,
  0xa2, 0xb7, 0x3c, 0xbc, 0xcd, 0x5f, 0xba, 0x3f, 0x27, 0xe4, 0xc6, 0xbd,
  0xb8, 0xbf, 0xc5, 0x3d, 0x40, 0xf4, 0x9c, 0x3c, 0x0a, 0x23, 0x0b, 0x3e,
  0xff, 0x8b, 0x36, 0x3d, 0x61, 0x7b, 0x68, 0xbe, 0x77, 0x1f, 0x57, 0xbe,
  0x3d, 0x92, 0x4c, 0x3c, 0x15, 0xd3, 0x4f, 0x3e, 0x40, 0x13, 0x1e, 0xbe,
  0x69, 0xe7, 0x04, 0xbe, 0x11, 0xe1, 0xf0, 0x3e, 0xae, 0x94, 0xc1, 0x3d,
  0x54, 0x49, 0x4f, 0x3e, 0x32, 0x22, 0x86, 0xbe, 0xfa, 0x9f, 0x69, 0x3f,
  0x7b, 0x43, 0x8e, 0x3d, 0xa4, 0xc8, 0xe0, 0x3c, 0x7a, 0x17, 0x7a, 0xbc,
  0x84, 0xba, 0x14, 0xbd, 0x50, 0x1a, 0x18, 0x3d, 0xcd, 0xb8, 0x99, 0xbe,
  0x03, 0x49, 0x9a, 0x3e, 0x54, 0xef, 0xc3, 0x3d, 0xd3, 0xa9, 0xb7, 0x3e,
  0x63, 0xd2, 0xe6, 0x3d, 0xee, 0x08, 0x3d, 0x3d, 0x20, 0x5d, 0xa6, 0x3e,
  0x98, 0x4e, 0x57, 0x3e, 0xd6, 0x01, 0x0c, 0xbd, 0x41, 0x48, 0x3c, 0x3e,
  0xe5, 0x8e, 0x48, 0x3f, 0xe0, 0x6f, 0xc3, 0x3d, 0x82, 0x17, 0x98, 0xbd,
  0x1c, 0xf4, 0xe8, 0xbd, 0x9c, 0x79, 0x98, 0xbd, 0x26, 0x05, 0x63, 0xbd,
  0x65, 0x89, 0x2b, 0xbe, 0x07, 0x96, 0x58, 0xbd, 0xde, 0xe5, 0x50, 0x3e,
  0x7d, 0x06, 0xaa, 0x3d, 0x1f, 0xdc, 0x27, 0xbe, 0xd4, 0xaf, 0x82, 0x3e,
  0x0e, 0xf1, 0x0e, 0x3e, 0x58, 0x9a, 0xec, 0xbc, 0xf3, 0x02, 0x16, 0xbe,
  0x03, 0xb0, 0xb8, 0x3e, 0xad, 0x5b, 0x6e, 0x3f, 0x50, 0x78, 0x15, 0x3d,
  0x66, 0x95, 0x3e, 0x3d, 0x9c, 0xc8, 0x7f, 0xbe, 0x0a, 0xc3, 0xb4, 0xbc,
  0x2a, 0xa2, 0x8d, 0xbe, 0x61, 0xf5, 0x10, 0xbe, 0x35, 0xc5, 0x35, 0xbd,
  0x8b, 0x87, 0xf7, 0xbd, 0x98, 0x3b, 0xbf, 0xbd, 0xee, 0x9d, 0x45, 0xbc,
  0xc5, 0xcb, 0x52, 0x3e, 0xdd, 0xb5, 0x2c, 0x3e, 0x09, 0x4e, 0xb0, 0x3c,
  0x6f, 0x53, 0x50, 0xbe, 0x83, 0x32, 0xd1, 0x3d, 0xa2, 0xa1, 0x47, 0x3f,
  0xfa, 0xb3, 0xac, 0x3e, 0x05, 0x13, 0x8d, 0xbe, 0xca, 0xb9, 0x53, 0xbe,
  0xdc, 0x7d, 0x47, 0xbd, 0x37, 0x17, 0xa2, 0x3c, 0xcd, 0x1b, 0x6c, 0xbe,
  0x9c, 0xda, 0x30, 0xbe, 0x7a, 0x8c, 0xbc, 0xbd, 0x9a, 0x91, 0xdc, 0x3c,
  0x0d, 0x4d, 0xbe, 0x3c, 0x6f, 0x75, 0x54, 0xbe, 0x3e, 0x78, 0x3f, 0x3e,
  0x1b, 0xb7, 0x0c, 0xbd, 0x6f, 0x4d, 0xbd, 0x3e, 0xf5, 0x45, 0x7a, 0xbe,
  0x69, 0x0f, 0x6f, 0x3f, 0x59, 0xc2, 0xe1, 0x3d, 0x2c, 0xa6, 0x30, 0xbe,
  0x73, 0x81, 0x52, 0xbe, 0x33, 0x87, 0x7d, 0xbd, 0x31, 0xc1, 0xf8, 0xbd,
  0x43, 0xf9, 0x5e, 0xbe, 0x5e, 0xe7, 0x88, 0xbe, 0x3e, 0xa3, 0x71, 0x3d,
  0x9f, 0x60, 0x4a, 0xbe, 0xd3, 0x90, 0xd3, 0xbd, 0xaa, 0xed, 0x98, 0xbd,
  0x85, 0xa4, 0xc9, 0x3d, 0x0f, 0x66, 0x65, 0xbe, 0xd1, 0x4b, 0x17, 0x3e,
  0xb2, 0x75, 0x84, 0xbd, 0xd1, 0xc7, 0xd8, 0x3f, 0xe5, 0xb8, 0x63, 0x3e,
  0xc0, 0x55, 0x2d, 0xbd, 0xe7, 0xe4, 0xb7, 0xbc, 0x1a, 0xcb, 0xfb, 0x3c,
  0x95, 0x45, 0x0a, 0xbd, 0x33, 0xce, 0xa3, 0xbd, 0xcd, 0x22, 0x3f, 0xbe,
  0xe5, 0x74, 0x4f, 0xbe, 0x49, 0xd3, 0xae, 0xbd, 0xe9, 0x2a, 0x2d, 0x3d,
  0x17, 0xc9, 0x36, 0xbe, 0x3b, 0x8b, 0xd7, 0x3d, 0x80, 0x96, 0xe7, 0xbc,
  0x7c, 0x54, 0x1b, 0x3e, 0x6e, 0x19, 0x62, 0xbe, 0xde, 0xa2, 0x5a, 0x3f,
  0x71, 0x57, 0xf3, 0x3d, 0xe7, 0x72, 0x1c, 0xbe, 0x80, 0xbb, 0x7d, 0xbe,
  0x68, 0x36, 0x39, 0xbe, 0xb6, 0xed, 0xa2, 0xbd, 0x20, 0x8e, 0x3d, 0xbe,
  0x18, 0x31, 0x9b, 0x3d, 0xe7, 0x23, 0x67, 0xbd, 0xfd, 0x05, 0xa6, 0x3d,
  0xc0, 0xeb, 0x0a, 0xbe, 0x56, 0xc5, 0x28, 0x3d, 0x3b, 0x3d, 0x04, 0x3e,
  0x20, 0xde, 0x0b, 0xbe, 0x4d, 0xcb, 0x9f, 0x3d, 0x68, 0x56, 0xa4, 0x3c,
  0x8d, 0xc6, 0xfe, 0x3e, 0xd2, 0xaa, 0x5e, 0x3d, 0x87, 0xe7, 0x4a, 0x3d,
  0x23, 0xc1, 0x6a, 0xbe, 0x44, 0x75, 0x96, 0x3d, 0x62, 0x9c, 0xd1, 0xbc,
  0x21, 0xba, 0x1b, 0xbe, 0xe8, 0x1b, 0x85, 0xbd, 0xf7, 0x36, 0x00, 0xbe,
  0x21, 0xee, 0xef, 0xbd, 0x27, 0xee, 0xe9, 0x3d, 0x4f, 0x4d, 0x7d, 0xbd,
  0xd2, 0x45, 0xa8, 0x3e, 0xb4, 0x80, 0x08, 0x3d, 0x4c, 0xb3, 0xf3, 0x3d,
  0x92, 0xdb, 0x98, 0xbd, 0x2d, 0xc5, 0x38, 0x3f, 0xcb, 0x0f, 0x7b, 0x3e,
  0x48, 0x2c, 0x3c, 0xbd, 0xcb, 0x2e, 0xdc, 0x3d, 0xb5, 0x5b, 0xa5, 0x3d,
  0xf2, 0x31, 0x40, 0x3d, 0x3e, 0xcc, 0x67, 0xbd, 0x73, 0x20, 0xea, 0x3a,
  0xd4, 0xa2, 0xed, 0x3d, 0xb9, 0x4f, 0xb8, 0xba, 0xcf, 0xdd, 0x6f, 0xbe,
  0xdc, 0x22, 0x14, 0x3e, 0x19, 0xac, 0x02, 0x3e, 0x05, 0x00, 0x83, 0x3d,
  0xb0, 0x68, 0xdc, 0xbd, 0x03, 0x0a, 0x0c, 0x3c, 0x3a, 0xfc, 0x31, 0x3f,
  0xfd, 0xc8, 0xa2, 0xbc, 0xd7, 0xf6, 0x85, 0x3d, 0xdd, 0x23, 0xe2, 0xbd,
  0x3f, 0x73, 0x78, 0x3d, 0x93, 0x79, 0x7d, 0xbd, 0xa9, 0xaa, 0x0b, 0xbe,
  0x45, 0xa6, 0x99, 0xbe, 0xa1, 0xa3, 0x46, 0xbe, 0x5c, 0x69, 0x15, 0x3d,
  0xd0, 0x96, 0x87, 0xbe, 0xc9, 0xbf, 0x71, 0xbd, 0x69, 0x33, 0xa3, 0x3d,
  0x31, 0x3d, 0x35, 0xbe, 0x79, 0xfa, 0x44, 0xbe, 0x46, 0x83, 0x1e, 0xbe,
  0xd5, 0xcb, 0x24, 0x3f, 0xa7, 0x71, 0x1e, 0x3e, 0x13, 0xff, 0x0d, 0x3d,
  0x2a, 0x7c, 0x34, 0xbd, 0xf3, 0x3e, 0x0f, 0xb6, 0x2a, 0x58, 0x8d, 0xba,
  0x85, 0xd0, 0x10, 0xbe, 0xff, 0x74, 0x44, 0xbe, 0x00, 0xc1, 0x6d, 0xbd,
  0xf3, 0xff, 0x01, 0xbe, 0x8f, 0x48, 0x89, 0xbc, 0x7c, 0xee, 0x43, 0xbd,
  0x4a, 0xb7, 0x6e, 0x3d, 0x0c, 0x77, 0xdb, 0xbc, 0xc3, 0x37, 0x39, 0x3e,
  0x22, 0x96, 0x09, 0xbe, 0x9a, 0x80, 0x08, 0x3f, 0xff, 0x00, 0x10, 0x3e,
  0xbc, 0xd1, 0x26, 0xbc, 0x31, 0xd5, 0x72, 0xbc, 0x20, 0xa4, 0x53, 0xbd,
  0xdb, 0x37, 0xc4, 0xbd, 0xb6, 0x56, 0x1d, 0xbe, 0x69, 0xc4, 0x82, 0x3d,
  0x54, 0x3b, 0xaa, 0x3d, 0x6c, 0x56, 0x4b, 0xbe, 0x54, 0xb8, 0x31, 0xbc,
  0xb6, 0x1d, 0x60, 0xbe, 0x43, 0xea, 0xaa, 0xbd, 0x6f, 0x3e, 0xb8, 0xbe,
  0xcd, 0x08, 0x69, 0x3e, 0x3e, 0x57, 0x84, 0xbe, 0x8f, 0x5f, 0xe0, 0x3f,
  0x53, 0x00, 0xa1, 0x3e, 0x39, 0xc1, 0xfc, 0x3a, 0x98, 0x63, 0x4a, 0xbe,
  0xd5, 0x54, 0xc6, 0x3d, 0x80, 0xa0, 0x43, 0xbd, 0xdf, 0x4a, 0xa4, 0xbe,
  0xfc, 0xc3, 0x92, 0x3d, 0x37, 0x82, 0x3b, 0xbe, 0xf3, 0x8d, 0xdd, 0xbd,
  0x85, 0x05, 0x3f, 0x3a, 0x30, 0xe5, 0x73, 0xbe, 0x38, 0x6a, 0x86, 0x3d,
  0x79, 0xe6, 0x78, 0x3e, 0xa3, 0x5d, 0xfb, 0xbd, 0xef, 0x7c, 0x57, 0x3d,
  0x82, 0x26, 0xf3, 0x3f, 0x88, 0xb4, 0xf5, 0x3d, 0x95, 0x5d, 0xfa, 0x3b,
  0x05, 0x49, 0xec, 0xbc, 0x01, 0x74, 0xe6, 0xbd, 0x8e, 0x9d, 0x26, 0xbe,
  0x27, 0x66, 0x84, 0xbe, 0x91, 0xc0, 0x6c, 0xbe, 0x49, 0xb6, 0x25, 0x3e,
  0x9a, 0xc1, 0x0d, 0xbe, 0x9e, 0xd9, 0x44, 0xbd, 0xc8, 0x0a, 0xa6, 0xbd,
  0x31, 0x6c, 0x91, 0x3e, 0x83, 0x11, 0x23, 0x3e, 0xfa, 0x7d, 0xca, 0xbd,
  0xaf, 0x02, 0x50, 0x3d, 0xc7, 0x4c, 0xcf, 0x3f, 0x0f, 0x47, 0x19, 0x3e,
  0x39, 0x99, 0x23, 0x3e, 0xaa, 0xf2, 0x52, 0xbe, 0x03, 0x4f, 0x00, 0x3e,
  0x82, 0x2e, 0xbd, 0xbd, 0xd8, 0xb1, 0x61, 0xbe, 0x06, 0xa5, 0x64, 0x3d,
  0xaa, 0x83, 0x28, 0xbe, 0x53, 0xb1, 0x0c, 0x3e, 0x56, 0x7b, 0x8a, 0x3d,
  0xb7, 0x07, 0xa1, 0xbd, 0x77, 0x99, 0x77, 0x3e, 0x50, 0xdc, 0x23, 0x3e,
  0x63, 0xd6, 0xc5, 0x3d, 0xef, 0xe4, 0x0a, 0xbe, 0xb9, 0xb4, 0x74, 0x3f,
  0xf3, 0xfe, 0x9c, 0x3e, 0x24, 0x46, 0x46, 0x3d, 0x85, 0x2c, 0xc7, 0xbd,
  0x1b, 0x0a, 0x99, 0xbd, 0x0f, 0x25, 0xfb, 0x3d, 0xcf, 0xd2, 0xdd, 0xbe,
  0xd6, 0x4f, 0xdc, 0xbd, 0x4d, 0x72, 0x04, 0x3d, 0x75, 0x56, 0xf5, 0x3c,
  0x10, 0x30, 0xc6, 0x3a, 0x01, 0x2f, 0x25, 0xbe, 0x23, 0xf0, 0x31, 0x3e,
  0x24, 0x25, 0xa5, 0x3c, 0x07, 0xbf, 0x07, 0x3d, 0x6b, 0x6b, 0x7a, 0xbe,
  0x80, 0x46, 0xd0, 0x3f, 0x69, 0x49, 0x33, 0x3e, 0x8e, 0xa3, 0x3f, 0xbd,
  0x57, 0xc5, 0x94, 0x3c, 0x16, 0x89, 0xb4, 0xbd, 0x13, 0x66, 0x9f, 0x3a,
  0xbd, 0x66, 0x72, 0xbe, 0x20, 0xd0, 0x60, 0x3b, 0xb1, 0x19, 0xaf, 0xbd,
  0x29, 0xb5, 0x42, 0xbd, 0x22, 0x3d, 0x2a, 0x3d, 0x14, 0x94, 0xb1, 0xbd,
  0xf3, 0x0a, 0x2d, 0x3d, 0x7a, 0xb2, 0x45, 0x3d, 0xfa, 0x12, 0x3a, 0xbc,
  0x7d, 0x16, 0xb8, 0xbc, 0xb9, 0x17, 0x91, 0x3f, 0x32, 0x21, 0x92, 0x3d,
  0x53, 0x4f, 0x36, 0xbd, 0x0d, 0x46, 0x86, 0xbe, 0x9c, 0xdf, 0xcc, 0x3c,
  0xfd, 0x94, 0x5c, 0xbd, 0xf6, 0xd7, 0x9d, 0xbc, 0x1b, 0xcd, 0x81, 0xbe,
  0xb2, 0x2f, 0xf4, 0xbc, 0x73, 0x97, 0x58, 0xbd, 0x6c, 0xc2, 0x30, 0xbe,
  0x85, 0x9e, 0x9b, 0xbe, 0xc4, 0x81, 0xc4, 0x3d, 0x93, 0x0f, 0x0b, 0x3d,
  0x88, 0x12, 0xaa, 0x3e, 0xa6, 0x7a, 0x28, 0xbd, 0xe0, 0x6e, 0x82, 0x3f,
  0x30, 0x9e, 0xa2, 0x3e, 0xac, 0xee, 0x88, 0xbd, 0xed, 0xb6, 0x34, 0x3b,
  0x42, 0x42, 0x09, 0x3e, 0xe0, 0x22, 0x30, 0xbe, 0x0f, 0xc1, 0x5e, 0xbc,
  0x13, 0x35, 0x54, 0xbe, 0x69, 0xfb, 0xdd, 0xbe, 0xac, 0xc6, 0x94, 0xbe,
  0x61, 0x44, 0x2f, 0xbf, 0xe0, 0xda, 0x19, 0xbf, 0x7a, 0x9b, 0x88, 0x3d,
  0x6b, 0x6b, 0x14, 0x3e, 0x69, 0xe9, 0xe0, 0x3e, 0xca, 0xe2, 0xfa, 0xbd,
  0xff, 0xf0, 0x5a, 0xbd, 0x4a, 0xc3, 0xac, 0x3e, 0xc2, 0xea, 0xd6, 0x3b,
  0x79, 0xc4, 0x16, 0xbe, 0x6c, 0xf1, 0x3c, 0x3e, 0x94, 0x55, 0x74, 0xbe,
  0xe1, 0xc3, 0x19, 0x3d, 0xf7, 0x6a, 0x63, 0xbe, 0x0c, 0x79, 0xcc, 0x3d,
  0x57, 0x5b, 0x49, 0xbe, 0x53, 0x19, 0x3a, 0x3e, 0x91, 0x94, 0x12, 0xbf,
  0xd3, 0xd7, 0x87, 0x3e, 0x1e, 0xb9, 0x22, 0x3c, 0x5c, 0x7e, 0x70, 0x3d,
  0x0a, 0x2c, 0x98, 0xbc, 0x14, 0x3c, 0x6b, 0x3e, 0x87, 0xd1, 0x8e, 0x3e,
  0x76, 0x11, 0x4e, 0xbc, 0xa4, 0xfb, 0xd0, 0x3e, 0x44, 0x34, 0x12, 0x3e,
  0x57, 0x8a, 0xad, 0x3d, 0x04, 0x41, 0x8b, 0x3b, 0x5f, 0xa9, 0x12, 0x3d,
  0x13, 0x36, 0xf1, 0x3d, 0x7f, 0x68, 0x2d, 0xbe, 0x9a, 0x71, 0xe1, 0x3d,
  0x60, 0x51, 0x53, 0xbe, 0xc7, 0x7d, 0x49, 0x3d, 0xd8, 0x3e, 0x75, 0xbd,
  0xc8, 0x0b, 0xf6, 0x3d, 0xeb, 0xbd, 0xfd, 0x3d, 0x23, 0xf4, 0x29, 0x3e,
  0xfc, 0x98, 0x39, 0x3e, 0xa1, 0x71, 0xda, 0x3c, 0x69, 0x0e, 0x07, 0x3e,
  0xb1, 0xde, 0x41, 0x3d, 0x39, 0x12, 0x1a, 0x3e, 0x7f, 0x9e, 0xcb, 0x3d,
  0x23, 0x1d, 0x9e, 0x3d, 0x6c, 0xb4, 0x7e, 0xbd, 0x5d, 0x3f, 0x52, 0xbe,
  0x3a, 0x2f, 0x8b, 0x3d, 0x54, 0xee, 0x88, 0xbe, 0x71, 0x12, 0x9b, 0x3e,
  0x38, 0x3d, 0x4c, 0x3d, 0x00, 0xc3, 0x05, 0xbd, 0x5e, 0xb0, 0xa8, 0x3d,
  0x97, 0x7c, 0x50, 0x3d, 0xa3, 0x93, 0x36, 0xbe, 0xea, 0x12, 0x74, 0x3d,
  0xe7, 0x92, 0xcd, 0x3e, 0x83, 0xd1, 0x41, 0x3d, 0x22, 0xf2, 0x95, 0x3e,
  0x8e, 0x83, 0x47, 0x3d, 0xdc, 0xee, 0xad, 0x3d, 0x6c, 0x5d, 0x0e, 0xbe,
  0xb0, 0x08, 0x8b, 0xbe, 0xd1, 0xbd, 0x02, 0xbe, 0xe9, 0x82, 0xbc, 0xbe,
  0x90, 0x8f, 0x9f, 0x3e, 0x66, 0xde, 0x53, 0xbd, 0x6d, 0x93, 0x2d, 0x3d,
  0xa7, 0x5a, 0x41, 0x3c, 0x1f, 0xdb, 0xd0, 0x3b, 0x47, 0x3a, 0xad, 0x3c,
  0xce, 0x1f, 0x14, 0x3d, 0x08, 0x7d, 0x83, 0x3e, 0x84, 0x76, 0xe8, 0xbd,
  0xd6, 0x06, 0x29, 0x3d, 0x0b, 0xa3, 0x93, 0x3d, 0x74, 0x61, 0xf3, 0xbe,
  0x5b, 0xcc, 0xfd, 0xbe, 0x6f, 0xd5, 0x1d, 0xbf, 0xd0, 0xf4, 0x91, 0x3d,
  0x3e, 0x44, 0xe9, 0xbe, 0x73, 0xea, 0x41, 0x3d, 0x52, 0x97, 0xa6, 0xbe,
  0x8e, 0x7f, 0x16, 0x3d, 0x21, 0x72, 0xd8, 0xbd, 0x5f, 0xa4, 0xc9, 0x3d,
  0x83, 0xf7, 0x48, 0x3e, 0x24, 0x6c, 0xa3, 0x3d, 0xff, 0x35, 0x07, 0x3e,
  0x4c, 0xd9, 0xa3, 0xbc, 0x53, 0x29, 0xcb, 0xbc, 0xf1, 0xdb, 0x2b, 0xbd,
  0x2e, 0x31, 0xe3, 0xbc, 0x11, 0x37, 0xde, 0xbc, 0xc9, 0x33, 0x13, 0xbd,
  0x80, 0x8f, 0xac, 0xbb, 0x99, 0x68, 0x3d, 0xbe, 0x74, 0xd8, 0x8c, 0x3d,
  0x80, 0x80, 0x91, 0xbe, 0xee, 0x26, 0xf7, 0x3c, 0xca, 0xb1, 0xae, 0x3d,
  0x77, 0x2e, 0x17, 0x3e, 0x7f, 0x24, 0xa0, 0x3e, 0xac, 0x2d, 0xdb, 0x3d,
  0x26, 0x42, 0xae, 0xbd, 0x2f, 0x35, 0x4c, 0xbe, 0xe2, 0x6d, 0x2b, 0xbe,
  0x50, 0x33, 0xd6, 0xbd, 0xae, 0x3b, 0x17, 0x3e, 0xcc, 0x9e, 0x1e, 0xbc,
  0xf1, 0x74, 0x11, 0x3d, 0xa0, 0x54, 0x0e, 0x3e, 0x2e, 0xb8, 0x02, 0xbd,
  0x99, 0x43, 0xd4, 0x3d, 0x1f, 0xe8, 0x9e, 0xbe, 0x94, 0xb6, 0xad, 0xbe,
  0xd4, 0x9d, 0x7e, 0xbe, 0xf3, 0xd8, 0x68, 0x3e, 0x51, 0x21, 0xc6, 0xbe,
  0xcd, 0xf5, 0x0c, 0xbf, 0x92, 0x2a, 0x00, 0x3e, 0x43, 0x85, 0x2d, 0x3e,
  0x4e, 0x68, 0x25, 0x3e, 0xee, 0x6f, 0xf3, 0xbd, 0x06, 0x9d, 0x1b, 0x3e,
  0x77, 0x1a, 0xb5, 0x3d, 0x5e, 0x2f, 0x28, 0xbe, 0xba, 0xbd, 0x0f, 0xbe,
  0xff, 0xba, 0xbd, 0x3c, 0x56, 0x41, 0x36, 0xbe, 0x2f, 0xf5, 0x95, 0xbe,
  0x64, 0x9e, 0xa3, 0xbd, 0x96, 0xb5, 0x3d, 0xbe, 0xbe, 0x41, 0x00, 0xbe,
  0x1c, 0x9d, 0x36, 0x3e, 0x19, 0x14, 0x4c, 0xbd, 0x86, 0x73, 0xbd, 0xbd,
  0x1f, 0xdd, 0x61, 0x3d, 0x1d, 0xdb, 0x32, 0x3e, 0x9c, 0x4d, 0xa2, 0xbd,
  0xa7, 0xcd, 0xe9, 0xbe, 0x27, 0x74, 0x83, 0xbe, 0xdc, 0x62, 0x25, 0xbf,
  0x1a, 0x52, 0xf9, 0xbd, 0x36, 0x39, 0x18, 0x3e, 0x8f, 0x9b, 0xd2, 0x3a,
  0xdf, 0x42, 0x89, 0x3c, 0xf4, 0x8c, 0x2d, 0x3b, 0x0b, 0x69, 0x1f, 0xbd,
  0x15, 0x08, 0x11, 0xbe, 0xf2, 0xed, 0xfd, 0x3d, 0x39, 0x47, 0x39, 0x3d,
  0x67, 0xba, 0x2d, 0xbe, 0x88, 0x50, 0x43, 0xbd, 0xd9, 0x9e, 0x7d, 0xbd,
  0x0a, 0x24, 0xdf, 0xbd, 0x0f, 0x0c, 0x1e, 0xbf, 0x24, 0xef, 0x1b, 0xbf,
  0x1b, 0xad, 0x2e, 0xbf, 0x1b, 0x97, 0xbc, 0xbe, 0x19, 0xb8, 0xd9, 0xbe,
  0x17, 0x7e, 0x16, 0xbe, 0xf7, 0xee, 0x5a, 0xb8, 0xa7, 0x2e, 0x1a, 0xbd,
  0x8a, 0x69, 0x3e, 0x3e, 0x5e, 0x04, 0x07, 0x3e, 0xf5, 0xb6, 0xc8, 0x3d,
  0x3a, 0xad, 0xc6, 0x3d, 0x16, 0x49, 0x95, 0xbe, 0x52, 0xe0, 0xc3, 0x3c,
  0x42, 0xef, 0x37, 0x3d, 0xcc, 0xb3, 0xb8, 0xbd, 0xdd, 0xf6, 0x09, 0xbe,
  0x79, 0x7f, 0xf7, 0x3d, 0x8b, 0x90, 0x1f, 0xbd, 0xd9, 0xcc, 0xfe, 0x3d,
  0x8c, 0xad, 0xdf, 0xbd, 0xe4, 0x2a, 0xe3, 0x3e, 0x6d, 0x84, 0x9c, 0x3e,
  0x1c, 0x27, 0xa5, 0x3c, 0x05, 0xc5, 0xe3, 0x3a, 0x90, 0xb8, 0x85, 0x3d,
  0xe9, 0x11, 0x59, 0xbe, 0xac, 0x41, 0x8c, 0x3c, 0xd7, 0x3d, 0x81, 0x3c,
  0x5a, 0x4c, 0xdd, 0xbd, 0xf8, 0x37, 0x9f, 0x3e, 0x60, 0x65, 0xfd, 0xbc,
  0x35, 0x34, 0x23, 0x3d, 0x40, 0x9b, 0x19, 0x3d, 0xf3, 0x3d, 0xca, 0x3c,
  0x9a, 0x05, 0x39, 0x3e, 0x29, 0x69, 0x8a, 0xbe, 0x03, 0x66, 0x9d, 0x3e,
  0x79, 0x64, 0x2c, 0x3d, 0x24, 0x2c, 0xe5, 0x3c, 0x1b, 0xcb, 0x3a, 0xbe,
  0xa6, 0x2b, 0x39, 0x3e, 0xe3, 0x4c, 0x10, 0x3c, 0x11, 0xa1, 0x80, 0x3d,
  0x1c, 0x3f, 0xa0, 0x3d, 0xce, 0xeb, 0xf8, 0xbd, 0x42, 0x83, 0x8a, 0x3e,
  0xee, 0xf7, 0x6a, 0xbd, 0xbf, 0x0c, 0xcc, 0x3d, 0xfb, 0xc8, 0xdb, 0x3b,
  0x69, 0xef, 0x6f, 0x3d, 0xd8, 0xfa, 0x1f, 0xbe, 0x14, 0x76, 0x85, 0xbd,
  0x63, 0xd3, 0xd6, 0x3d, 0xac, 0xa9, 0x96, 0x3d, 0x5d, 0x41, 0x24, 0x3e,
  0x94, 0x64, 0x60, 0xbc, 0x96, 0xae, 0xc3, 0x3d, 0xe6, 0x7b, 0xcb, 0xbd,
  0xd6, 0x29, 0x37, 0xbd, 0x13, 0xc0, 0xb3, 0x39, 0xdc, 0xdd, 0xbe, 0x3e,
  0x59, 0x16, 0x8f, 0x3e, 0x5c, 0x09, 0xe3, 0xbd, 0xe3, 0x3c, 0x33, 0xbf,
  0x72, 0x33, 0xf3, 0xbe, 0x91, 0xfe, 0xb4, 0xbe, 0xdd, 0xab, 0xd5, 0xbd,
  0x22, 0xfe, 0x79, 0xbe, 0x2e, 0x78, 0xf2, 0x3c, 0x4e, 0x54, 0x36, 0xbd,
  0xe0, 0xad, 0xc9, 0xbe, 0x7a, 0xf1, 0x06, 0xbf, 0x35, 0x77, 0xe2, 0x3e,
  0xca, 0xef, 0xd3, 0xbe, 0xb8, 0x3e, 0x0d, 0xbf, 0xd7, 0x93, 0x5c, 0xbd,
  0xb5, 0xba, 0xc8, 0xbe, 0x23, 0x96, 0xae, 0xbe, 0x2a, 0xd8, 0x16, 0xbe,
  0x47, 0xab, 0x4d, 0xbe, 0xda, 0x55, 0xb6, 0x3d, 0x77, 0xf4, 0x7e, 0xbe,
  0x8a, 0xba, 0x3a, 0x3d, 0x75, 0x25, 0xfb, 0x3d, 0x15, 0x9d, 0x1a, 0xbd,
  0xa1, 0x23, 0x04, 0xbe, 0xe7, 0xb9, 0xe5, 0xbe, 0x0e, 0x45, 0x61, 0xbe,
  0xfb, 0x5b, 0x21, 0x3f, 0x3d, 0x60, 0x9e, 0xbe, 0xde, 0x27, 0x30, 0xbf,
  0xde, 0xd9, 0x13, 0x3e, 0x89, 0x94, 0xac, 0xbe, 0xdb, 0x7f, 0x7b, 0xbe,
  0x20, 0x0a, 0x0b, 0xbe, 0x14, 0x4f, 0x29, 0x3d, 0x02, 0x50, 0xce, 0x3b,
  0x69, 0x16, 0x16, 0xbf, 0xeb, 0x1d, 0x03, 0x3e, 0x9b, 0x29, 0x39, 0xbd,
  0x29, 0xbd, 0x89, 0xbd, 0x94, 0x77, 0x89, 0xbc, 0x99, 0x96, 0x41, 0xbe,
  0x8c, 0xb2, 0xf5, 0xbe, 0xab, 0xb0, 0x41, 0x3f, 0xea, 0x0a, 0x44, 0x3d,
  0xee, 0xa8, 0x44, 0xbf, 0x77, 0x87, 0x30, 0x3e, 0x43, 0x4e, 0xad, 0xbe,
  0xa3, 0x2b, 0x7b, 0x3d, 0x20, 0x61, 0x3a, 0xbe, 0xfa, 0xc6, 0x61, 0xbe,
  0xc9, 0x72, 0xcb, 0xbe, 0x4a, 0xdd, 0xd0, 0xbe, 0x6b, 0xea, 0xda, 0xbc,
  0x82, 0x90, 0x9e, 0xbe, 0xaa, 0x6b, 0xe2, 0xbe, 0xac, 0x7f, 0x53, 0xbe,
  0xa0, 0x74, 0x19, 0xbe, 0x01, 0x00, 0xb5, 0xbe, 0x7c, 0x78, 0x3f, 0x3f,
  0x80, 0xa4, 0x74, 0xbe, 0xbf, 0xfb, 0xef, 0xbe, 0x2a, 0x0b, 0x83, 0xbe,
  0x73, 0x29, 0xcf, 0x3d, 0xe7, 0x88, 0xdc, 0x3d, 0xa2, 0x65, 0xcc, 0xbd,
  0x1e, 0xd7, 0x0b, 0x3e, 0xc4, 0x8b, 0xcc, 0x3d, 0xc7, 0x5e, 0xf5, 0x3d,
  0x02, 0x91, 0x00, 0xbc, 0x5c, 0x5f, 0x2c, 0xbe, 0x90, 0x4e, 0x8d, 0x3e,
  0x2e, 0x71, 0x3e, 0x3e, 0xb4, 0xca, 0x98, 0xbe, 0x23, 0x77, 0x13, 0xbe,
  0x27, 0x61, 0x34, 0x3f, 0x0b, 0xa5, 0x93, 0xbe, 0x58, 0x6f, 0xd2, 0xbe,
  0x5b, 0x99, 0x01, 0x3e, 0x11, 0xd6, 0x8f, 0x3d, 0x19, 0xae, 0xbd, 0x3e,
  0xd5, 0x18, 0x36, 0xbd, 0x06, 0x38, 0x0d, 0x3e, 0x49, 0xae, 0x24, 0xbc,
  0xab, 0xa6, 0xe4, 0x3b, 0x0c, 0xa2, 0xb2, 0x3d, 0x84, 0x36, 0x38, 0xbe,
  0x0a, 0xf5, 0x87, 0x3e, 0xc8, 0xcc, 0xcc, 0xb9, 0xcf, 0x44, 0x28, 0xbe,
  0x53, 0x25, 0x64, 0xbe, 0xd4, 0xc4, 0xc9, 0x3c, 0x9c, 0xb4, 0x0c, 0xbe,
  0x17, 0x56, 0x5a, 0xbd, 0x59, 0x4a, 0x5e, 0x3d, 0xe8, 0x13, 0xc9, 0x3d,
  0x15, 0x75, 0xaf, 0x3e, 0x62, 0x5b, 0xcd, 0x3d, 0x82, 0x97, 0xdb, 0x3c,
  0x20, 0x48, 0x2e, 0x3d, 0x92, 0x65, 0x0e, 0x3e, 0xa2, 0xc2, 0x80, 0xbc,
  0xfb, 0x15, 0x61, 0x3b, 0x1a, 0x88, 0xba, 0x3e, 0xd3, 0xa6, 0xb2, 0x3e,
  0x75, 0xe6, 0x95, 0x3e, 0x84, 0xf0, 0x39, 0xbd, 0xca, 0xd1, 0x32, 0x3d,
  0xa0, 0x63, 0x96, 0xbe, 0x56, 0x50, 0x84, 0x3e, 0xa7, 0xf1, 0x37, 0xbc,
  0x11, 0x7d, 0xbe, 0x3e, 0xd6, 0x84, 0xb8, 0x3e, 0x30, 0x14, 0xc5, 0xbd,
  0x6d, 0x20, 0x56, 0x3b, 0xf1, 0x18, 0x70, 0x3c, 0x8f, 0x99, 0x55, 0xbc,
  0x64, 0x36, 0xa0, 0xbe, 0xb2, 0xf8, 0x5f, 0x3e, 0x1b, 0x45, 0x0f, 0xbf,
  0xae, 0xb0, 0x22, 0x3b, 0xd3, 0xce, 0x1b, 0xbd, 0x11, 0x3c, 0xa8, 0x3e,
  0x92, 0x3d, 0xc8, 0x3f, 0x1d, 0x44, 0x80, 0x3e, 0xee, 0x5d, 0x95, 0x3d,
  0x5d, 0xb6, 0xcc, 0xbe, 0xae, 0x8d, 0xad, 0xbd, 0x5a, 0xf8, 0xb9, 0xbe,
  0xcf, 0x66, 0x62, 0xbc, 0x31, 0xf9, 0x8a, 0xbd, 0x9a, 0x33, 0xec, 0xbd,
  0xd6, 0x06, 0x6e, 0x3e, 0x74, 0x52, 0x01, 0xbe, 0x22, 0x25, 0x33, 0x3e,
  0x02, 0xec, 0x99, 0x3e, 0xe7, 0x34, 0x95, 0x3e, 0x11, 0x1c, 0xbd, 0xbd,
  0x4d, 0x7f, 0x97, 0x3e, 0x42, 0xe5, 0x32, 0x3f, 0x9d, 0x21, 0x9c, 0xbe,
  0x95, 0xaa, 0x6e, 0x3d, 0x8a, 0x77, 0xb5, 0xbd, 0xc2, 0xec, 0x28, 0xbe,
  0x6b, 0x71, 0x2b, 0xbe, 0x68, 0xb4, 0x0a, 0xbd, 0x92, 0xe4, 0x9d, 0x3e,
  0xc5, 0x9c, 0x11, 0x3e, 0xe0, 0xc7, 0x9f, 0x3e, 0xe7, 0x33, 0xd7, 0x3d,
  0xfe, 0x11, 0x39, 0x3e, 0x51, 0xa0, 0x05, 0xbd, 0x80, 0xf7, 0x4b, 0x3e,
  0x23, 0x3d, 0x15, 0xbe, 0x66, 0x07, 0xa5, 0x3e, 0xc3, 0x56, 0x8c, 0x3f,
  0x14, 0x01, 0x09, 0xbf, 0x56, 0x5b, 0xe1, 0xba, 0xa3, 0x15, 0x99, 0xbe,
  0x46, 0x0b, 0x07, 0xbd, 0x48, 0xb2, 0x9f, 0x3d, 0xbf, 0x66, 0x52, 0xbd,
  0xa1, 0x44, 0x2f, 0x3e, 0x13, 0x2f, 0xb0, 0x3e, 0xd1, 0x4f, 0x61, 0x3e,
  0x7c, 0x15, 0x4b, 0xbb, 0x4e, 0xde, 0x7c, 0x3e, 0x89, 0x8f, 0x3b, 0x3e,
  0xa8, 0xdf, 0x50, 0x3e, 0xa2, 0x87, 0xd4, 0xbe, 0x70, 0x04, 0x5a, 0x3d,
  0xc5, 0x5b, 0x52, 0x3f, 0x20, 0xd7, 0x78, 0xbe, 0x2b, 0x85, 0xc4, 0xbd,
  0xed, 0xb3, 0x74, 0xbe, 0x1a, 0x9c, 0x2a, 0xbe, 0x79, 0x05, 0xc3, 0xbd,
  0xec, 0x82, 0x87, 0xb8, 0xfa, 0xe5, 0x35, 0x3d, 0x9f, 0x13, 0xfd, 0x3d,
  0x7d, 0x58, 0x17, 0x3e, 0xf4, 0x88, 0xa1, 0xbe, 0x99, 0x80, 0xa2, 0x3e,
  0x28, 0xe5, 0xdd, 0xbe, 0x07, 0x34, 0xb3, 0xbd, 0x3a, 0x35, 0xc5, 0xbe,
  0x8f, 0x13, 0xd4, 0x3d, 0xcc, 0x75, 0x6d, 0x3f, 0xa0, 0xfc, 0x3d, 0xbe,
  0x3e, 0xd1, 0xc0, 0x3c, 0x5c, 0x00, 0x00, 0xbf, 0x91, 0xb5, 0x44, 0xbe,
  0xbc, 0x8a, 0x13, 0xbf, 0xfd, 0x57, 0xe0, 0xbc, 0x74, 0xdd, 0x4f, 0xbc,
  0x69, 0x9c, 0xf5, 0x3d, 0xd8, 0x4c, 0xe5, 0x3d, 0xa9, 0x7a, 0xae, 0xbe,
  0xf1, 0xd7, 0xd6, 0x3e, 0xea, 0xf2, 0x23, 0xbf, 0x60, 0x58, 0x9a, 0x3d,
  0xe1, 0x8d, 0x1b, 0xbe, 0x9d, 0x03, 0xa3, 0x3e, 0xbb, 0x2c, 0x32, 0x3e,
  0xbe, 0xf6, 0x89, 0xbe, 0x82, 0xc9, 0xcc, 0xbd, 0x98, 0x67, 0xd4, 0xbe,
  0xa4, 0xe0, 0x8a, 0xbe, 0x18, 0xb0, 0xf2, 0xbe, 0x37, 0x28, 0xb5, 0x3c,
  0xfa, 0x55, 0x81, 0xbd, 0x88, 0x2d, 0x11, 0x3d, 0x1f, 0x04, 0x49, 0x3d,
  0xbd, 0x9e, 0x28, 0xbd, 0x2e, 0x87, 0xe4, 0x3d, 0x0f, 0x23, 0xbf, 0xbe,
  0x2c, 0x40, 0x47, 0x3c, 0x2f, 0x66, 0x87, 0x3d, 0xd8, 0x45, 0xaa, 0x3d,
  0x00, 0x35, 0x93, 0x3f, 0x5e, 0x59, 0x61, 0x3e, 0x1e, 0xdc, 0x27, 0xbe,
  0x27, 0xe5, 0x09, 0xbe, 0xaf, 0xc7, 0x8d, 0xbe, 0x88, 0xc2, 0x32, 0xbe,
  0x95, 0x86, 0x91, 0xbe, 0xd3, 0xb2, 0x84, 0xbd, 0xf0, 0x05, 0x8d, 0xbd,
  0xad, 0xd0, 0x04, 0xbe, 0xec, 0x02, 0x21, 0xbe, 0x92, 0xeb, 0x47, 0x3d,
  0x27, 0x23, 0xa8, 0xbb, 0x3b, 0xa9, 0x97, 0xbe, 0x88, 0xe5, 0xcf, 0x3d,
  0xfc, 0x41, 0x6d, 0x3b, 0x61, 0xd7, 0xba, 0x3f, 0x0c, 0x3c, 0xc5, 0x3e,
  0xd4, 0xf8, 0x3e, 0x3e, 0xec, 0xdf, 0xa1, 0xbd, 0x94, 0x1b, 0x8d, 0x3d,
  0xc1, 0x4f, 0x3a, 0x3c, 0xf2, 0x25, 0xcd, 0xbe, 0x4d, 0x6a, 0x09, 0xbe,
  0x2b, 0xe0, 0xff, 0xbd, 0xec, 0xe9, 0x4d, 0xbe, 0x66, 0x0f, 0x3a, 0xbe,
  0xc6, 0xba, 0x32, 0xbe, 0x88, 0x9e, 0xe6, 0x3e, 0x96, 0x81, 0xb4, 0xbc,
  0x78, 0x1a, 0xae, 0xbd, 0xb1, 0x4f, 0x02, 0x3e, 0x79, 0xc7, 0xe2, 0x3f,
  0x45, 0x30, 0xcb, 0x3e, 0xa1, 0x5e, 0xab, 0x3c, 0xa1, 0xac, 0xf4, 0xbd,
  0x21, 0x2b, 0x01, 0x3d, 0xa1, 0x4c, 0x10, 0xbe, 0xd6, 0x28, 0xcb, 0xbd,
  0x6c, 0x61, 0x26, 0xbe, 0xc6, 0x5d, 0x65, 0xbe, 0x93, 0xa5, 0x34, 0xbd,
  0x2e, 0x88, 0x9c, 0x3c, 0xee, 0x61, 0x40, 0x3d, 0xfc, 0x94, 0x84, 0x3e,
  0x92, 0x2c, 0x43, 0x3e, 0x28, 0x88, 0x15, 0xbe, 0x62, 0xa9, 0xef, 0x3c,
  0x3c, 0xdb, 0xb6, 0x3f, 0x71, 0x31, 0x90, 0x3d, 0xe2, 0x4b, 0xcc, 0xbd,
  0x2a, 0x06, 0xec, 0xbd, 0xc0, 0x12, 0x49, 0xbd, 0x66, 0x06, 0x86, 0xbd,
  0x25, 0x3f, 0x80, 0xbe, 0x1b, 0x0b, 0x3b, 0x3c, 0xcb, 0xdc, 0x98, 0xbd,
  0xf7, 0x93, 0xec, 0x3d, 0xc9, 0xf4, 0x61, 0xbe, 0x0f, 0x4c, 0x05, 0x3e,
  0x8b, 0x7a, 0x83, 0x3e, 0xec, 0x5d, 0x14, 0x3e, 0xcc, 0xd0, 0x49, 0x3e,
  0xc6, 0x95, 0x52, 0xbe, 0xbc, 0x2f, 0xb7, 0x3f, 0xd9, 0x11, 0x21, 0x3e,
  0x7e, 0x94, 0x2f, 0x3e, 0xd8, 0x6a, 0x90, 0xbd, 0x60, 0x2c, 0x80, 0xbc,
  0xc8, 0x82, 0x2a, 0x3d, 0x64, 0xb1, 0x27, 0xbe, 0x92, 0x79, 0x98, 0xbc,
  0xa5, 0xd8, 0x83, 0x3c, 0x49, 0x28, 0x63, 0xbe, 0xbe, 0xf5, 0x57, 0xbd,
  0x88, 0xbe, 0x7a, 0xbe, 0x08, 0xbd, 0x8c, 0x3e, 0xb9, 0xa0, 0x3c, 0x3c,
  0x63, 0xea, 0x82, 0x3d, 0x1b, 0x3f, 0xe7, 0x3c, 0x74, 0x7b, 0xb7, 0x3f,
  0x87, 0x1d, 0xbb, 0x3e, 0xc6, 0xec, 0xb2, 0xbd, 0x4c, 0xb0, 0xbe, 0xbd,
  0x5e, 0xd6, 0x45, 0x3d, 0x51, 0x2e, 0x80, 0xbe, 0x8a, 0xd3, 0x8c, 0xbe,
  0xe1, 0x23, 0x4f, 0x3d, 0x76, 0x6f, 0x8a, 0xbe, 0xaf, 0xb5, 0x10, 0xbe,
  0xaa, 0xf5, 0xa9, 0xbd, 0x67, 0x4f, 0xbe, 0xbd, 0x27, 0x71, 0xa5, 0xbc,
  0x6d, 0x5b, 0x53, 0xbe, 0x25, 0x18, 0xfe, 0xbc, 0x6e, 0x2e, 0xc2, 0x3d,
  0xaa, 0xa0, 0xd5, 0x3f, 0x31, 0x48, 0x7d, 0x3d, 0xa2, 0x71, 0x81, 0xbc,
  0x20, 0x49, 0x9d, 0x3d, 0xbb, 0x2e, 0xb9, 0xbd, 0x26, 0x8a, 0xa3, 0xbd,
  0x62, 0x8e, 0x0e, 0xbe, 0xf8, 0x2d, 0x87, 0xbe, 0x66, 0xc2, 0x4e, 0xbe,
  0x9d, 0x73, 0x4b, 0xbe, 0x08, 0xae, 0x76, 0x3d, 0x29, 0xd5, 0xea, 0xbd,
  0x81, 0xe7, 0xe4, 0xbd, 0x2c, 0x71, 0xcd, 0x3c, 0x57, 0xa3, 0xb6, 0x3e,
  0x6c, 0x46, 0xf7, 0xba, 0x79, 0xe2, 0x1a, 0x3f, 0xc5, 0x32, 0x4f, 0x3e,
  0x3e, 0x90, 0xc0, 0x3d, 0x14, 0x43, 0x88, 0xbe, 0x9c, 0xa7, 0xa7, 0x3e,
  0x3e, 0x29, 0x07, 0x3c, 0x59, 0x69, 0x80, 0xbe, 0x96, 0xf3, 0x17, 0x3d,
  0xe0, 0xef, 0x45, 0x3d, 0xd7, 0x3a, 0x93, 0xbe, 0x0b, 0x7e, 0x5f, 0xbe,
  0x80, 0xb3, 0x8a, 0xbe, 0x64, 0xd1, 0x33, 0xbd, 0xa4, 0x76, 0x0c, 0xbe,
  0x4e, 0xe4, 0x5a, 0x3e, 0x92, 0x20, 0x13, 0x3e, 0xf1, 0xe9, 0xd1, 0x3f,
  0x20, 0x4b, 0xef, 0x3e, 0xc0, 0xbe, 0xf9, 0xbd, 0x22, 0x6a, 0x11, 0xbd,
  0xb9, 0x1b, 0xe0, 0x3d, 0x00, 0x0c, 0xd9, 0x3d, 0x30, 0xc2, 0x23, 0xbe,
  0xd1, 0x04, 0x00, 0xbe, 0xdb, 0xde, 0x2d, 0xbe, 0xa1, 0xdf, 0x74, 0xbe,
  0xdc, 0x08, 0x44, 0xbd, 0xad, 0x7c, 0xd6, 0xbc, 0xeb, 0x5f, 0xc6, 0x3e,
  0xa5, 0xd5, 0x3a, 0x3d, 0x49, 0x0f, 0x72, 0xbd, 0x5e, 0x47, 0xf5, 0xbd,
  0x1f, 0xa5, 0xd0, 0x3f, 0x7c, 0x3b, 0x73, 0x3d, 0x8b, 0xe6, 0x0a, 0xbe,
  0xcf, 0xd8, 0x1f, 0xbe, 0x06, 0x41, 0xfc, 0xbd, 0x0b, 0x21, 0x1e, 0x3e,
  0x90, 0x6a, 0xba, 0xbd, 0x24, 0x56, 0xb5, 0x3c, 0x2c, 0x1a, 0x32, 0x3e,
  0x6f, 0x13, 0xdf, 0x3c, 0xc0, 0xdb, 0x0b, 0xbe, 0x9c, 0xfd, 0xc6, 0xbd,
  0x2b, 0x9e, 0xc0, 0x3e, 0x7f, 0xdd, 0x8d, 0x3d, 0xc7, 0x3d, 0xe3, 0x3d,
  0x06, 0x61, 0xd2, 0x3c, 0xed, 0x7a, 0xcd, 0x3f, 0xb9, 0xec, 0x3d, 0x3e,
  0x02, 0xb8, 0xad, 0x3c, 0x06, 0xdf, 0x4a, 0xbe, 0x2e, 0x2d, 0xfa, 0x3d,
  0xf0, 0xaa, 0x2a, 0xbe, 0x55, 0xfb, 0xa2, 0xbe, 0xef, 0xb5, 0x8d, 0xbd,
  0x03, 0xa0, 0x5e, 0xbe, 0xf7, 0xea, 0x05, 0xbe, 0xa5, 0x56, 0x2c, 0xbe,
  0x5b, 0x50, 0x8e, 0x3b, 0x98, 0xc0, 0xf7, 0x3e, 0xc5, 0xb5, 0x00, 0xbe,
  0x97, 0xd6, 0xd4, 0xbd, 0x47, 0xb2, 0x86, 0xbe, 0xfc, 0x40, 0xde, 0x3f,
  0xd3, 0x60, 0xa6, 0x3e, 0xf1, 0x5e, 0x36, 0xba, 0x21, 0x60, 0x14, 0x3d,
  0x4a, 0x85, 0x01, 0xbe, 0x1c, 0xe2, 0xe2, 0xbd, 0xe7, 0x3f, 0x5b, 0xbe,
  0x3e, 0xc9, 0x2f, 0xbd, 0xab, 0xbc, 0xba, 0xbd, 0x47, 0xe2, 0x21, 0xbc,
  0x82, 0xcb, 0x57, 0xbd, 0x32, 0x09, 0x85, 0xbe, 0xe0, 0xf8, 0xd1, 0x3e,
  0xd5, 0xc2, 0xcb, 0x3c, 0x21, 0x67, 0x8f, 0xbe, 0x3f, 0xe7, 0xca, 0xbc,
  0x95, 0x61, 0xde, 0x3f, 0xe1, 0x7a, 0x90, 0x3e, 0x79, 0xb2, 0x7d, 0x3d,
  0x56, 0xd7, 0xe2, 0xbd, 0x06, 0x6f, 0x1f, 0xbe, 0x8d, 0x31, 0xa9, 0x3d,
  0xfc, 0xe1, 0x10, 0xbe, 0x69, 0xa4, 0xe9, 0xbd, 0xef, 0xbb, 0x60, 0x3b,
  0x9a, 0x59, 0x93, 0xbe, 0x06, 0xa4, 0x0b, 0xbe, 0xf7, 0xed, 0x65, 0xbe,
  0x3f, 0x17, 0xfa, 0x3e, 0x9b, 0xed, 0xad, 0xba, 0xec, 0xd7, 0x18, 0x3e,
  0x9b, 0xb9, 0x32, 0xbe, 0x88, 0x90, 0x80, 0x3f, 0x66, 0x44, 0x68, 0x3e,
  0xff, 0x12, 0x68, 0xbe, 0xcf, 0x46, 0x55, 0xbe, 0x6b, 0x4a, 0x4d, 0x3e,
  0x2c, 0x8d, 0xc9, 0x3d, 0x9f, 0x12, 0xe7, 0xbd, 0x69, 0xe3, 0x1c, 0xbe,
  0x41, 0x35, 0x14, 0xbd, 0x30, 0x94, 0xaf, 0x3c, 0x86, 0x6c, 0x41, 0xbe,
  0x01, 0x66, 0x87, 0xbe, 0x62, 0xba, 0xeb, 0xbc, 0xaa, 0xa7, 0xa1, 0xbe,
  0x80, 0xd6, 0x3d, 0x3e, 0x79, 0x25, 0xab, 0xbe, 0xfc, 0xa3, 0xec, 0x3f,
  0xa9, 0x8d, 0x52, 0x3e, 0x0a, 0x45, 0x0c, 0xbd, 0x9b, 0xa2, 0x90, 0xbe,
  0x19, 0x2b, 0xbc, 0x3e, 0x3b, 0x31, 0x09, 0x3e, 0xbe, 0x91, 0xbf, 0xbe,
  0xd4, 0x7b, 0xaf, 0xbd, 0x30, 0xcc, 0x34, 0x3d, 0x43, 0x58, 0x3f, 0xbe,
  0x32, 0x25, 0x51, 0xbe, 0x62, 0x2a, 0x56, 0xbe, 0x3a, 0x0b, 0xaa, 0xbe,
  0x96, 0x74, 0xe4, 0xbe, 0x09, 0xc3, 0x39, 0x3d, 0xfc, 0x57, 0xce, 0xbb,
  0xf4, 0xdf, 0xdd, 0x3f, 0xde, 0x12, 0x28, 0x3f, 0xa9, 0xbb, 0x3d, 0xbe,
  0x31, 0xf1, 0x90, 0xbe, 0x6a, 0x0a, 0x6b, 0xbe, 0x6b, 0x02, 0x2f, 0xbe,
  0x3d, 0xfc, 0xb2, 0xbe, 0x5d, 0xb9, 0xbc, 0xbd, 0xf1, 0x78, 0x77, 0xbc,
  0xf9, 0xbd, 0xed, 0xbd, 0xa9, 0x8e, 0x82, 0xbe, 0x25, 0xfb, 0x3b, 0x3e,
  0xc1, 0xa8, 0x14, 0x3f, 0x51, 0x4a, 0x09, 0xbe, 0xfb, 0xb3, 0x2b, 0x3e,
  0xd4, 0x2f, 0x99, 0xbc, 0x8e, 0xd4, 0xe0, 0x3f, 0x9d, 0x8f, 0xaa, 0x3e,
  0x3c, 0x97, 0x14, 0xbe, 0x72, 0xb2, 0xc9, 0xbd, 0xb1, 0xa5, 0x0a, 0x3e,
  0xa0, 0x80, 0x77, 0xbc, 0x0f, 0x20, 0xdf, 0xbd, 0x8d, 0x1f, 0x16, 0xbe,
  0x1a, 0x03, 0x8b, 0xbd, 0xc9, 0xc1, 0xd5, 0xbd, 0x9c, 0x01, 0x0a, 0xbd,
  0xf6, 0x88, 0xab, 0x3d, 0xb6, 0x5c, 0x77, 0x3e, 0x9b, 0x3b, 0x7d, 0xbe,
  0x24, 0xf5, 0x90, 0x3e, 0xb0, 0x49, 0xc5, 0xbc, 0x6d, 0x71, 0xdb, 0x3f,
  0xd5, 0xba, 0x85, 0x3e, 0x3a, 0x2b, 0x16, 0xbe, 0x26, 0xa9, 0x1b, 0xbe,
  0x13, 0x67, 0x0b, 0xbe, 0xa3, 0xe8, 0x57, 0xbe, 0x87, 0x4c, 0xd7, 0xbe,
  0xe3, 0x77, 0x2e, 0x3e, 0x11, 0xcb, 0x5c, 0xbe, 0xd8, 0x9b, 0x45, 0xbe,
  0xe2, 0x7e, 0x0d, 0xbe, 0x79, 0x66, 0x7e, 0x3d, 0xad, 0x56, 0x10, 0x3f,
  0x87, 0x2e, 0x80, 0x3b, 0x6f, 0xf2, 0x49, 0xbb, 0x90, 0x6a, 0x89, 0xbe,
  0x82, 0xce, 0x81, 0x3f, 0x62, 0x09, 0xfa, 0x3e, 0xa1, 0xdc, 0xaa, 0xbd,
  0xbe, 0x38, 0x8f, 0xbd, 0xbc, 0x16, 0x4d, 0xbe, 0x39, 0xf4, 0x5a, 0xbe,
  0x07, 0x6c, 0xa7, 0xbe, 0xe0, 0x97, 0x2e, 0xbe, 0xbb, 0x70, 0x02, 0x3e,
  0xc6, 0x26, 0x40, 0xbe, 0xf6, 0x2e, 0x7f, 0xbc, 0x41, 0x58, 0xf1, 0xbd,
  0xb7, 0x21, 0xc1, 0x3e, 0x7e, 0x25, 0x2e, 0xbe, 0x63, 0xd0, 0x21, 0x3e,
  0x9c, 0x91, 0x06, 0x3d, 0x34, 0xc8, 0xd6, 0x3f, 0xb8, 0xf6, 0x7f, 0xbb,
  0xa2, 0xa0, 0x96, 0xbe, 0xaf, 0xfc, 0x78, 0xbe, 0x57, 0x68, 0x00, 0xbe,
  0xa5, 0xaf, 0x73, 0xbe, 0x24, 0x05, 0xa6, 0xbe, 0x6c, 0x29, 0xd5, 0xbd,
  0x7c, 0x8c, 0x38, 0xbe, 0xa6, 0x3e, 0xb4, 0xbd, 0x11, 0x71, 0x38, 0x3c,
  0xd5, 0x50, 0xc3, 0xbc, 0xb4, 0xe1, 0x0b, 0x3e, 0xbd, 0x29, 0x33, 0xbe,
  0x0a, 0x25, 0xa4, 0xbe, 0x0e, 0x8d, 0x7b, 0xbe, 0x9b, 0x9d, 0xf4, 0x3f,
  0x69, 0xb9, 0x12, 0x3f, 0xd6, 0xc9, 0xd1, 0x3d, 0xdf, 0xde, 0x97, 0xbe,
  0xb6, 0x0c, 0x27, 0xbd, 0x12, 0x61, 0x47, 0x3e, 0x53, 0x18, 0x4d, 0xbe,
  0xdf, 0x95, 0x8b, 0xbe, 0xce, 0xb7, 0x81, 0xbd, 0x83, 0x54, 0x95, 0xbe,
  0xe8, 0x2b, 0x87, 0xbd, 0x6b, 0x80, 0x41, 0xbe, 0xb2, 0x43, 0x2c, 0x3e,
  0xbd, 0xc1, 0x66, 0xbe, 0x53, 0xde, 0x7b, 0x3e, 0xc1, 0xa9, 0xa1, 0xbe,
  0xf6, 0x37, 0xbb, 0x3f, 0xc9, 0x83, 0x91, 0x3d, 0x95, 0x3f, 0xab, 0x3c,
  0xbc, 0xa0, 0xcf, 0xbd, 0xf6, 0xbf, 0x15, 0x3e, 0x70, 0x54, 0x63, 0x3e,
  0x90, 0x72, 0x99, 0x3c, 0xf1, 0x11, 0x9f, 0xbe, 0x6b, 0xb5, 0xaa, 0xbe,
  0x6c, 0x9e, 0x1a, 0xbe, 0x12, 0x10, 0xae, 0xbe, 0x14, 0x7b, 0x28, 0xbf,
  0x9f, 0x21, 0x3d, 0x3d, 0x33, 0x4b, 0x11, 0x3e, 0x6e, 0xf7, 0xa2, 0x3e,
  0x53, 0x0e, 0x9d, 0xbe, 0xd7, 0xbe, 0x3b, 0xbc, 0xd1, 0xe9, 0xb6, 0x3e,
  0x01, 0x50, 0x19, 0xbc, 0x4d, 0x04, 0x12, 0xbd, 0x0a, 0x26, 0x3c, 0x3e,
  0xe7, 0x54, 0x96, 0xbe, 0x48, 0x9d, 0x66, 0x3d, 0x9a, 0x88, 0x68, 0xbe,
  0x79, 0xe4, 0x0a, 0x3b, 0x97, 0x4d, 0x3b, 0xbe, 0xc1, 0x27, 0x75, 0x3e,
  0x90, 0x91, 0xf8, 0xbe, 0x48, 0x58, 0x95, 0x3e, 0x6e, 0x58, 0x21, 0x3e,
  0x5a, 0x2b, 0xdb, 0x3d, 0x73, 0x6b, 0xc1, 0xbe, 0x03, 0xab, 0x86, 0x3d,
  0xaa, 0x2b, 0xb3, 0x3e, 0xfe, 0x6d, 0x06, 0x3e, 0xfc, 0x78, 0xb3, 0x3e,
  0x98, 0x7f, 0xa8, 0x3d, 0x12, 0xba, 0x47, 0x3e, 0xd3, 0xd2, 0x97, 0x3d,
  0x43, 0xc3, 0xa1, 0xbe, 0xd3, 0x0f, 0xc4, 0xbc, 0x99, 0xf7, 0x93, 0x3d,
  0x83, 0xca, 0x8d, 0x3e, 0x4e, 0x1e, 0x4c, 0xbd, 0x60, 0xba, 0xef, 0xbc,
  0x65, 0xb3, 0x47, 0xbd, 0x96, 0x07, 0x11, 0x3e, 0xb6, 0x93, 0x22, 0xbe,
  0x01, 0x61, 0xc5, 0x3c, 0x0f, 0xc6, 0xac, 0x3e, 0x24, 0xd8, 0xe4, 0x3c,
  0xf2, 0xb4, 0x99, 0x3e, 0x80, 0x00, 0xf1, 0x3d, 0x4f, 0x84, 0x4c, 0x3e,
  0xff, 0x98, 0xfe, 0x3c, 0x30, 0xa0, 0x03, 0xbe, 0x5b, 0xcd, 0x82, 0x3c,
  0x87, 0xbb, 0x37, 0xbd, 0x3e, 0x5d, 0x07, 0x3e, 0x32, 0x19, 0xcd, 0xbc,
  0x2e, 0xb3, 0x69, 0x3d, 0xfe, 0x02, 0xa3, 0xbd, 0x5c, 0x58, 0x8a, 0x3d,
  0x1e, 0xb4, 0x0a, 0xbe, 0x47, 0x01, 0x9d, 0x3e, 0x4c, 0xf1, 0xbd, 0x3d,
  0x23, 0xe2, 0x46, 0x3d, 0xd2, 0x31, 0x96, 0x3e, 0xae, 0xb2, 0x2d, 0x3d,
  0x72, 0x80, 0x9b, 0x3d, 0xad, 0x3c, 0x58, 0x3d, 0xc6, 0x9d, 0x9d, 0xbe,
  0x43, 0x8b, 0xcb, 0xbd, 0x50, 0x22, 0x90, 0xbe, 0xa1, 0x54, 0x92, 0x3d,
  0xf8, 0x11, 0x9b, 0xbe, 0x9c, 0x02, 0x49, 0xbe, 0x91, 0xef, 0x93, 0xbe,
  0x0f, 0x2b, 0x0e, 0x3d, 0x76, 0xff, 0xa6, 0xbe, 0x90, 0xb6, 0x32, 0xbc,
  0x74, 0x68, 0x10, 0x3d, 0x68, 0x82, 0xaf, 0x3c, 0x3b, 0x9b, 0xb3, 0x3e,
  0xac, 0xf3, 0x4a, 0xbd, 0x8f, 0xc4, 0xe1, 0xbd, 0x09, 0x0b, 0x06, 0x3e,
  0xab, 0x59, 0xf7, 0xbe, 0xbf, 0x70, 0xd9, 0xbe, 0x73, 0xcf, 0xa4, 0xbe,
  0xfe, 0xbf, 0x02, 0x3e, 0xc0, 0x01, 0xd4, 0xbd, 0x79, 0xbf, 0x18, 0xbe,
  0x44, 0xde, 0xca, 0xbe, 0xcf, 0x7c, 0xff, 0xbb, 0xb5, 0xb6, 0x37, 0xbe,
  0xce, 0xc2, 0x82, 0x3e, 0xa1, 0xb8, 0xb0, 0x3e, 0x19, 0xac, 0x82, 0x3c,
  0x81, 0xc5, 0x1c, 0x3e, 0x6c, 0x07, 0x74, 0x3d, 0xc2, 0x3e, 0xa4, 0xbd,
  0x7a, 0x9f, 0x09, 0xbd, 0x80, 0x54, 0xf8, 0xbb, 0xc9, 0x52, 0x0a, 0xbd,
  0xbf, 0x1a, 0xa0, 0xbd, 0x01, 0x4e, 0x3a, 0x3c, 0x6f, 0x8c, 0xf7, 0xbd,
  0x83, 0x69, 0x97, 0xbd, 0xd7, 0x41, 0xb5, 0xbe, 0x66, 0x2a, 0x28, 0xbb,
  0xad, 0x31, 0xa2, 0x3c, 0x94, 0xf7, 0x6b, 0xbe, 0x79, 0x93, 0x34, 0x3e,
  0xa1, 0x34, 0x01, 0x3e, 0x68, 0xe1, 0x9c, 0xbd, 0x33, 0x49, 0x87, 0xbe,
  0x7d, 0x98, 0x0a, 0xbe, 0xf7, 0x84, 0x7f, 0x3d, 0xda, 0x59, 0xa3, 0x3c,
  0x98, 0x68, 0x93, 0xbc, 0xeb, 0x1a, 0x49, 0xbd, 0x8e, 0x4c, 0x2b, 0xbe,
  0xbe, 0xb8, 0x33, 0xbd, 0xbd, 0x98, 0x94, 0xbe, 0x4c, 0x77, 0x9c, 0x3d,
  0x31, 0xff, 0x60, 0x3d, 0x71, 0x07, 0xca, 0x3e, 0x41, 0x57, 0xc2, 0x3f,
  0xf3, 0x51, 0x04, 0x3e, 0x4b, 0x0a, 0x3a, 0x3e, 0xac, 0x96, 0xa6, 0xbe,
  0x81, 0xe9, 0xe0, 0xbc, 0xc5, 0x66, 0x42, 0xbe, 0x77, 0xfc, 0x96, 0x3c,
  0xbe, 0xba, 0xfa, 0xbd, 0x95, 0xd1, 0x22, 0xbd, 0x34, 0x03, 0x39, 0x3e,
  0xbc, 0x0d, 0xf9, 0xbc, 0xc5, 0xf8, 0x9e, 0xbd, 0x8e, 0x18, 0xa7, 0x3d,
  0x56, 0xb2, 0xa4, 0x3d, 0x0d, 0xca, 0xd1, 0xbd, 0x8a, 0xdc, 0xa4, 0x3d,
  0x7c, 0xa9, 0x5c, 0x3e, 0x64, 0xfc, 0xab, 0xbe, 0xaa, 0x6c, 0x44, 0x3d,
  0x87, 0xef, 0xc1, 0xbd, 0x8b, 0xfd, 0x83, 0xbd, 0x70, 0xf4, 0x8a, 0xbe,
  0xfc, 0xf6, 0xc3, 0x3c, 0x8b, 0x8b, 0xbc, 0x3e, 0x39, 0x10, 0x9f, 0x3e,
  0x8c, 0xce, 0xe3, 0x3e, 0x2b, 0x56, 0x14, 0xbd, 0x09, 0xce, 0x72, 0xbc,
  0x4f, 0xb6, 0x3b, 0x3e, 0x0e, 0x83, 0x6b, 0x3e, 0x31, 0x23, 0x38, 0xbe,
  0xa4, 0xf9, 0x5d, 0x3d, 0x4f, 0xec, 0xc7, 0x3e, 0x9e, 0x64, 0x0b, 0xbe,
  0xd6, 0xa1, 0x93, 0xbd, 0x31, 0x3a, 0xae, 0x3c, 0x93, 0xe8, 0x97, 0xbd,
  0x3f, 0xaf, 0xac, 0xbc, 0x82, 0x7f, 0x1c, 0x3d, 0x90, 0x1a, 0x89, 0x3e,
  0x28, 0x38, 0x48, 0x3e, 0x2b, 0xfb, 0xf4, 0x3e, 0x6a, 0x45, 0xa1, 0xbe,
  0x34, 0xd6, 0x98, 0x3e, 0x87, 0x2b, 0x06, 0xbe, 0x44, 0x12, 0xba, 0x3d,
  0xd3, 0xea, 0x10, 0xbd, 0x46, 0x0f, 0xed, 0xbd, 0x85, 0xb6, 0x16, 0x3f,
  0xdf, 0x48, 0xde, 0x3d, 0x03, 0x15, 0xa0, 0xbd, 0xc7, 0x33, 0xa9, 0xbe,
  0x24, 0x0b, 0xa7, 0x3d, 0xdb, 0x47, 0x15, 0xbf, 0x1a, 0xfd, 0xb1, 0xbc,
  0x85, 0x1b, 0x80, 0x3e, 0x88, 0x21, 0xad, 0xbd, 0x4c, 0xa7, 0x95, 0x3d,
  0x41, 0xb6, 0xe4, 0xbe, 0x98, 0xc9, 0x52, 0x3e, 0xca, 0x2b, 0xb4, 0xbe,
  0x77, 0xf4, 0xb6, 0xbe, 0xd8, 0x50, 0xce, 0x3c, 0xc7, 0x64, 0xeb, 0xba,
  0x3b, 0x1e, 0x84, 0x3e, 0x68, 0xcb, 0xef, 0x3d, 0xa5, 0x00, 0xe0, 0x3c,
  0xfd, 0x91, 0x04, 0xbf, 0xae, 0x50, 0x20, 0x3e, 0x53, 0x88, 0x27, 0xbf,
  0x5c, 0x85, 0xa1, 0x3c, 0xcf, 0x2f, 0x0d, 0x3d, 0x49, 0xbe, 0x2b, 0xbc,
  0xee, 0x33, 0x60, 0x3d, 0x26, 0x84, 0x9e, 0xbe, 0x79, 0x8a, 0xd6, 0x3e,
  0x91, 0x72, 0xe8, 0xbe, 0x9d, 0x49, 0xa9, 0x3d, 0xa8, 0x1b, 0xf3, 0x3c,
  0xee, 0x9f, 0xfd, 0x3d, 0xbc, 0x04, 0x80, 0x3d, 0x41, 0xb8, 0x0a, 0xbc,
  0x66, 0x74, 0x98, 0x3c, 0x85, 0x18, 0x08, 0xbe, 0x0d, 0xc8, 0x97, 0x3d,
  0xc6, 0x04, 0xf4, 0xbe, 0x41, 0x35, 0x27, 0x3d, 0x9e, 0x26, 0xb2, 0xbb,
  0xf6, 0x1f, 0x25, 0x3d, 0x06, 0xa5, 0x41, 0xbd, 0xc3, 0x50, 0x06, 0xbe,
  0xf6, 0x5d, 0xd2, 0x3c, 0x74, 0xa9, 0x92, 0xbe, 0x53, 0x0b, 0xa4, 0xbd,
  0xe1, 0x28, 0x0c, 0x3e, 0xcc, 0x2a, 0x80, 0x3d, 0x16, 0xe2, 0x7c, 0x3e,
  0x3a, 0x77, 0x89, 0x3e, 0xf6, 0x24, 0x88, 0xbc, 0x76, 0x4d, 0xd3, 0xbd,
  0x12, 0x14, 0x0d, 0xbe, 0xcb, 0x84, 0x96, 0xbe, 0xea, 0xc1, 0x3a, 0xbe,
  0x02, 0x6d, 0x46, 0x3d, 0xee, 0xb4, 0x4b, 0xbe, 0xe1, 0x79, 0x4f, 0x3d,
  0x87, 0x6d, 0x18, 0xbe, 0x0f, 0x27, 0x3c, 0xbe, 0x99, 0xc5, 0x95, 0xbd,
  0x16, 0xe7, 0x92, 0xbe, 0x48, 0x85, 0x61, 0xbc, 0xc4, 0xfa, 0xcb, 0x3b,
  0x56, 0xc6, 0xfb, 0x3f, 0x5c, 0x1a, 0x8a, 0x3e, 0xcf, 0x6f, 0x6f, 0x3d,
  0x50, 0xb1, 0xa2, 0xbc, 0x13, 0xd9, 0x15, 0xbe, 0xea, 0x03, 0xfe, 0x3d,
  0x41, 0x93, 0xd2, 0xbe, 0x04, 0x25, 0x02, 0x3d, 0xa9, 0x6b, 0xd3, 0xbd,
  0xdd, 0x5b, 0x0e, 0x3e, 0x67, 0x73, 0xa8, 0x3d, 0x03, 0x0e, 0x88, 0xbe,
  0x04, 0x57, 0x0b, 0x3f, 0x0c, 0x66, 0x0b, 0xbc, 0xe7, 0x48, 0x1d, 0x3d,
  0x06, 0xd1, 0x65, 0xbe, 0x74, 0x49, 0xe5, 0x3f, 0xbf, 0x2f, 0xbd, 0x3e,
  0x52, 0xe5, 0x99, 0xbe, 0x13, 0x3d, 0x2b, 0xbe, 0x8c, 0x0c, 0x45, 0x3d,
  0x4b, 0xdf, 0x21, 0xbe, 0xc0, 0xac, 0xb5, 0xbe, 0x51, 0x47, 0x42, 0x3d,
  0x8e, 0xf3, 0x4a, 0xbe, 0x07, 0xea, 0x22, 0xbc, 0xc6, 0x69, 0x5f, 0xbe,
  0x02, 0xeb, 0x70, 0x3c, 0xa9, 0x06, 0x16, 0x3f, 0x4d, 0xb6, 0x96, 0xbd,
  0xb7, 0x89, 0x81, 0x3d, 0xae, 0x59, 0xda, 0xbd, 0x38, 0x75, 0x70, 0x3f,
  0x97, 0x5f, 0xaf, 0x3e, 0xc8, 0x66, 0x33, 0xbe, 0xce, 0x41, 0xea, 0xbd,
  0x16, 0xad, 0x9d, 0x3d, 0xe6, 0xb5, 0xb3, 0x3d, 0x80, 0xe8, 0xaf, 0xbe,
  0x98, 0x67, 0x08, 0x3e, 0x55, 0x59, 0xb7, 0xbd, 0xa3, 0x14, 0xf2, 0xbd,
  0x2d, 0x16, 0x57, 0xbe, 0x8a, 0x17, 0x86, 0x3d, 0x6e, 0xd9, 0xd9, 0x3e,
  0x0c, 0x8f, 0x04, 0x3d, 0x82, 0xae, 0x0b, 0x3d, 0xec, 0xa5, 0x1a, 0xbd,
  0xa1, 0xd1, 0xe2, 0x3f, 0xad, 0x94, 0x24, 0x3e, 0x9d, 0xe4, 0x09, 0xbe,
  0xab, 0x0c, 0x4f, 0xbe, 0x6a, 0x90, 0x18, 0xbd, 0xb0, 0x4d, 0x14, 0x3e,
  0xc5, 0x5b, 0x56, 0xbe, 0xad, 0xa2, 0xd2, 0x3c, 0x98, 0xa1, 0x8c, 0xbd,
  0x63, 0xab, 0x66, 0xbd, 0x8a, 0x1b, 0x6a, 0x3d, 0x97, 0x0d, 0x0f, 0xbe,
  0xc0, 0xc1, 0x60, 0x3e, 0x84, 0x4f, 0xd4, 0xbb, 0x94, 0xd2, 0x80, 0x3d,
  0x11, 0xc0, 0x70, 0x3d, 0xa7, 0xbc, 0x50, 0x3f, 0x6c, 0x40, 0x58, 0x3d,
  0x9e, 0x98, 0x85, 0xbd, 0x45, 0x8e, 0x7c, 0x3c, 0x27, 0xd8, 0x1e, 0xbe,
  0xad, 0x8c, 0x71, 0xbe, 0xe9, 0x0f, 0x2a, 0xbe, 0x25, 0xaa, 0x81, 0xbd,
  0x15, 0xe6, 0xba, 0xbd, 0xd5, 0xb1, 0xdd, 0xbc, 0xde, 0x6c, 0x09, 0xbd,
  0xef, 0xf2, 0x17, 0x3d, 0x48, 0x75, 0x80, 0x3e, 0x57, 0xca, 0xfd, 0x3d,
  0xff, 0x0b, 0xd1, 0xbc, 0xd4, 0x53, 0x4b, 0xbe, 0x90, 0xdd, 0x7f, 0x3f,
  0x98, 0xc9, 0xc3, 0x3e, 0x05, 0x5b, 0x6f, 0x3d, 0x01, 0x0d, 0x03, 0x3d,
  0xe9, 0x28, 0xad, 0x3d, 0x39, 0x17, 0x48, 0xbe, 0x3c, 0xb5, 0x2b, 0xbe,
  0xd1, 0x54, 0x16, 0xbe, 0x55, 0xde, 0x47, 0xbd, 0x89, 0xbd, 0x43, 0xbe,
  0x63, 0x8c, 0x9b, 0xbe, 0x27, 0xdb, 0x8b, 0xbe, 0x2b, 0xb7, 0xbc, 0x3e,
  0x51, 0x78, 0x48, 0xbe, 0x98, 0xa4, 0x3e, 0x3d, 0xf4, 0x48, 0xb6, 0xbe,
  0xda, 0xe8, 0xf1, 0x3f, 0x18, 0x36, 0xc6, 0x3e, 0x18, 0x54, 0xfb, 0x3d,
  0x20, 0x90, 0xac, 0xbc, 0xe3, 0x1c, 0x0e, 0x3c, 0x92, 0xc8, 0x43, 0xbc,
  0x66, 0xfd, 0xff, 0xff, 0x10, 0x00, 0x00, 0x00, 0x07, 0x00, 0x00, 0x00,
  0x14, 0x00, 0x00, 0x00, 0x2c, 0x00, 0x00, 0x00, 0x02, 0x00, 0x00, 0x00,
  0x10, 0x00, 0x00, 0x00, 0x70, 0x00, 0x00, 0x00, 0x17, 0x00, 0x00, 0x00,
  0x73, 0x65, 0x71, 0x75, 0x65, 0x6e, 0x74, 0x69, 0x61, 0x6c, 0x2f, 0x64,
  0x65, 0x6e, 0x73, 0x65, 0x2f, 0x4d, 0x61, 0x74, 0x4d, 0x75, 0x6c, 0x00,
  0xd0, 0xfc, 0xff, 0xff, 0xda, 0xfd, 0xff, 0xff, 0x04, 0x00, 0x00, 0x00,
  0x08, 0x00, 0x00, 0x00, 0xff, 0xff, 0xff, 0xff, 0x70, 0x00, 0x00, 0x00,
  0x00, 0x00, 0x0e, 0x00, 0x18, 0x00, 0x08, 0x00, 0x07, 0x00, 0x0c, 0x00,
  0x10, 0x00, 0x14, 0x00, 0x0e, 0x00, 0x00, 0x00, 0x00, 0x00, 0x00, 0x02,
  0x10, 0x00, 0x00, 0x00, 0x06, 0x00, 0x00, 0x00, 0x10, 0x00, 0x00, 0x00,
  0x2c, 0x00, 0x00, 0x00, 0x01, 0x00, 0x00, 0x00, 0x02, 0x00, 0x00, 0x00,
  0x18, 0x00, 0x00, 0x00, 0x73, 0x65, 0x71, 0x75, 0x65, 0x6e, 0x74, 0x69,
  0x61, 0x6c, 0x2f, 0x66, 0x6c, 0x61, 0x74, 0x74, 0x65, 0x6e, 0x2f, 0x43,
  0x6f, 0x6e, 0x73, 0x74, 0x00, 0x00, 0x00, 0x00, 0x38, 0xfd, 0xff, 0xff,
  0x42, 0xfe, 0xff, 0xff, 0x04, 0x00, 0x00, 0x00, 0x0c, 0x00, 0x00, 0x00,
  0xb8, 0xe3, 0xdc, 0xbf, 0x66, 0x40, 0xcd, 0x3f, 0x1e, 0xab, 0x19, 0xbf,
  0x26, 0xfe, 0xff, 0xff, 0x10, 0x00, 0x00, 0x00, 0x05, 0x00, 0x00, 0x00,
  0x10, 0x00, 0x00, 0x00, 0x44, 0x00, 0x00, 0x00, 0x01, 0x00, 0x00, 0x00,
  0x03, 0x00, 0x00, 0x00, 0x32, 0x00, 0x00, 0x00, 0x73, 0x65, 0x71, 0x75,
  0x65, 0x6e, 0x74, 0x69, 0x61, 0x6c, 0x2f, 0x64, 0x65, 0x6e, 0x73, 0x65,
  0x5f, 0x31, 0x2f, 0x42, 0x69, 0x61, 0x73, 0x41, 0x64, 0x64, 0x2f, 0x52,
  0x65, 0x61, 0x64, 0x56, 0x61, 0x72, 0x69, 0x61, 0x62, 0x6c, 0x65, 0x4f,
  0x70, 0x2f, 0x72, 0x65, 0x73, 0x6f, 0x75, 0x72, 0x63, 0x65, 0x00, 0x00,
  0xa8, 0xfd, 0xff, 0xff, 0xb2, 0xfe, 0xff, 0xff, 0x04, 0x00, 0x00, 0x00,
  0x40, 0x00, 0x00, 0x00, 0x4d, 0x5b, 0x42, 0x40, 0x46, 0xf9, 0x56, 0xbe,
  0xa3, 0x8c, 0x22, 0xbe, 0x48, 0xc2, 0x93, 0x3e, 0x9b, 0xef, 0x8b, 0x3e,
  0x54, 0x25, 0x09, 0x3e, 0xf0, 0x2c, 0x5a, 0x40, 0xe3, 0xc6, 0x0d, 0xc0,
  0x23, 0x5b, 0x55, 0xbf, 0xee, 0xf7, 0x3d, 0xbf, 0x04, 0xe5, 0x97, 0x3d,
  0xfe, 0xec, 0x96, 0x3e, 0x15, 0x97, 0xae, 0x3e, 0x6e, 0xb6, 0x94, 0x40,
  0x92, 0x10, 0x29, 0x3d, 0x32, 0x6c, 0xa3, 0x3e, 0xca, 0xfe, 0xff, 0xff,
  0x10, 0x00, 0x00, 0x00, 0x04, 0x00, 0x00, 0x00, 0x10, 0x00, 0x00, 0x00,
  0x44, 0x00, 0x00, 0x00, 0x01, 0x00, 0x00, 0x00, 0x10, 0x00, 0x00, 0x00,
  0x30, 0x00, 0x00, 0x00, 0x73, 0x65, 0x71, 0x75, 0x65, 0x6e, 0x74, 0x69,
  0x61, 0x6c, 0x2f, 0x64, 0x65, 0x6e, 0x73, 0x65, 0x2f, 0x42, 0x69, 0x61,
  0x73, 0x41, 0x64, 0x64, 0x2f, 0x52, 0x65, 0x61, 0x64, 0x56, 0x61, 0x72,
  0x69, 0x61, 0x62, 0x6c, 0x65, 0x4f, 0x70, 0x2f, 0x72, 0x65, 0x73, 0x6f,
  0x75, 0x72, 0x63, 0x65, 0x00, 0x00, 0x00, 0x00, 0x4c, 0xfe, 0xff, 0xff,
  0x56, 0xff, 0xff, 0xff, 0x04, 0x00, 0x00, 0x00, 0x40, 0x00, 0x00, 0x00,
  0x9f, 0xb7, 0x1c, 0x40, 0x89, 0x56, 0x3e, 0xc0, 0xc8, 0xfa, 0x32, 0xc0,
  0x17, 0xbc, 0x11, 0xc0, 0xad, 0x7e, 0x20, 0xc0, 0x01, 0x21, 0xc7, 0xbf,
  0x58, 0x8b, 0x7e, 0x3f, 0xeb, 0x5b, 0x96, 0x3e, 0x1b, 0x77, 0xf9, 0x3f,
  0x82, 0x81, 0x84, 0xbf, 0x15, 0xdd, 0xe6, 0x3f, 0xda, 0x13, 0x94, 0x3f,
  0xfa, 0x88, 0x21, 0x40, 0x34, 0xfc, 0x88, 0xbf, 0x06, 0xee, 0xef, 0x3f,
  0x94, 0x02, 0x8e, 0xbf, 0x6e, 0xff, 0xff, 0xff, 0x10, 0x00, 0x00, 0x00,
  0x03, 0x00, 0x00, 0x00, 0x10, 0x00, 0x00, 0x00, 0x48, 0x00, 0x00, 0x00,
  0x01, 0x00, 0x00, 0x00, 0x10, 0x00, 0x00, 0x00, 0x33, 0x00, 0x00, 0x00,
  0x73, 0x65, 0x71, 0x75, 0x65, 0x6e, 0x74, 0x69, 0x61, 0x6c, 0x2f, 0x63,
  0x6f, 0x6e, 0x76, 0x32, 0x64, 0x5f, 0x31, 0x2f, 0x42, 0x69, 0x61, 0x73,
  0x41, 0x64, 0x64, 0x2f, 0x52, 0x65, 0x61, 0x64, 0x56, 0x61, 0x72, 0x69,
  0x61, 0x62, 0x6c, 0x65, 0x4f, 0x70, 0x2f, 0x72, 0x65, 0x73, 0x6f, 0x75,
  0x72, 0x63, 0x65, 0x00, 0x04, 0x00, 0x06, 0x00, 0x04, 0x00, 0x00, 0x00,
  0x00, 0x00, 0x06, 0x00, 0x08, 0x00, 0x04, 0x00, 0x06, 0x00, 0x00, 0x00,
  0x04, 0x00, 0x00, 0x00, 0x20, 0x00, 0x00, 0x00, 0x4e, 0x33, 0x19, 0xc0,
  0xc2, 0x47, 0xf6, 0x3e, 0x61, 0xc4, 0x9b, 0xbf, 0xb0, 0xc6, 0xad, 0xbf,
  0x43, 0x40, 0x59, 0xc0, 0x00, 0x81, 0x5b, 0x3f, 0x22, 0x23, 0x83, 0xc0,
  0x33, 0xb2, 0xe8, 0x3f, 0x00, 0x00, 0x0e, 0x00, 0x14, 0x00, 0x04, 0x00,
  0x00, 0x00, 0x08, 0x00, 0x0c, 0x00, 0x10, 0x00, 0x0e, 0x00, 0x00, 0x00,
  0x10, 0x00, 0x00, 0x00, 0x02, 0x00, 0x00, 0x00, 0x10, 0x00, 0x00, 0x00,
  0x44, 0x00, 0x00, 0x00, 0x01, 0x00, 0x00, 0x00, 0x08, 0x00, 0x00, 0x00,
  0x31, 0x00, 0x00, 0x00, 0x73, 0x65, 0x71, 0x75, 0x65, 0x6e, 0x74, 0x69,
  0x61, 0x6c, 0x2f, 0x63, 0x6f, 0x6e, 0x76, 0x32, 0x64, 0x2f, 0x42, 0x69,
  0x61, 0x73, 0x41, 0x64, 0x64, 0x2f, 0x52, 0x65, 0x61, 0x64, 0x56, 0x61,
  0x72, 0x69, 0x61, 0x62, 0x6c, 0x65, 0x4f, 0x70, 0x2f, 0x72, 0x65, 0x73,
  0x6f, 0x75, 0x72, 0x63, 0x65, 0x00, 0x00, 0x00, 0x90, 0xff, 0xff, 0xff,
  0x14, 0x00, 0x18, 0x00, 0x04, 0x00, 0x00, 0x00, 0x08, 0x00, 0x0c, 0x00,
  0x10, 0x00, 0x00, 0x00, 0x00, 0x00, 0x14, 0x00, 0x14, 0x00, 0x00, 0x00,
  0x14, 0x00, 0x00, 0x00, 0x01, 0x00, 0x00, 0x00, 0x20, 0x00, 0x00, 0x00,
  0x44, 0x00, 0x00, 0x00, 0x2c, 0x00, 0x00, 0x00, 0x04, 0x00, 0x00, 0x00,
  0x01, 0x00, 0x00, 0x00, 0x40, 0x00, 0x00, 0x00, 0x03, 0x00, 0x00, 0x00,
  0x01, 0x00, 0x00, 0x00, 0x0c, 0x00, 0x00, 0x00, 0x63, 0x6f, 0x6e, 0x76,
  0x32, 0x64, 0x5f, 0x69, 0x6e, 0x70, 0x75, 0x74, 0x00, 0x00, 0x00, 0x00,
  0x04, 0x00, 0x00, 0x00, 0xff, 0xff, 0xff, 0xff, 0x40, 0x00, 0x00, 0x00,
  0x03, 0x00, 0x00, 0x00, 0x01, 0x00, 0x00, 0x00, 0xfc, 0xff, 0xff, 0xff,
  0x04, 0x00, 0x04, 0x00, 0x04, 0x00, 0x00, 0x00
};
unsigned int model_tflite_len = 13052;

