#include "magic_wand_model_data.h"


// We need to keep the data array aligned on some architectures.

#ifdef __has_attribute

#define HAVE_ATTRIBUTE(x) __has_attribute(x)

#else

#define HAVE_ATTRIBUTE(x) 0

#endif

#if HAVE_ATTRIBUTE(aligned) || (defined(__GNUC__) && !defined(__clang__))

#define DATA_ALIGN_ATTRIBUTE __attribute__((aligned(4)))

#else

#define DATA_ALIGN_ATTRIBUTE

#endif

const unsigned char g_magic_wand_model_data[] = {
  0x1c, 0x00, 0x00, 0x00, 0x54, 0x46, 0x4c, 0x33, 0x14, 0x00, 0x20, 0x00,
  0x04, 0x00, 0x08, 0x00, 0x0c, 0x00, 0x10, 0x00, 0x14, 0x00, 0x00, 0x00,
  0x18, 0x00, 0x1c, 0x00, 0x14, 0x00, 0x00, 0x00, 0x03, 0x00, 0x00, 0x00,
  0x18, 0x00, 0x00, 0x00, 0x2c, 0x00, 0x00, 0x00, 0xd8, 0x00, 0x00, 0x00,
  0x2c, 0x00, 0x00, 0x00, 0x80, 0x00, 0x00, 0x00, 0x78, 0x00, 0x00, 0x00,
  0x05, 0x00, 0x00, 0x00, 0x28, 0x07, 0x00, 0x00, 0x44, 0x06, 0x00, 0x00,
  0xbc, 0x03, 0x00, 0x00, 0xf8, 0x02, 0x00, 0x00, 0xac, 0x01, 0x00, 0x00,
  0x01, 0x00, 0x00, 0x00, 0xd0, 0x00, 0x00, 0x00, 0x14, 0x00, 0x00, 0x00,
  0x98, 0x32, 0x00, 0x00, 0x94, 0x32, 0x00, 0x00, 0x8c, 0x31, 0x00, 0x00,
  0xd8, 0x30, 0x00, 0x00, 0x30, 0x30, 0x00, 0x00, 0xbc, 0x2f, 0x00, 0x00,
  0x50, 0x2f, 0x00, 0x00, 0x00, 0x13, 0x00, 0x00, 0xec, 0x11, 0x00, 0x00,
  0x10, 0x10, 0x00, 0x00, 0xb4, 0x07, 0x00, 0x00, 0x6c, 0x32, 0x00, 0x00,
  0x68, 0x32, 0x00, 0x00, 0x64, 0x32, 0x00, 0x00, 0x60, 0x32, 0x00, 0x00,
  0x5c, 0x32, 0x00, 0x00, 0x58, 0x32, 0x00, 0x00, 0x54, 0x32, 0x00, 0x00,
  0x50, 0x32, 0x00, 0x00, 0x3c, 0x00, 0x00, 0x00, 0x00, 0x00, 0x00, 0x00,
  0x01, 0x00, 0x00, 0x00, 0x0c, 0x00, 0x00, 0x00, 0x08, 0x00, 0x0c, 0x00,
  0x04, 0x00, 0x08, 0x00, 0x08, 0x00, 0x00, 0x00, 0x08, 0x00, 0x00, 0x00,
  0x13, 0x00, 0x00, 0x00, 0x13, 0x00, 0x00, 0x00, 0x6d, 0x69, 0x6e, 0x5f,
  0x72, 0x75, 0x6e, 0x74, 0x69, 0x6d, 0x65, 0x5f, 0x76, 0x65, 0x72, 0x73,
  0x69, 0x6f, 0x6e, 0x00, 0xfa, 0xce, 0xff, 0xff, 0x04, 0x00, 0x00, 0x00,
  0x10, 0x00, 0x00, 0x00, 0x31, 0x2e, 0x35, 0x2e, 0x30, 0x00, 0x00, 0x00,
  0x00, 0x00, 0x00, 0x00, 0x00, 0x00, 0x00, 0x00, 0x0f, 0x00, 0x00, 0x00,
  0x4d, 0x4c, 0x49, 0x52, 0x20, 0x43, 0x6f, 0x6e, 0x76, 0x65, 0x72, 0x74,
  0x65, 0x64, 0x2e, 0x00, 0x00, 0x00, 0x0e, 0x00, 0x18, 0x00, 0x04, 0x00,
  0x08, 0x00, 0x0c, 0x00, 0x10, 0x00, 0x14, 0x00, 0x0e, 0x00, 0x00, 0x00,
  0x14, 0x00, 0x00, 0x00, 0x5c, 0x00, 0x00, 0x00, 0x60, 0x00, 0x00, 0x00,
  0x64, 0x00, 0x00, 0x00, 0x84, 0x00, 0x00, 0x00, 0x12, 0x00, 0x00, 0x00,
  0x58, 0x31, 0x00, 0x00, 0xe8, 0x30, 0x00, 0x00, 0x44, 0x30, 0x00, 0x00,
  0x9c, 0x2f, 0x00, 0x00, 0xf4, 0x2e, 0x00, 0x00, 0x94, 0x2e, 0x00, 0x00,
  0x2c, 0x2e, 0x00, 0x00, 0xd8, 0x11, 0x00, 0x00, 0xbc, 0x10, 0x00, 0x00,
  0xe0, 0x0e, 0x00, 0x00, 0x0c, 0x06, 0x00, 0x00, 0x28, 0x05, 0x00, 0x00,
  0xe8, 0x03, 0x00, 0x00, 0x3c, 0x03, 0x00, 0x00, 0x98, 0x02, 0x00, 0x00,
  0xd4, 0x01, 0x00, 0x00, 0x10, 0x01, 0x00, 0x00, 0x84, 0x00, 0x00, 0x00,
  0x01, 0x00, 0x00, 0x00, 0x00, 0x00, 0x00, 0x00, 0x01, 0x00, 0x00, 0x00,
  0x11, 0x00, 0x00, 0x00, 0x08, 0x00, 0x00, 0x00, 0x74, 0x05, 0x00, 0x00,
  0x94, 0x04, 0x00, 0x00, 0x78, 0x03, 0x00, 0x00, 0xbc, 0x02, 0x00, 0x00,
  0x30, 0x02, 0x00, 0x00, 0x50, 0x01, 0x00, 0x00, 0xa8, 0x00, 0x00, 0x00,
  0x10, 0x00, 0x00, 0x00, 0x04, 0x00, 0x00, 0x00, 0x6d, 0x61, 0x69, 0x6e,
  0x00, 0x00, 0x00, 0x00, 0x7a, 0xff, 0xff, 0xff, 0x00, 0x00, 0x00, 0x09,
  0x04, 0x00, 0x00, 0x00, 0x1c, 0x00, 0x00, 0x00, 0x10, 0x00, 0x00, 0x00,
  0x04, 0x00, 0x00, 0x00, 0xf6, 0xcf, 0xff, 0xff, 0x00, 0x00, 0x80, 0x3f,
  0x01, 0x00, 0x00, 0x00, 0x11, 0x00, 0x00, 0x00, 0x01, 0x00, 0x00, 0x00,
  0x10, 0x00, 0x00, 0x00, 0xa0, 0xfa, 0xff, 0xff, 0x19, 0x00, 0x00, 0x00,
  0x00, 0x00, 0x00, 0x19, 0x01, 0x00, 0x00, 0x00, 0x84, 0xcf, 0xff, 0xff,
  0x14, 0x00, 0x00, 0x00, 0x12, 0x00, 0x00, 0x00, 0x18, 0x00, 0x00, 0x00,
  0x30, 0x00, 0x00, 0x00, 0x20, 0x00, 0x00, 0x00, 0x02, 0x00, 0x00, 0x00,
  0x01, 0x00, 0x00, 0x00, 0x03, 0x00, 0x00, 0x00, 0x08, 0x00, 0x00, 0x00,
  0x49, 0x64, 0x65, 0x6e, 0x74, 0x69, 0x74, 0x79, 0x00, 0x00, 0x00, 0x00,
  0x02, 0x00, 0x00, 0x00, 0xff, 0xff, 0xff, 0xff, 0x03, 0x00, 0x00, 0x00,
  0x68, 0xd0, 0xff, 0xff, 0x00, 0x00, 0x0e, 0x00, 0x18, 0x00, 0x08, 0x00,
  0x0c, 0x00, 0x10, 0x00, 0x07, 0x00, 0x14, 0x00, 0x0e, 0x00, 0x00, 0x00,
  0x00, 0x00, 0x00, 0x08, 0x03, 0x00, 0x00, 0x00, 0x18, 0x00, 0x00, 0x00,
  0x0c, 0x00, 0x00, 0x00, 0x04, 0x00, 0x00, 0x00, 0x84, 0xcf, 0xff, 0xff,
  0x01, 0x00, 0x00, 0x00, 0x10, 0x00, 0x00, 0x00, 0x03, 0x00, 0x00, 0x00,
  0x0f, 0x00, 0x00, 0x00, 0x07, 0x00, 0x00, 0x00, 0x04, 0x00, 0x00, 0x00,
  0x0c, 0xd0, 0xff, 0xff, 0x14, 0x00, 0x00, 0x00, 0x11, 0x00, 0x00, 0x00,
  0x18, 0x00, 0x00, 0x00, 0x5c, 0x00, 0x00, 0x00, 0x4c, 0x00, 0x00, 0x00,
  0x02, 0x00, 0x00, 0x00, 0x01, 0x00, 0x00, 0x00, 0x03, 0x00, 0x00, 0x00,
  0x34, 0x00, 0x00, 0x00, 0x73, 0x65, 0x71, 0x75, 0x65, 0x6e, 0x74, 0x69,
  0x61, 0x6c, 0x2f, 0x64, 0x65, 0x6e, 0x73, 0x65, 0x5f, 0x31, 0x2f, 0x4d,
  0x61, 0x74, 0x4d, 0x75, 0x6c, 0x3b, 0x73, 0x65, 0x71, 0x75, 0x65, 0x6e,
  0x74, 0x69, 0x61, 0x6c, 0x2f, 0x64, 0x65, 0x6e, 0x73, 0x65, 0x5f, 0x31,
  0x2f, 0x42, 0x69, 0x61, 0x73, 0x41, 0x64, 0x64, 0x00, 0x00, 0x00, 0x00,
  0x02, 0x00, 0x00, 0x00, 0xff, 0xff, 0xff, 0xff, 0x03, 0x00, 0x00, 0x00,
  0x0c, 0xd0, 0xff, 0xff, 0xda, 0xfc, 0xff, 0xff, 0x00, 0x00, 0x00, 0x08,
  0x03, 0x00, 0x00, 0x00, 0x24, 0x00, 0x00, 0x00, 0x18, 0x00, 0x00, 0x00,
  0x0c, 0x00, 0x00, 0x00, 0x00, 0x00, 0x06, 0x00, 0x08, 0x00, 0x07, 0x00,
  0x06, 0x00, 0x00, 0x00, 0x00, 0x00, 0x00, 0x01, 0x01, 0x00, 0x00, 0x00,
  0x0f, 0x00, 0x00, 0x00, 0x03, 0x00, 0x00, 0x00, 0x0e, 0x00, 0x00, 0x00,
  0x06, 0x00, 0x00, 0x00, 0x03, 0x00, 0x00, 0x00, 0xe8, 0xfb, 0xff, 0xff,
  0x09, 0x00, 0x00, 0x00, 0x00, 0x00, 0x00, 0x09, 0x01, 0x00, 0x00, 0x00,
  0xcc, 0xd0, 0xff, 0xff, 0x14, 0x00, 0x00, 0x00, 0x10, 0x00, 0x00, 0x00,
  0x18, 0x00, 0x00, 0x00, 0x6c, 0x00, 0x00, 0x00, 0x5c, 0x00, 0x00, 0x00,
  0x02, 0x00, 0x00, 0x00, 0x01, 0x00, 0x00, 0x00, 0x10, 0x00, 0x00, 0x00,
  0x46, 0x00, 0x00, 0x00, 0x73, 0x65, 0x71, 0x75, 0x65, 0x6e, 0x74, 0x69,
  0x61, 0x6c, 0x2f, 0x64, 0x65, 0x6e, 0x73, 0x65, 0x2f, 0x4d, 0x61, 0x74,
  0x4d, 0x75, 0x6c, 0x3b, 0x73, 0x65, 0x71, 0x75, 0x65, 0x6e, 0x74, 0x69,
  0x61, 0x6c, 0x2f, 0x64, 0x65, 0x6e, 0x73, 0x65, 0x2f, 0x52, 0x65, 0x6c,
  0x75, 0x3b, 0x73, 0x65, 0x71, 0x75, 0x65, 0x6e, 0x74, 0x69, 0x61, 0x6c,
  0x2f, 0x64, 0x65, 0x6e, 0x73, 0x65, 0x2f, 0x42, 0x69, 0x61, 0x73, 0x41,
  0x64, 0x64, 0x00, 0x00, 0x02, 0x00, 0x00, 0x00, 0xff, 0xff, 0xff, 0xff,
  0x10, 0x00, 0x00, 0x00, 0xec, 0xd1, 0xff, 0xff, 0x00, 0x00, 0x0a, 0x00,
  0x10, 0x00, 0x04, 0x00, 0x08, 0x00, 0x0c, 0x00, 0x0a, 0x00, 0x00, 0x00,
  0x02, 0x00, 0x00, 0x00, 0x10, 0x00, 0x00, 0x00, 0x04, 0x00, 0x00, 0x00,
  0x01, 0x00, 0x00, 0x00, 0x0e, 0x00, 0x00, 0x00, 0x02, 0x00, 0x00, 0x00,
  0x0d, 0x00, 0x00, 0x00, 0x05, 0x00, 0x00, 0x00, 0xa8, 0xfc, 0xff, 0xff,
  0x16, 0x00, 0x00, 0x00, 0x00, 0x00, 0x00, 0x16, 0x01, 0x00, 0x00, 0x00,
  0x8c, 0xd1, 0xff, 0xff, 0x14, 0x00, 0x00, 0x00, 0x0f, 0x00, 0x00, 0x00,
  0x18, 0x00, 0x00, 0x00, 0x40, 0x00, 0x00, 0x00, 0x30, 0x00, 0x00, 0x00,
  0x02, 0x00, 0x00, 0x00, 0x01, 0x00, 0x00, 0x00, 0x70, 0x00, 0x00, 0x00,
  0x1a, 0x00, 0x00, 0x00, 0x73, 0x65, 0x71, 0x75, 0x65, 0x6e, 0x74, 0x69,
  0x61, 0x6c, 0x2f, 0x66, 0x6c, 0x61, 0x74, 0x74, 0x65, 0x6e, 0x2f, 0x52,
  0x65, 0x73, 0x68, 0x61, 0x70, 0x65, 0x00, 0x00, 0x02, 0x00, 0x00, 0x00,
  0xff, 0xff, 0xff, 0xff, 0x70, 0x00, 0x00, 0x00, 0x70, 0xd1, 0xff, 0xff,
  0x3e, 0xfe, 0xff, 0xff, 0x00, 0x00, 0x00, 0x05, 0x01, 0x00, 0x00, 0x00,
  0x38, 0x00, 0x00, 0x00, 0x2c, 0x00, 0x00, 0x00, 0x14, 0x00, 0x00, 0x00,
  0x00, 0x00, 0x0e, 0x00, 0x14, 0x00, 0x00, 0x00, 0x10, 0x00, 0x0c, 0x00,
  0x08, 0x00, 0x04, 0x00, 0x0e, 0x00, 0x00, 0x00, 0x03, 0x00, 0x00, 0x00,
  0x01, 0x00, 0x00, 0x00, 0x03, 0x00, 0x00, 0x00, 0x01, 0x00, 0x00, 0x00,
  0x01, 0x00, 0x00, 0x00, 0x0d, 0x00, 0x00, 0x00, 0x01, 0x00, 0x00, 0x00,
  0x0c, 0x00, 0x00, 0x00, 0x2c, 0xd2, 0xff, 0xff, 0x14, 0x00, 0x00, 0x00,
  0x0e, 0x00, 0x00, 0x00, 0x20, 0x00, 0x00, 0x00, 0x58, 0x00, 0x00, 0x00,
  0x40, 0x00, 0x00, 0x00, 0x04, 0x00, 0x00, 0x00, 0x01, 0x00, 0x00, 0x00,
  0x07, 0x00, 0x00, 0x00, 0x01, 0x00, 0x00, 0x00, 0x10, 0x00, 0x00, 0x00,
  0x22, 0x00, 0x00, 0x00, 0x73, 0x65, 0x71, 0x75, 0x65, 0x6e, 0x74, 0x69,
  0x61, 0x6c, 0x2f, 0x6d, 0x61, 0x78, 0x5f, 0x70, 0x6f, 0x6f, 0x6c, 0x69,
  0x6e, 0x67, 0x32, 0x64, 0x5f, 0x31, 0x2f, 0x4d, 0x61, 0x78, 0x50, 0x6f,
  0x6f, 0x6c, 0x00, 0x00, 0x04, 0x00, 0x00, 0x00, 0xff, 0xff, 0xff, 0xff,
  0x07, 0x00, 0x00, 0x00, 0x01, 0x00, 0x00, 0x00, 0x10, 0x00, 0x00, 0x00,
  0x28, 0xd2, 0xff, 0xff, 0x1a, 0xfe, 0xff, 0xff, 0x00, 0x00, 0x00, 0x01,
  0x24, 0x00, 0x00, 0x00, 0x18, 0x00, 0x00, 0x00, 0x04, 0x00, 0x00, 0x00,
  0x0c, 0xfe, 0xff, 0xff, 0x01, 0x00, 0x00, 0x00, 0x01, 0x00, 0x00, 0x00,
  0x00, 0x00, 0x00, 0x01, 0x01, 0x00, 0x00, 0x00, 0x0c, 0x00, 0x00, 0x00,
  0x03, 0x00, 0x00, 0x00, 0x0b, 0x00, 0x00, 0x00, 0x09, 0x00, 0x00, 0x00,
  0x02, 0x00, 0x00, 0x00, 0xd4, 0xd2, 0xff, 0xff, 0x14, 0x00, 0x00, 0x00,
  0x0d, 0x00, 0x00, 0x00, 0x20, 0x00, 0x00, 0x00, 0xb8, 0x00, 0x00, 0x00,
  0xa0, 0x00, 0x00, 0x00, 0x04, 0x00, 0x00, 0x00, 0x01, 0x00, 0x00, 0x00,
  0x15, 0x00, 0x00, 0x00, 0x01, 0x00, 0x00, 0x00, 0x10, 0x00, 0x00, 0x00,
  0x83, 0x00, 0x00, 0x00, 0x73, 0x65, 0x71, 0x75, 0x65, 0x6e, 0x74, 0x69,
  0x61, 0x6c, 0x2f, 0x63, 0x6f, 0x6e, 0x76, 0x32, 0x64, 0x5f, 0x31, 0x2f,
  0x52, 0x65, 0x6c, 0x75, 0x3b, 0x73, 0x65, 0x71, 0x75, 0x65, 0x6e, 0x74,
  0x69, 0x61, 0x6c, 0x2f, 0x63, 0x6f, 0x6e, 0x76, 0x32, 0x64, 0x5f, 0x31,
  0x2f, 0x42, 0x69, 0x61, 0x73, 0x41, 0x64, 0x64, 0x3b, 0x73, 0x65, 0x71,
  0x75, 0x65, 0x6e, 0x74, 0x69, 0x61, 0x6c, 0x2f, 0x63, 0x6f, 0x6e, 0x76,
  0x32, 0x64, 0x5f, 0x31, 0x2f, 0x43, 0x6f, 0x6e, 0x76, 0x32, 0x44, 0x3b,
  0x73, 0x65, 0x71, 0x75, 0x65, 0x6e, 0x74, 0x69, 0x61, 0x6c, 0x2f, 0x63,
  0x6f, 0x6e, 0x76, 0x32, 0x64, 0x5f, 0x31, 0x2f, 0x42, 0x69, 0x61, 0x73,
  0x41, 0x64, 0x64, 0x2f, 0x52, 0x65, 0x61, 0x64, 0x56, 0x61, 0x72, 0x69,
  0x61, 0x62, 0x6c, 0x65, 0x4f, 0x70, 0x2f, 0x72, 0x65, 0x73, 0x6f, 0x75,
  0x72, 0x63, 0x65, 0x00, 0x04, 0x00, 0x00, 0x00, 0xff, 0xff, 0xff, 0xff,
  0x15, 0x00, 0x00, 0x00, 0x01, 0x00, 0x00, 0x00, 0x10, 0x00, 0x00, 0x00,
  0x40, 0xd4, 0xff, 0xff, 0x00, 0x00, 0x0e, 0x00, 0x1a, 0x00, 0x08, 0x00,
  0x0c, 0x00, 0x10, 0x00, 0x07, 0x00, 0x14, 0x00, 0x0e, 0x00, 0x00, 0x00,
  0x00, 0x00, 0x00, 0x05, 0x01, 0x00, 0x00, 0x00, 0x3c, 0x00, 0x00, 0x00,
  0x30, 0x00, 0x00, 0x00, 0x14, 0x00, 0x00, 0x00, 0x00, 0x00, 0x0e, 0x00,
  0x18, 0x00, 0x17, 0x00, 0x10, 0x00, 0x0c, 0x00, 0x08, 0x00, 0x04, 0x00,
  0x0e, 0x00, 0x00, 0x00, 0x03, 0x00, 0x00, 0x00, 0x03, 0x00, 0x00, 0x00,
  0x03, 0x00, 0x00, 0x00, 0x03, 0x00, 0x00, 0x00, 0x00, 0x00, 0x00, 0x01,
  0x01, 0x00, 0x00, 0x00, 0x0b, 0x00, 0x00, 0x00, 0x01, 0x00, 0x00, 0x00,
  0x0a, 0x00, 0x00, 0x00, 0x2c, 0xff, 0xff, 0xff, 0x11, 0x00, 0x00, 0x00,
  0x00, 0x00, 0x00, 0x11, 0x01, 0x00, 0x00, 0x00, 0x10, 0xd4, 0xff, 0xff,
  0x14, 0x00, 0x00, 0x00, 0x0c, 0x00, 0x00, 0x00, 0x20, 0x00, 0x00, 0x00,
  0x58, 0x00, 0x00, 0x00, 0x40, 0x00, 0x00, 0x00, 0x04, 0x00, 0x00, 0x00,
  0x01, 0x00, 0x00, 0x00, 0x15, 0x00, 0x00, 0x00, 0x01, 0x00, 0x00, 0x00,
  0x08, 0x00, 0x00, 0x00, 0x20, 0x00, 0x00, 0x00, 0x73, 0x65, 0x71, 0x75,
  0x65, 0x6e, 0x74, 0x69, 0x61, 0x6c, 0x2f, 0x6d, 0x61, 0x78, 0x5f, 0x70,
  0x6f, 0x6f, 0x6c, 0x69, 0x6e, 0x67, 0x32, 0x64, 0x2f, 0x4d, 0x61, 0x78,
  0x50, 0x6f, 0x6f, 0x6c, 0x00, 0x00, 0x00, 0x00, 0x04, 0x00, 0x00, 0x00,
  0xff, 0xff, 0xff, 0xff, 0x15, 0x00, 0x00, 0x00, 0x01, 0x00, 0x00, 0x00,
  0x08, 0x00, 0x00, 0x00, 0x1c, 0xd5, 0xff, 0xff, 0x00, 0x00, 0x0e, 0x00,
  0x14, 0x00, 0x00, 0x00, 0x08, 0x00, 0x0c, 0x00, 0x07, 0x00, 0x10, 0x00,
  0x0e, 0x00, 0x00, 0x00, 0x00, 0x00, 0x00, 0x01, 0x30, 0x00, 0x00, 0x00,
  0x24, 0x00, 0x00, 0x00, 0x10, 0x00, 0x00, 0x00, 0x0c, 0x00, 0x10, 0x00,
  0x00, 0x00, 0x04, 0x00, 0x08, 0x00, 0x0f, 0x00, 0x0c, 0x00, 0x00, 0x00,
  0x01, 0x00, 0x00, 0x00, 0x01, 0x00, 0x00, 0x00, 0x00, 0x00, 0x00, 0x01,
  0x01, 0x00, 0x00, 0x00, 0x0a, 0x00, 0x00, 0x00, 0x03, 0x00, 0x00, 0x00,
  0x00, 0x00, 0x00, 0x00, 0x08, 0x00, 0x00, 0x00, 0x01, 0x00, 0x00, 0x00,
  0x0c, 0x00, 0x10, 0x00, 0x0b, 0x00, 0x00, 0x00, 0x0c, 0x00, 0x04, 0x00,
  0x0c, 0x00, 0x00, 0x00, 0x03, 0x00, 0x00, 0x00, 0x00, 0x00, 0x00, 0x03,
  0x01, 0x00, 0x00, 0x00, 0xf0, 0xd4, 0xff, 0xff, 0x14, 0x00, 0x00, 0x00,
  0x0b, 0x00, 0x00, 0x00, 0x20, 0x00, 0x00, 0x00, 0xb0, 0x00, 0x00, 0x00,
  0x98, 0x00, 0x00, 0x00, 0x04, 0x00, 0x00, 0x00, 0x01, 0x00, 0x00, 0x00,
  0x40, 0x00, 0x00, 0x00, 0x03, 0x00, 0x00, 0x00, 0x08, 0x00, 0x00, 0x00,
  0x7b, 0x00, 0x00, 0x00, 0x73, 0x65, 0x71, 0x75, 0x65, 0x6e, 0x74, 0x69,
  0x61, 0x6c, 0x2f, 0x63, 0x6f, 0x6e, 0x76, 0x32, 0x64, 0x2f, 0x52, 0x65,
  0x6c, 0x75, 0x3b, 0x73, 0x65, 0x71, 0x75, 0x65, 0x6e, 0x74, 0x69, 0x61,
  0x6c, 0x2f, 0x63, 0x6f, 0x6e, 0x76, 0x32, 0x64, 0x2f, 0x42, 0x69, 0x61,
  0x73, 0x41, 0x64, 0x64, 0x3b, 0x73, 0x65, 0x71, 0x75, 0x65, 0x6e, 0x74,
  0x69, 0x61, 0x6c, 0x2f, 0x63, 0x6f, 0x6e, 0x76, 0x32, 0x64, 0x2f, 0x43,
  0x6f, 0x6e, 0x76, 0x32, 0x44, 0x3b, 0x73, 0x65, 0x71, 0x75, 0x65, 0x6e,
  0x74, 0x69, 0x61, 0x6c, 0x2f, 0x63, 0x6f, 0x6e, 0x76, 0x32, 0x64, 0x2f,
  0x42, 0x69, 0x61, 0x73, 0x41, 0x64, 0x64, 0x2f, 0x52, 0x65, 0x61, 0x64,
  0x56, 0x61, 0x72, 0x69, 0x61, 0x62, 0x6c, 0x65, 0x4f, 0x70, 0x2f, 0x72,
  0x65, 0x73, 0x6f, 0x75, 0x72, 0x63, 0x65, 0x00, 0x04, 0x00, 0x00, 0x00,
  0xff, 0xff, 0xff, 0xff, 0x40, 0x00, 0x00, 0x00, 0x03, 0x00, 0x00, 0x00,
  0x08, 0x00, 0x00, 0x00, 0x44, 0xd5, 0xff, 0xff, 0x4e, 0xd6, 0xff, 0xff,
  0x04, 0x00, 0x00, 0x00, 0x00, 0x08, 0x00, 0x00, 0x24, 0x6e, 0x9f, 0xbd,
  0x3f, 0x3a, 0xc2, 0xbb, 0x48, 0x6a, 0xb4, 0xbe, 0xeb, 0x6b, 0x8a, 0x3d,
  0x3c, 0xc4, 0xd0, 0x3e, 0x76, 0xb7, 0x0d, 0xbe, 0x78, 0xab, 0x58, 0x3e,
  0xcf, 0x2e, 0x81, 0xbd, 0xda, 0xb4, 0x85, 0xbe, 0xcc, 0x5c, 0x4f, 0xbd,
  0x1e, 0x66, 0x6c, 0xbe, 0x1e, 0xee, 0x92, 0x3d, 0x8e, 0xe7, 0x4d, 0xbd,
  0x58, 0x49, 0x9d, 0xbe, 0x01, 0xd8, 0xd6, 0xbd, 0x9d, 0x7c, 0x01, 0xbe,
  0x0a, 0x90, 0x19, 0xbe, 0x5b, 0x9c, 0x50, 0xbd, 0x97, 0x22, 0xf7, 0xbd,
  0x05, 0x7e, 0xfd, 0x3d, 0xc9, 0xe2, 0x31, 0x3d, 0xb0, 0xaf, 0x3e, 0xbe,
  0xff, 0x28, 0x3c, 0xbe, 0xba, 0x36, 0xa6, 0xbd, 0x47, 0xeb, 0x87, 0xbc,
  0x00, 0xb5, 0xbd, 0x3d, 0x64, 0x6a, 0xc4, 0xbc, 0xc9, 0x9e, 0xcb, 0x3e,
  0x53, 0x4d, 0x86, 0xbc, 0x0e, 0x4b, 0x0f, 0x3e, 0x5c, 0x13, 0x3f, 0xbe,
  0x6a, 0x3a, 0x18, 0x3e, 0x43, 0xe0, 0xc3, 0x3b, 0xa8, 0x80, 0xc0, 0xbe,
  0xed, 0x2e, 0x6e, 0xbe, 0x48, 0xb8, 0xdc, 0xbe, 0x6c, 0xac, 0xfd, 0xbe,
  0x09, 0x8f, 0xc7, 0xbe, 0x0f, 0x0e, 0x6b, 0xbe, 0xff, 0x82, 0x23, 0x3e,
  0x1b, 0xe8, 0xc3, 0xbd, 0x07, 0x52, 0xac, 0xbe, 0x05, 0xbe, 0x89, 0xbe,
  0xe2, 0x71, 0xce, 0x3c, 0xbe, 0xd7, 0x4a, 0x3f, 0x60, 0xdc, 0x0b, 0xbd,
  0x81, 0x4c, 0x44, 0xbe, 0x74, 0xdf, 0x6f, 0x3d, 0x55, 0x02, 0x1d, 0xbd,
  0xc2, 0xc4, 0xa2, 0xbb, 0xb5, 0xd7, 0x49, 0x3e, 0x8f, 0x67, 0xa5, 0x3e,
  0x2f, 0x60, 0x32, 0xbe, 0x76, 0x43, 0xd1, 0xbd, 0x42, 0xcf, 0x6d, 0xbe,
  0x81, 0x6b, 0x93, 0xbd, 0xd0, 0x9b, 0x82, 0xbd, 0x0e, 0x9f, 0x30, 0x3e,
  0x8f, 0xaa, 0x20, 0x3d, 0x43, 0x96, 0xf2, 0xbe, 0xe5, 0x67, 0xd3, 0xbe,
  0xf5, 0x28, 0x4e, 0x3d, 0x4c, 0x93, 0xdd, 0xbd, 0x8b, 0x9d, 0xd5, 0xbd,
  0x2b, 0x71, 0x82, 0xbd, 0xbc, 0x26, 0x08, 0xbb, 0x28, 0x57, 0xdf, 0x3e,
  0xce, 0x41, 0x10, 0x3e, 0x7b, 0x72, 0x0e, 0x3e, 0x16, 0x99, 0x6a, 0x3d,
  0x5e, 0xd1, 0xac, 0xbe, 0x17, 0x91, 0xdf, 0xbd, 0xdb, 0xd8, 0x1b, 0xbe,
  0xc0, 0x1c, 0x9e, 0xbd, 0x6d, 0xa4, 0x5b, 0xbe, 0x08, 0x59, 0x2e, 0x3e,
  0xd3, 0x60, 0x27, 0xbe, 0x83, 0x06, 0xe6, 0x3e, 0x92, 0xcc, 0x8a, 0xbe,
  0x9b, 0xf5, 0x67, 0xbe, 0x8d, 0x95, 0xd7, 0xbd, 0x03, 0x48, 0x05, 0x3e,
  0x00, 0x8b, 0x9a, 0x3e, 0x69, 0xe4, 0x37, 0x3e, 0xf8, 0x85, 0x09, 0x3e,
  0x46, 0x93, 0x96, 0x3c, 0x0c, 0x67, 0x12, 0xbe, 0xf4, 0x21, 0x54, 0xbe,
  0xfe, 0x44, 0xab, 0xbd, 0x39, 0x3f, 0x66, 0x3e, 0xd4, 0xe9, 0x51, 0xbc,
  0x71, 0xd1, 0xe6, 0x3d, 0x47, 0x15, 0x7f, 0x3e, 0x66, 0x75, 0x87, 0x3d,
  0x98, 0xe6, 0x90, 0xbd, 0x4d, 0x33, 0x63, 0xbe, 0x5d, 0xae, 0x4a, 0xbb,
  0xfe, 0xbc, 0xd9, 0x3d, 0x17, 0x7b, 0x93, 0xbd, 0x10, 0x03, 0x0c, 0xbe,
  0xe9, 0xd8, 0x2e, 0x3d, 0x0b, 0x1c, 0x24, 0x3f, 0xd0, 0xc6, 0x4c, 0xbd,
  0xa3, 0xba, 0x14, 0xbd, 0x8c, 0xb6, 0x2f, 0xbd, 0xd7, 0xa2, 0x21, 0x3e,
  0xbf, 0xcc, 0xa8, 0xbc, 0xc5, 0x1b, 0xa9, 0x3c, 0x63, 0x36, 0x2b, 0x3e,
  0x71, 0xdd, 0x66, 0xbd, 0x47, 0x14, 0xc7, 0xbc, 0xf9, 0xbc, 0x8f, 0xbd,
  0x31, 0xbf, 0xf2, 0xbc, 0xc4, 0x1c, 0x41, 0x3d, 0x14, 0xf9, 0x43, 0x3d,
  0xe5, 0x7d, 0x94, 0x3e, 0x91, 0x64, 0x5d, 0x3c, 0xab, 0x7e, 0x6b, 0xbe,
  0xe1, 0x3c, 0x46, 0x3d, 0x7d, 0xb0, 0x69, 0xbc, 0xc4, 0x40, 0x36, 0xbd,
  0x6e, 0xc4, 0x5a, 0xbe, 0xc1, 0x06, 0x41, 0xbe, 0xaf, 0x81, 0xec, 0xbd,
  0x3c, 0x2e, 0xbf, 0x3d, 0x94, 0x60, 0x90, 0xbe, 0x89, 0x47, 0x03, 0xbd,
  0x1d, 0x07, 0xf3, 0xbc, 0x75, 0x7b, 0x0d, 0xbe, 0xb0, 0xbc, 0x9c, 0xbe,
  0x44, 0xd3, 0xa1, 0xbd, 0x4a, 0xc1, 0x3c, 0xbe, 0x15, 0x81, 0x21, 0xbe,
  0xe3, 0xe6, 0xe0, 0xbd, 0xc6, 0xab, 0xbc, 0x3c, 0xa4, 0x78, 0x04, 0x3e,
  0xd4, 0x2b, 0x32, 0xbe, 0xab, 0xf1, 0x6a, 0xbe, 0xda, 0x3e, 0x92, 0x3e,
  0x4b, 0x20, 0x79, 0x3d, 0x2f, 0x63, 0x58, 0xbe, 0x23, 0x0a, 0x12, 0xbe,
  0xed, 0x68, 0x16, 0x3e, 0xba, 0x21, 0x3c, 0xbe, 0xb1, 0xe3, 0x48, 0xbe,
  0x91, 0xdf, 0x1c, 0xbe, 0xae, 0x61, 0x02, 0x3d, 0x72, 0x5d, 0x29, 0xbe,
  0x67, 0xdf, 0x0f, 0x3e, 0x7d, 0x29, 0x36, 0xbd, 0xb7, 0xee, 0xca, 0x3d,
  0xad, 0x67, 0x83, 0x3e, 0xff, 0x80, 0x6c, 0xbe, 0x3b, 0xa3, 0x6f, 0xbc,
  0x13, 0x32, 0x18, 0xbe, 0x7a, 0xf3, 0x92, 0xbd, 0xef, 0x85, 0xd4, 0xbd,
  0x42, 0x06, 0x19, 0x3d, 0xee, 0x5f, 0x16, 0xbd, 0x8e, 0xf3, 0x97, 0xbd,
  0xcd, 0xf8, 0x4a, 0x3d, 0x4c, 0x38, 0x34, 0xbe, 0x20, 0x8c, 0xb9, 0xbe,
  0x05, 0x5b, 0x49, 0xbe, 0xa5, 0x02, 0xfa, 0xbd, 0x9b, 0x0e, 0x40, 0xbe,
  0x43, 0x4b, 0x3a, 0xbd, 0xad, 0xba, 0x1a, 0x3e, 0x9f, 0x0b, 0x6e, 0x3d,
  0x07, 0xdd, 0x1a, 0x3e, 0x42, 0xd3, 0xed, 0xbe, 0x5f, 0x99, 0x3a, 0xbd,
  0x15, 0xe1, 0x3d, 0x3e, 0x99, 0x86, 0x44, 0xbe, 0x58, 0xfc, 0x09, 0xbd,
  0x48, 0xc1, 0x70, 0xbc, 0x0a, 0x25, 0x8a, 0xbd, 0x9a, 0x45, 0x3a, 0xbe,
  0x47, 0xce, 0x6a, 0xbe, 0x02, 0xa1, 0xc0, 0xbe, 0x26, 0x3c, 0x78, 0xbe,
  0x84, 0xaf, 0x8d, 0xbe, 0x27, 0x84, 0x1b, 0xbe, 0xf4, 0xe3, 0xa3, 0xbe,
  0x95, 0x04, 0x22, 0xbe, 0xd0, 0xb7, 0x5b, 0xbe, 0xb6, 0xda, 0x4c, 0x3e,
  0x0f, 0x49, 0xa8, 0xbd, 0xb9, 0xf7, 0xcd, 0x3d, 0x11, 0x7f, 0x63, 0xbe,
  0xc1, 0xd5, 0x40, 0xbe, 0x7d, 0xb9, 0x2d, 0xbe, 0x3e, 0x82, 0x7d, 0xbd,
  0x4c, 0xc9, 0x5b, 0xbf, 0x44, 0x27, 0xad, 0xbe, 0xcd, 0x07, 0xd5, 0x3e,
  0x76, 0x35, 0xa2, 0xbd, 0xfc, 0x35, 0xff, 0xbe, 0xe0, 0x06, 0xe5, 0xbe,
  0x00, 0x97, 0x26, 0x3e, 0x21, 0x90, 0x7c, 0xbe, 0x03, 0x52, 0xe6, 0x3c,
  0xe3, 0x44, 0x06, 0x3e, 0x58, 0xe3, 0x6b, 0x3e, 0xc4, 0x16, 0x12, 0x3f,
  0x14, 0x7d, 0x40, 0x3e, 0x78, 0x12, 0xde, 0xbe, 0x1e, 0xa0, 0xfd, 0xbd,
  0x24, 0xdd, 0x78, 0xbd, 0x77, 0x71, 0xe0, 0x3c, 0x16, 0xa3, 0x78, 0x3e,
  0x78, 0xf3, 0x1d, 0xbf, 0xd0, 0xad, 0xff, 0xbe, 0x8a, 0xe2, 0xdc, 0x3d,
  0x70, 0xae, 0xbc, 0xbd, 0x0b, 0xf1, 0x3f, 0xbe, 0xc7, 0xa6, 0xdc, 0xbc,
  0x18, 0x8e, 0x3a, 0x3e, 0x01, 0xf1, 0xeb, 0xbb, 0xc0, 0xd0, 0x4c, 0xbe,
  0xcc, 0x00, 0x12, 0xbe, 0xaf, 0x7a, 0xc2, 0xbc, 0xfd, 0x48, 0xe7, 0x3c,
  0x65, 0x3f, 0x38, 0xbe, 0xcd, 0x5c, 0x04, 0xbd, 0x2c, 0xec, 0x3e, 0x3e,
  0x76, 0x55, 0x17, 0xbe, 0x06, 0xe4, 0xbc, 0xbd, 0xfb, 0xfb, 0x11, 0x3e,
  0x69, 0x0d, 0x18, 0xbd, 0xc1, 0x8f, 0x11, 0xbd, 0x27, 0xcf, 0x72, 0xbd,
  0xd5, 0x92, 0xf8, 0xbc, 0x71, 0x3a, 0xde, 0xbd, 0x9e, 0x5f, 0x9f, 0x3e,
  0x35, 0xee, 0x30, 0x3e, 0xa3, 0x07, 0x1c, 0xbc, 0xe8, 0x91, 0x1b, 0xbe,
  0x59, 0x46, 0xfb, 0x3d, 0x07, 0xd8, 0x6e, 0xbd, 0xc7, 0xb6, 0x09, 0xbd,
  0x2c, 0x1c, 0x82, 0x3d, 0xc0, 0xf5, 0x22, 0x3e, 0x9a, 0xa0, 0xa7, 0xbd,
  0xb7, 0x5b, 0xac, 0xbd, 0xd6, 0x1c, 0xb5, 0x3c, 0x02, 0x07, 0xd1, 0x3c,
  0xc7, 0xad, 0x4f, 0x3e, 0x8e, 0x7c, 0xf3, 0x3d, 0x18, 0x96, 0x56, 0x3d,
  0x53, 0xad, 0x02, 0x3e, 0x48, 0xb0, 0x98, 0x3d, 0xe8, 0x60, 0x35, 0xbd,
  0x48, 0x3a, 0x4f, 0x3e, 0xad, 0xf9, 0xe1, 0x3d, 0x77, 0x1c, 0x47, 0x3c,
  0x79, 0x7f, 0x4b, 0xbe, 0x8e, 0x60, 0x52, 0x3e, 0xdc, 0x8c, 0xf5, 0xbd,
  0xdd, 0xda, 0x2e, 0xbe, 0x84, 0x72, 0xe7, 0xbd, 0x06, 0x85, 0xef, 0xbd,
  0x5d, 0xf1, 0xdd, 0x3c, 0x1b, 0x9f, 0x21, 0x3d, 0xd2, 0x84, 0x93, 0xbe,
  0x8c, 0xc6, 0x9d, 0x3d, 0x02, 0x73, 0x07, 0xbd, 0xa8, 0x92, 0x3d, 0xbe,
  0xcc, 0xfa, 0x38, 0xbe, 0x79, 0xec, 0xc6, 0x3c, 0x3a, 0x20, 0x52, 0xbe,
  0x0e, 0xdc, 0x21, 0xbe, 0x59, 0x17, 0x6b, 0xbe, 0x2e, 0xf9, 0x5d, 0xbd,
  0x7c, 0x19, 0xdb, 0xbd, 0x6a, 0x49, 0xfc, 0xbd, 0x09, 0xf9, 0xba, 0xbe,
  0x0f, 0x0e, 0x8f, 0xbd, 0xdd, 0x5a, 0xe6, 0x3d, 0xa8, 0xfb, 0x8f, 0xbd,
  0xb5, 0xec, 0x39, 0xbe, 0x87, 0xda, 0x52, 0xbe, 0x27, 0xe0, 0x61, 0xbd,
  0xa8, 0x22, 0x0b, 0xbe, 0x3b, 0xe4, 0xab, 0x3e, 0xa3, 0x4d, 0x9b, 0xbd,
  0x54, 0x20, 0x92, 0xbc, 0x6d, 0xed, 0xf1, 0x3a, 0x52, 0xc2, 0x10, 0xbd,
  0x97, 0x41, 0xf5, 0xbe, 0x61, 0x4a, 0x08, 0x3e, 0x6b, 0x5b, 0xbe, 0xbe,
  0x0d, 0xef, 0xcf, 0xbd, 0x12, 0xb1, 0xda, 0xbc, 0x05, 0x9b, 0x38, 0xbe,
  0x03, 0xb1, 0x87, 0xbc, 0xc7, 0xb4, 0xd3, 0xbc, 0x56, 0x20, 0x8d, 0x3d,
  0x2e, 0x71, 0xd8, 0xbd, 0xa1, 0xb8, 0x41, 0x3f, 0x04, 0x3e, 0x7b, 0xbd,
  0x2b, 0xc3, 0x05, 0xbe, 0x55, 0x8e, 0xb8, 0xbd, 0x83, 0x47, 0xaf, 0xbb,
  0xba, 0xd1, 0xa0, 0xbd, 0x0c, 0x0c, 0x1b, 0x3d, 0xf7, 0xc5, 0xc9, 0xbd,
  0x65, 0x94, 0x98, 0xbe, 0xc4, 0x7f, 0x39, 0xbd, 0xc4, 0x33, 0xa9, 0x3d,
  0xfd, 0xe8, 0xd2, 0xbd, 0xa5, 0x37, 0x0b, 0xbe, 0x02, 0x19, 0xe2, 0x3d,
  0x67, 0xd5, 0x4b, 0x3e, 0xc1, 0x85, 0xaf, 0xbd, 0x9b, 0x34, 0x56, 0xbc,
  0x2d, 0x7a, 0x9b, 0xbd, 0xfc, 0x0a, 0xf9, 0xbd, 0xa2, 0x06, 0x37, 0x3c,
  0xf0, 0x15, 0x14, 0xbe, 0x2b, 0x42, 0xbd, 0xbd, 0xb3, 0xcd, 0xe4, 0xbc,
  0x29, 0x7f, 0x76, 0xbe, 0x7a, 0xed, 0x87, 0x3e, 0xb8, 0x21, 0x0f, 0xbd,
  0x01, 0xb1, 0xa3, 0xbe, 0x82, 0x9d, 0x23, 0xbd, 0xb6, 0xaf, 0x9e, 0xbd,
  0xa6, 0x5f, 0x7c, 0xbd, 0xea, 0x7d, 0xc2, 0x3e, 0xe8, 0x48, 0x40, 0xbe,
  0xff, 0xe9, 0xc4, 0xbb, 0xd4, 0x3d, 0xe6, 0x3e, 0x66, 0x99, 0x09, 0x3e,
  0x9e, 0x6b, 0x73, 0xbc, 0x2b, 0x3f, 0x0f, 0xbe, 0x87, 0x53, 0x20, 0x3c,
  0x32, 0xa3, 0x22, 0x3c, 0xfe, 0x01, 0x41, 0x3d, 0x78, 0x56, 0xae, 0x3e,
  0xa3, 0x38, 0x97, 0x3e, 0x16, 0x23, 0x01, 0x3e, 0xed, 0x82, 0x39, 0x3e,
  0xdb, 0xc2, 0x5a, 0xbd, 0x5f, 0x74, 0x4a, 0xbe, 0x07, 0xef, 0x99, 0x3b,
  0xa3, 0x8e, 0xf4, 0xbd, 0xe9, 0xf9, 0x70, 0x3d, 0xac, 0x8e, 0x8d, 0x3e,
  0x1e, 0xa8, 0x3d, 0xbe, 0x18, 0xec, 0xb7, 0xbd, 0xd9, 0xc7, 0x4c, 0xbc,
  0x48, 0x48, 0x96, 0xbe, 0xc3, 0xde, 0x59, 0x3e, 0xcf, 0x75, 0x2c, 0xbc,
  0x4a, 0xf6, 0x69, 0x3e, 0x05, 0x38, 0x03, 0x3e, 0xe6, 0x15, 0xa2, 0x3d,
  0xe6, 0x5b, 0x83, 0xbe, 0xbd, 0x4d, 0x5a, 0xbe, 0xad, 0xed, 0x80, 0xbe,
  0xd7, 0xf4, 0x13, 0xbe, 0xe2, 0x76, 0xb8, 0x3d, 0xc9, 0xd7, 0x0b, 0x3e,
  0x7e, 0x07, 0x0c, 0x3f, 0xb4, 0xd2, 0x9e, 0x3e, 0xcd, 0xbb, 0x53, 0xbe,
  0x8e, 0x3d, 0x51, 0xbe, 0xa4, 0x01, 0x3c, 0xbe, 0x15, 0x93, 0xd6, 0x3e,
  0x2b, 0xdf, 0x23, 0x3e, 0x8a, 0x07, 0x81, 0xbe, 0x60, 0x43, 0xad, 0xbd,
  0x69, 0xd9, 0xe2, 0xbd, 0xbd, 0xd5, 0x0d, 0xbe, 0x7d, 0xf4, 0x8a, 0xbe,
  0xe3, 0xf5, 0x06, 0xbe, 0x44, 0xdd, 0xec, 0xbd, 0x17, 0x45, 0xc8, 0x3b,
  0x34, 0x6f, 0x2f, 0x3e, 0xe8, 0xe5, 0xd4, 0x3c, 0xba, 0xc3, 0xf9, 0x3d,
  0x31, 0x3d, 0xdf, 0xbd, 0x4e, 0x17, 0x87, 0xbe, 0x3f, 0x8e, 0x75, 0x3e,
  0x6d, 0x83, 0x1b, 0x3d, 0xd8, 0x24, 0xcb, 0xbd, 0x37, 0xe2, 0xbb, 0x3d,
  0x27, 0xaf, 0xe5, 0x3e, 0xc3, 0x93, 0xdf, 0x3e, 0xf6, 0x1f, 0xaa, 0x3e,
  0x40, 0x12, 0x03, 0x3e, 0x78, 0xde, 0x0c, 0xbe, 0x82, 0x42, 0x7e, 0xbe,
  0xf7, 0x24, 0xd5, 0xbe, 0x86, 0x88, 0x56, 0x3d, 0x42, 0x9c, 0xa3, 0xbd,
  0xcf, 0x2f, 0xca, 0xbe, 0x2e, 0x47, 0x92, 0xbd, 0x62, 0x0d, 0xd0, 0xbd,
  0x92, 0xed, 0x50, 0xbe, 0xdf, 0xcb, 0xf2, 0x3d, 0xd7, 0xe3, 0xd0, 0xbd,
  0x45, 0xc1, 0x11, 0x3e, 0xf0, 0x5e, 0x22, 0x3e, 0x0c, 0x43, 0x38, 0xbe,
  0x1a, 0x98, 0xe3, 0xbd, 0xd7, 0x2c, 0x19, 0xbe, 0x9f, 0xbb, 0x60, 0xbe,
  0x7c, 0x32, 0x41, 0x3d, 0xcd, 0xa3, 0x7b, 0x3c, 0xea, 0x09, 0x21, 0xbc,
  0x24, 0x76, 0xba, 0x3d, 0x4c, 0xfd, 0x13, 0xbe, 0x0f, 0xbc, 0x2b, 0xbe,
  0x85, 0x10, 0x26, 0xbe, 0x1e, 0xbd, 0x1b, 0xbe, 0xdc, 0x1c, 0x20, 0xbf,
  0x3d, 0x9e, 0x97, 0xbe, 0x7a, 0x9a, 0x5c, 0xbd, 0xe4, 0xcc, 0x5c, 0x3e,
  0x63, 0x5a, 0xee, 0xbd, 0x94, 0x4a, 0xcc, 0xbe, 0x16, 0x57, 0xc0, 0xbd,
  0x61, 0xb3, 0xc6, 0xbe, 0x60, 0x73, 0x87, 0x3e, 0x98, 0xae, 0x84, 0xbd,
  0x89, 0xd3, 0x8a, 0x3e, 0xb4, 0x92, 0x22, 0xbe, 0xf3, 0x60, 0x8a, 0x3e,
  0x72, 0x30, 0x06, 0xbf, 0xe2, 0x79, 0x15, 0xbe, 0x0e, 0x43, 0x25, 0xbe,
  0x30, 0x78, 0x6f, 0x3e, 0xee, 0x7e, 0x18, 0x3e, 0xfc, 0xc2, 0x36, 0xbf,
  0x5d, 0xf5, 0x01, 0xbf, 0x46, 0x67, 0x94, 0x3e, 0x74, 0x60, 0xec, 0xbd,
  0xea, 0x19, 0xa3, 0xbe, 0x53, 0xb8, 0x93, 0x3c, 0xa3, 0xfc, 0x83, 0x3e,
  0x3c, 0xed, 0xe1, 0x3d, 0x55, 0x76, 0xdc, 0xbd, 0xf7, 0x6c, 0x33, 0xbe,
  0xe9, 0xb6, 0x15, 0xbe, 0x00, 0x79, 0xb9, 0xbc, 0x92, 0x5b, 0x7c, 0xbe,
  0x0a, 0x26, 0x84, 0xbe, 0x44, 0xb8, 0x6a, 0xbd, 0x97, 0x13, 0xff, 0x3e,
  0xe5, 0x91, 0xc2, 0x3e, 0xd1, 0xa1, 0xd7, 0xbd, 0x37, 0x83, 0x97, 0x3d,
  0xc5, 0xa2, 0xc1, 0xbd, 0x15, 0x7a, 0x98, 0xbe, 0xc2, 0xe9, 0x42, 0xbe,
  0x14, 0x61, 0x91, 0x3d, 0xb9, 0x49, 0xa6, 0xbd, 0xe7, 0x06, 0x05, 0xbd,
  0xc0, 0xb0, 0x1f, 0xbe, 0x1a, 0x7b, 0xb0, 0x3d, 0x1a, 0x95, 0x4d, 0xbd,
  0x81, 0x9e, 0xb9, 0xbe, 0xb7, 0xc3, 0xb1, 0xbd, 0x81, 0xff, 0x05, 0xbe,
  0xce, 0xf1, 0xc5, 0x3e, 0x91, 0x82, 0x46, 0x3d, 0x40, 0xd8, 0x67, 0x3d,
  0x48, 0xc6, 0x81, 0x3d, 0x09, 0xc1, 0x2d, 0x3e, 0x73, 0x41, 0x4b, 0xbe,
  0x40, 0xd9, 0x2c, 0xbd, 0x8f, 0x63, 0x91, 0x3e, 0xa9, 0x6e, 0xa7, 0xbd,
  0x87, 0x55, 0xeb, 0x3d, 0x6c, 0xd0, 0xe3, 0x3d, 0xf4, 0x34, 0x2b, 0xbd,
  0xba, 0x2a, 0x8e, 0x3d, 0xfc, 0x57, 0x88, 0xbe, 0x86, 0xb2, 0x21, 0x3e,
  0x36, 0x42, 0x07, 0x3e, 0x8e, 0x96, 0xb7, 0xbd, 0x6c, 0x08, 0x00, 0x3d,
  0xa7, 0xca, 0x87, 0xbd, 0x2b, 0xac, 0xd5, 0x3c, 0x75, 0x0e, 0xde, 0xbc,
  0xe7, 0x2c, 0x07, 0xbe, 0xc7, 0x36, 0x12, 0xbe, 0x02, 0x62, 0xd7, 0x3d,
  0xe0, 0x17, 0x1d, 0xbd, 0x7e, 0x5a, 0x1d, 0xbe, 0x45, 0xf1, 0x12, 0xbd,
  0xf3, 0x52, 0x0d, 0xbe, 0x87, 0x15, 0xcd, 0xbe, 0xdc, 0x92, 0x65, 0xbe,
  0x4e, 0x73, 0xcb, 0x3d, 0x05, 0x69, 0x94, 0x3d, 0x9d, 0x7e, 0x5a, 0xbe,
  0x5b, 0x61, 0xda, 0x3d, 0x5a, 0x47, 0x4a, 0xbe, 0x45, 0x33, 0x3b, 0xbd,
  0x76, 0xbc, 0x85, 0xbe, 0x4b, 0xc0, 0xb1, 0x3d, 0xfd, 0xbc, 0x47, 0x3e,
  0x0e, 0x86, 0x85, 0xb9, 0x4b, 0x2b, 0x12, 0x3e, 0xb0, 0x8c, 0x08, 0xbe,
  0x2a, 0x7a, 0x1e, 0xbc, 0x49, 0xab, 0x3f, 0xbe, 0x01, 0x8c, 0xc3, 0xbe,
  0xb8, 0x86, 0x2e, 0xbb, 0x26, 0xde, 0xff, 0xff, 0x10, 0x00, 0x00, 0x00,
  0x0a, 0x00, 0x00, 0x00, 0x1c, 0x00, 0x00, 0x00, 0x38, 0x00, 0x00, 0x00,
  0x04, 0x00, 0x00, 0x00, 0x10, 0x00, 0x00, 0x00, 0x04, 0x00, 0x00, 0x00,
  0x01, 0x00, 0x00, 0x00, 0x08, 0x00, 0x00, 0x00, 0x1a, 0x00, 0x00, 0x00,
  0x73, 0x65, 0x71, 0x75, 0x65, 0x6e, 0x74, 0x69, 0x61, 0x6c, 0x2f, 0x63,
  0x6f, 0x6e, 0x76, 0x32, 0x64, 0x5f, 0x31, 0x2f, 0x43, 0x6f, 0x6e, 0x76,
  0x32, 0x44, 0x00, 0x00, 0x9c, 0xdd, 0xff, 0xff, 0xa6, 0xde, 0xff, 0xff,
  0x04, 0x00, 0x00, 0x00, 0x80, 0x01, 0x00, 0x00, 0x27, 0xe1, 0x01, 0x3e,
  0xfd, 0x18, 0x02, 0x3e, 0x14, 0x00, 0x81, 0xbe, 0xc4, 0x9c, 0xa0, 0xbb,
  0x24, 0x82, 0x6f, 0x3d, 0x91, 0x22, 0xfd, 0xbd, 0x14, 0x82, 0xa9, 0x3c,
  0x6c, 0xdd, 0x04, 0xbc, 0xb8, 0xbb, 0x4f, 0xbd, 0x88, 0x2f, 0xf8, 0x3d,
  0xd6, 0x6e, 0x8f, 0xbd, 0x01, 0x6b, 0x05, 0xbd, 0x9f, 0x26, 0x58, 0xbc,
  0x8c, 0x71, 0x0e, 0xbc, 0x33, 0xf7, 0x8a, 0x3e, 0xa0, 0x09, 0xdc, 0xbc,
  0xf8, 0x66, 0x91, 0x3e, 0x2b, 0xad, 0x86, 0x3e, 0xff, 0xb4, 0xae, 0x3d,
  0xc6, 0x9d, 0x07, 0xbe, 0xd0, 0x1d, 0x98, 0xbe, 0x57, 0x5a, 0x48, 0xbd,
  0xe7, 0xfa, 0x2f, 0xbe, 0xdb, 0x7d, 0x81, 0xbe, 0xd2, 0x13, 0x05, 0x3f,
  0xb2, 0x16, 0x0d, 0x3e, 0x14, 0x97, 0x68, 0x3e, 0x80, 0xe9, 0x41, 0xbe,
  0xf9, 0xc6, 0xc0, 0x3d, 0x36, 0x07, 0x91, 0xbe, 0x76, 0x6e, 0x2e, 0xbd,
  0x75, 0xf6, 0x85, 0x3d, 0xf7, 0xf9, 0x4f, 0x3e, 0x0e, 0x62, 0x00, 0xbe,
  0x13, 0xa5, 0x25, 0xbe, 0xd3, 0x36, 0x26, 0xbe, 0xae, 0xc4, 0xe5, 0xbd,
  0x12, 0xd5, 0xba, 0xbe, 0x22, 0x1c, 0x5c, 0xbe, 0x79, 0xe2, 0xd2, 0xbc,
  0xfd, 0x71, 0x25, 0xbe, 0xdc, 0xc2, 0x2b, 0xbd, 0x9b, 0x9c, 0x53, 0x3e,
  0x16, 0x3c, 0xf3, 0x3e, 0x28, 0x47, 0x64, 0x3e, 0x02, 0x71, 0xbf, 0xbb,
  0x2f, 0xf0, 0x64, 0x3c, 0x5d, 0x41, 0xbf, 0x3d, 0xc7, 0xd4, 0x81, 0xbd,
  0xde, 0x4b, 0x91, 0x3c, 0x56, 0x6e, 0x79, 0x3c, 0xb1, 0x44, 0x08, 0xbf,
  0x6d, 0x21, 0x53, 0xbe, 0x40, 0xbb, 0x79, 0xbe, 0x92, 0x91, 0xa2, 0x3e,
  0xa2, 0x8d, 0x30, 0x3e, 0x28, 0xc4, 0x10, 0x3d, 0x19, 0x28, 0x7e, 0x3e,
  0x92, 0x2b, 0x3a, 0x3d, 0x08, 0x68, 0x54, 0x3e, 0x58, 0xd4, 0x85, 0x3d,
  0x3c, 0x74, 0xbb, 0xbd, 0xaa, 0x2b, 0xc5, 0xbc, 0xd5, 0xa5, 0x0f, 0x3f,
  0x78, 0x1e, 0x68, 0x3e, 0x99, 0x50, 0xb9, 0x3d, 0x2f, 0x1a, 0x66, 0xbd,
  0xc7, 0xc9, 0x7c, 0xbd, 0x32, 0x03, 0x9f, 0xbc, 0x03, 0x12, 0x05, 0xbf,
  0x2f, 0xfa, 0x09, 0xbe, 0xd9, 0x0e, 0x16, 0x3d, 0xa1, 0xa2, 0x67, 0x3c,
  0x17, 0x14, 0x7d, 0xbe, 0x9f, 0x14, 0xb1, 0x3d, 0xf8, 0xea, 0x7f, 0xbc,
  0xbd, 0x9b, 0x78, 0xbd, 0xab, 0xfe, 0x61, 0x3e, 0x9c, 0x08, 0x3b, 0xbe,
  0x01, 0x23, 0xbd, 0x3d, 0x45, 0x90, 0x9b, 0xbc, 0x97, 0x4b, 0xe3, 0xbd,
  0xbe, 0x1b, 0x17, 0x3e, 0x12, 0x55, 0x87, 0xbd, 0x2b, 0xd7, 0xc8, 0xbd,
  0xcf, 0x94, 0x94, 0x3d, 0xb5, 0x22, 0xa1, 0xbd, 0xa6, 0x76, 0x41, 0xbd,
  0xe6, 0x9c, 0x87, 0x3d, 0xc5, 0x03, 0x78, 0xbc, 0xd5, 0x6c, 0x24, 0xbd,
  0x63, 0x6a, 0x16, 0x3e, 0xe5, 0x68, 0x8f, 0xbd, 0x31, 0x07, 0xef, 0x3d,
  0x09, 0x09, 0x2b, 0x3d, 0x5c, 0xb1, 0x2c, 0xbd, 0xfe, 0xdf, 0xff, 0xff,
  0x10, 0x00, 0x00, 0x00, 0x09, 0x00, 0x00, 0x00, 0x1c, 0x00, 0x00, 0x00,
  0x38, 0x00, 0x00, 0x00, 0x04, 0x00, 0x00, 0x00, 0x08, 0x00, 0x00, 0x00,
  0x04, 0x00, 0x00, 0x00, 0x03, 0x00, 0x00, 0x00, 0x01, 0x00, 0x00, 0x00,
  0x18, 0x00, 0x00, 0x00, 0x73, 0x65, 0x71, 0x75, 0x65, 0x6e, 0x74, 0x69,
  0x61, 0x6c, 0x2f, 0x63, 0x6f, 0x6e, 0x76, 0x32, 0x64, 0x2f, 0x43, 0x6f,
  0x6e, 0x76, 0x32, 0x44, 0x00, 0x00, 0x00, 0x00, 0x74, 0xdf, 0xff, 0xff,
  0x7e, 0xe0, 0xff, 0xff, 0x04, 0x00, 0x00, 0x00, 0xc0, 0x00, 0x00, 0x00,
  0xed, 0x58, 0x91, 0xbe, 0xed, 0x11, 0xba, 0x3d, 0x1a, 0xaa, 0xa6, 0x3e,
  0x1f, 0xf7, 0x86, 0x3d, 0xec, 0x31, 0xe6, 0xbe, 0x0e, 0x08, 0x24, 0x3e,
  0x84, 0x34, 0xf3, 0xbe, 0x6e, 0x8e, 0x6a, 0xbe, 0xcc, 0x6e, 0x96, 0x3d,
  0xc3, 0x92, 0xd3, 0xbe, 0xf2, 0xfb, 0x93, 0x3e, 0xbf, 0xf5, 0x1c, 0x3d,
  0x49, 0x44, 0xbb, 0xbe, 0x86, 0x05, 0x52, 0xbe, 0xb2, 0x5e, 0xc2, 0x3e,
  0x02, 0xa7, 0xab, 0xbe, 0xcd, 0xe3, 0x82, 0xbe, 0xf3, 0xdc, 0x21, 0x3d,
  0x3e, 0x37, 0xce, 0x3e, 0x67, 0x02, 0xcb, 0xbc, 0xaa, 0x78, 0xda, 0xbe,
  0xb8, 0x8c, 0x45, 0x3e, 0x3b, 0x25, 0x0b, 0xbf, 0x69, 0x9d, 0x91, 0x3d,
  0xa1, 0xdb, 0x01, 0x3e, 0x30, 0xeb, 0xb3, 0xbe, 0x45, 0x55, 0xad, 0x3e,
  0x26, 0x17, 0x94, 0xbe, 0x75, 0x84, 0xa6, 0xbe, 0x09, 0xe9, 0x82, 0xbe,
  0x45, 0x3e, 0x30, 0xbe, 0xc9, 0xa2, 0x11, 0x3d, 0xda, 0xd4, 0x47, 0xbe,
  0x11, 0xb1, 0xe6, 0xba, 0xda, 0xcf, 0xac, 0x3e, 0x9b, 0xcf, 0x25, 0x3e,
  0xc6, 0x06, 0xc8, 0xbe, 0xca, 0xac, 0x7c, 0x3e, 0xc7, 0x17, 0x0d, 0xbf,
  0x08, 0x13, 0x40, 0x3d, 0x8b, 0xf0, 0x83, 0x3b, 0x4a, 0x41, 0xfb, 0xbe,
  0x1e, 0x96, 0xd0, 0x3e, 0x31, 0x62, 0xee, 0xbe, 0x5f, 0xd4, 0xd5, 0xbe,
  0xb5, 0x10, 0x8d, 0xbe, 0x81, 0xc7, 0x85, 0xbe, 0xc6, 0xd0, 0xa9, 0x3e,
  0x16, 0xe1, 0xff, 0xff, 0x10, 0x00, 0x00, 0x00, 0x08, 0x00, 0x00, 0x00,
  0x14, 0x00, 0x00, 0x00, 0x30, 0x00, 0x00, 0x00, 0x02, 0x00, 0x00, 0x00,
  0x03, 0x00, 0x00, 0x00, 0x10, 0x00, 0x00, 0x00, 0x19, 0x00, 0x00, 0x00,
  0x73, 0x65, 0x71, 0x75, 0x65, 0x6e, 0x74, 0x69, 0x61, 0x6c, 0x2f, 0x64,
  0x65, 0x6e, 0x73, 0x65, 0x5f, 0x31, 0x2f, 0x4d, 0x61, 0x74, 0x4d, 0x75,
  0x6c, 0x00, 0x00, 0x00, 0x84, 0xe0, 0xff, 0xff, 0x8e, 0xe1, 0xff, 0xff,
  0x04, 0x00, 0x00, 0x00, 0x00, 0x1c, 0x00, 0x00, 0xbe, 0x40, 0x02, 0xbf,
  0xa2, 0x20, 0xce, 0xbe, 0x81, 0x99, 0xd3, 0xbd, 0x4b, 0x9b, 0x13, 0xbf,
  0x3c, 0xe2, 0x9b, 0x3e, 0x13, 0xa8, 0x53, 0xbd, 0x15, 0x2f, 0xc1, 0xbe,
  0xec, 0x2c, 0x6d, 0x3d, 0xdb, 0x0b, 0x81, 0x3e, 0xcc, 0xf8, 0xc9, 0x3d,
  0x17, 0xce, 0x44, 0xbe, 0x8c, 0xd2, 0xa7, 0xbe, 0x3a, 0x6b, 0x95, 0xbe,
  0x00, 0xd9, 0xe2, 0xbd, 0x43, 0x25, 0x9d, 0x3e, 0x04, 0x93, 0xa1, 0x3e,
  0x79, 0x5c, 0x14, 0xbf, 0x20, 0x92, 0x92, 0x3d, 0xb7, 0xf4, 0x0b, 0x3e,
  0xb1, 0xcb, 0xee, 0xbe, 0x90, 0x97, 0x86, 0x3d, 0x09, 0xc4, 0x62, 0x3e,
  0x1b, 0x5e, 0xc9, 0x3e, 0xfb, 0x5f, 0xa7, 0x3d, 0xdb, 0x36, 0xe9, 0x3e,
  0xc4, 0x48, 0x5f, 0x3e, 0x90, 0xea, 0x53, 0xbe, 0x3e, 0x8d, 0x88, 0xbe,
  0x88, 0x9b, 0x7c, 0xbe, 0x83, 0xbd, 0x3a, 0x3d, 0x71, 0x30, 0x63, 0xbd,
  0x79, 0x81, 0xa4, 0x3d, 0x7b, 0x58, 0x9c, 0xbe, 0x85, 0x20, 0xb0, 0x3e,
  0x95, 0xe5, 0xb4, 0x3d, 0x72, 0x40, 0x98, 0xbe, 0x78, 0x14, 0x9d, 0x3e,
  0x7e, 0x37, 0x41, 0x3e, 0xef, 0xee, 0x51, 0x3d, 0x2c, 0x77, 0x51, 0x3d,
  0x6b, 0xae, 0x0a, 0x3f, 0x14, 0xa1, 0x66, 0x3e, 0xe6, 0xef, 0x5e, 0xbd,
  0xf9, 0x78, 0x20, 0xbe, 0xfc, 0x2e, 0x09, 0x3e, 0xd3, 0x18, 0x06, 0x3e,
  0x91, 0x3a, 0x6b, 0x3e, 0x18, 0x3c, 0x78, 0x3d, 0xeb, 0x90, 0xb0, 0xbe,
  0x59, 0xe1, 0x38, 0x3e, 0xab, 0x37, 0x0f, 0xbe, 0x4e, 0xd6, 0xa9, 0xbe,
  0x97, 0x6d, 0x80, 0x3d, 0x3a, 0x1f, 0xe7, 0x3e, 0x04, 0x7f, 0x46, 0xbe,
  0x14, 0x3d, 0x9a, 0x3d, 0x8f, 0xaf, 0xb4, 0x3e, 0x2c, 0x1f, 0x89, 0xbd,
  0x59, 0x90, 0xa4, 0xbd, 0x89, 0x32, 0xff, 0xbd, 0x48, 0xf8, 0xa2, 0xbd,
  0x60, 0x65, 0xe8, 0x3d, 0x9a, 0x70, 0xc9, 0x3d, 0xbb, 0x00, 0xcf, 0x3d,
  0x39, 0x90, 0xa1, 0xbe, 0xce, 0x59, 0x37, 0x3e, 0xce, 0xe7, 0xa3, 0x3d,
  0xcd, 0x9c, 0x0f, 0xbe, 0x26, 0xfb, 0xa2, 0x3b, 0x32, 0xc7, 0x07, 0x3e,
  0x18, 0xeb, 0x78, 0x3d, 0x8a, 0x51, 0x97, 0x3d, 0x1c, 0xd3, 0x8a, 0x3e,
  0x1c, 0xc3, 0x9d, 0xbc, 0x4a, 0x48, 0xae, 0xbc, 0x90, 0x92, 0xb8, 0xbd,
  0x6f, 0xd1, 0x95, 0x3d, 0xc7, 0x6f, 0x30, 0x3d, 0x2c, 0x4c, 0x88, 0x3e,
  0x3a, 0x62, 0xc5, 0x3e, 0x79, 0x95, 0xd1, 0xbe, 0xf1, 0x5e, 0x18, 0x3c,
  0x15, 0xfb, 0x03, 0xbc, 0xea, 0xb1, 0xa6, 0xbe, 0xb6, 0xa8, 0x4a, 0x3e,
  0x78, 0x6c, 0xee, 0x3e, 0x03, 0x3a, 0xe6, 0xbd, 0x5b, 0xb7, 0x03, 0x3d,
  0x5b, 0x1a, 0xb5, 0x3e, 0xf2, 0xf8, 0x8b, 0x3d, 0x2e, 0x5d, 0x2a, 0xbe,
  0xf0, 0xef, 0x69, 0xbe, 0x2a, 0xa3, 0x93, 0xba, 0xc3, 0x32, 0x13, 0x3e,
  0x7c, 0x7d, 0xff, 0x3c, 0xcc, 0xb5, 0x21, 0x3e, 0x56, 0x02, 0xd8, 0xbe,
  0x1d, 0x88, 0x80, 0x3d, 0x3c, 0xd2, 0x72, 0x3c, 0x38, 0xf3, 0x0e, 0xbe,
  0x33, 0xdc, 0xd3, 0x3d, 0x1d, 0xf8, 0x92, 0x3e, 0x33, 0x41, 0xb5, 0xbd,
  0xae, 0x15, 0xd1, 0xbc, 0x00, 0x98, 0x06, 0x3f, 0xb4, 0xec, 0xce, 0xbe,
  0x4a, 0x0a, 0x02, 0xbe, 0x2a, 0x4b, 0xfc, 0xbd, 0x8e, 0xd0, 0x99, 0xbb,
  0xe9, 0x6c, 0x34, 0xbd, 0x36, 0x74, 0x5e, 0x3e, 0x88, 0x82, 0x88, 0x3e,
  0x82, 0x6b, 0x73, 0x3e, 0xf8, 0xa6, 0x13, 0xbe, 0xf4, 0x32, 0x8c, 0xbe,
  0x5e, 0x52, 0xfa, 0x3d, 0xff, 0x8f, 0x8d, 0xbe, 0x20, 0x22, 0xc3, 0x3e,
  0x36, 0x2a, 0x6f, 0xbe, 0xe9, 0xfa, 0x7d, 0xbd, 0x66, 0x96, 0x8b, 0x3e,
  0xfe, 0x79, 0x8c, 0xbe, 0x9e, 0x95, 0x82, 0x3d, 0xe6, 0xc7, 0x9b, 0xbe,
  0x7f, 0x03, 0x41, 0x3e, 0x02, 0xeb, 0x71, 0xbe, 0x7f, 0xc1, 0x9d, 0xbe,
  0xa0, 0xe8, 0x35, 0xbe, 0x23, 0x35, 0x8c, 0x3e, 0x54, 0xf1, 0xd0, 0x3d,
  0xc5, 0xd4, 0x02, 0xbf, 0xad, 0x0b, 0x04, 0xbd, 0xd5, 0x0a, 0x10, 0xbe,
  0xe4, 0x50, 0x02, 0x3f, 0xa4, 0x3a, 0xe8, 0xbc, 0x97, 0xdc, 0x32, 0xbd,
  0x2c, 0x7e, 0x03, 0x3c, 0x25, 0x1c, 0x8a, 0x3d, 0x50, 0x0e, 0xce, 0x3c,
  0xca, 0xc6, 0xea, 0xbd, 0x06, 0x8b, 0x0a, 0x3e, 0xde, 0xf4, 0x6d, 0x3c,
  0x49, 0x07, 0x5d, 0xbe, 0x0b, 0xba, 0x20, 0xbe, 0x0d, 0xa6, 0xf0, 0x3e,
  0x70, 0x9f, 0xf9, 0x3c, 0x17, 0x41, 0x35, 0xbe, 0xed, 0x74, 0x17, 0x3e,
  0x8d, 0x6f, 0x88, 0xbe, 0x09, 0x4e, 0x28, 0x3f, 0xe9, 0xcb, 0xb0, 0xbd,
  0x13, 0x61, 0x58, 0x3d, 0xe0, 0x5e, 0x5a, 0xbe, 0x43, 0x0d, 0x5b, 0x3e,
  0xae, 0xe8, 0xb4, 0xbc, 0x8a, 0x4e, 0xd7, 0xbd, 0x9a, 0x28, 0xf3, 0x3d,
  0x6f, 0x57, 0x5b, 0x3e, 0x65, 0x3c, 0xa5, 0xbe, 0x3a, 0x82, 0xed, 0x3a,
  0x71, 0xc7, 0x16, 0x3f, 0x77, 0xa7, 0x81, 0x3e, 0x55, 0xf6, 0x68, 0xbe,
  0xd8, 0x10, 0xe9, 0x3e, 0x6d, 0x04, 0x94, 0xbe, 0x33, 0x53, 0x14, 0x3f,
  0xe2, 0x0a, 0x89, 0x3e, 0x06, 0x38, 0x84, 0x3d, 0x11, 0x96, 0x3d, 0x3c,
  0x5c, 0x01, 0x82, 0x3d, 0x50, 0x4a, 0x0d, 0x3d, 0xc2, 0xa7, 0xe4, 0xbe,
  0x7d, 0xb5, 0x9c, 0x3e, 0xc0, 0xe3, 0x1d, 0xbe, 0x1d, 0xed, 0xa8, 0xbe,
  0xa8, 0x2a, 0xbd, 0xbd, 0xd7, 0x98, 0x8f, 0x3e, 0x38, 0x76, 0x58, 0x3c,
  0x6c, 0x46, 0x9f, 0xbe, 0xb9, 0x3e, 0x91, 0x3e, 0xde, 0x00, 0x07, 0x3e,
  0x61, 0x2e, 0x1c, 0x3f, 0x61, 0x3d, 0x7f, 0xbd, 0x34, 0x89, 0x67, 0xbd,
  0xa2, 0x2e, 0xfe, 0x3d, 0xd9, 0xe4, 0x3c, 0xbc, 0xe8, 0x93, 0x55, 0x3d,
  0x7f, 0xdb, 0xab, 0xbe, 0xda, 0xe7, 0x86, 0x3e, 0xae, 0xfb, 0x99, 0xbe,
  0xed, 0x9f, 0x78, 0xbe, 0xaf, 0x4b, 0xb9, 0xbc, 0xcf, 0x6a, 0xa9, 0x3e,
  0xa2, 0x12, 0x7c, 0x3c, 0xe4, 0xdb, 0xb9, 0xbe, 0xa5, 0x12, 0x9f, 0x3d,
  0x77, 0xa6, 0x27, 0x3e, 0xc7, 0x35, 0x71, 0x3f, 0x08, 0x9b, 0x9a, 0xbc,
  0x04, 0x62, 0x81, 0xbc, 0x20, 0x4f, 0x6b, 0x3e, 0x29, 0xae, 0xd6, 0xbd,
  0x56, 0xb0, 0x8b, 0xbd, 0xcd, 0x2d, 0x8d, 0xbd, 0xd5, 0x8c, 0x96, 0x3e,
  0xce, 0x50, 0x72, 0xbe, 0x39, 0xd2, 0x83, 0xbe, 0x09, 0x20, 0x6a, 0xbe,
  0x30, 0x6c, 0xbf, 0xbd, 0xec, 0x5b, 0x09, 0xbc, 0x3c, 0x87, 0xaf, 0xbd,
  0xd8, 0x4b, 0x46, 0xbb, 0x73, 0x06, 0xf9, 0x3c, 0x07, 0x51, 0x3e, 0x3e,
  0xab, 0xaa, 0xde, 0xbd, 0x36, 0xb9, 0xa7, 0xbc, 0xe2, 0xb1, 0xbc, 0xbd,
  0x3c, 0x9e, 0x9f, 0xbd, 0x4e, 0x23, 0x62, 0xbe, 0x47, 0xd8, 0x6d, 0xbe,
  0xd5, 0x64, 0x15, 0xbe, 0xcd, 0xe1, 0x21, 0xbe, 0x41, 0xa6, 0xda, 0xbd,
  0x07, 0xc0, 0x79, 0xbe, 0xfd, 0x1d, 0x4e, 0x3e, 0x44, 0x40, 0xb8, 0x3e,
  0x9b, 0x7e, 0x5f, 0x3e, 0x07, 0x73, 0x70, 0xbd, 0x57, 0x95, 0x87, 0x3c,
  0xa3, 0xdd, 0x60, 0xbe, 0xbd, 0x34, 0x9d, 0x3e, 0x3f, 0x5e, 0xb7, 0x3c,
  0xc0, 0xbe, 0x57, 0x3e, 0x2f, 0x33, 0xe7, 0x3d, 0x63, 0xc6, 0x8e, 0xba,
  0xfa, 0x1d, 0x50, 0x3e, 0xd5, 0x7e, 0x3a, 0xbd, 0xff, 0x30, 0xdd, 0x3e,
  0x98, 0xf0, 0x01, 0x3e, 0x8d, 0xe7, 0xba, 0x3c, 0xe2, 0xbd, 0x3e, 0xbe,
  0x2b, 0xdd, 0x5e, 0xbd, 0x32, 0x3c, 0x12, 0xbd, 0x84, 0xb8, 0xd9, 0xbd,
  0x74, 0x5b, 0x81, 0x3d, 0x5c, 0x75, 0xe5, 0x3d, 0xe5, 0x0a, 0x7a, 0xbd,
  0x19, 0xe9, 0xa6, 0x3c, 0x3f, 0x22, 0x96, 0x3c, 0x5a, 0xe1, 0xaa, 0x3e,
  0x3e, 0x1e, 0x57, 0xbd, 0x04, 0xe3, 0x37, 0xbe, 0xd7, 0x5e, 0x96, 0x3d,
  0xe8, 0xad, 0x59, 0xbc, 0xda, 0xce, 0x60, 0x3e, 0xfc, 0x01, 0xba, 0xbd,
  0xcd, 0x37, 0x89, 0xbe, 0x17, 0x2a, 0x31, 0xbe, 0x9e, 0x85, 0x06, 0xbd,
  0x0f, 0x06, 0xef, 0xbe, 0x48, 0x01, 0xc0, 0x3d, 0x65, 0xd9, 0x20, 0x3e,
  0xea, 0xf5, 0x7c, 0x3d, 0xb6, 0x21, 0x4c, 0xbd, 0x7a, 0xb2, 0x9c, 0x3e,
  0x08, 0xc6, 0xbe, 0xbd, 0xb3, 0xfb, 0x7f, 0xbe, 0x4e, 0x3c, 0xa7, 0xbe,
  0x06, 0x56, 0x11, 0x3e, 0x88, 0xba, 0xe4, 0x3d, 0x48, 0x7d, 0xa2, 0x3c,
  0x81, 0xa7, 0x2d, 0x3e, 0x8b, 0xe9, 0x9e, 0xbe, 0x03, 0xd7, 0x13, 0x3e,
  0x20, 0x54, 0x98, 0xbd, 0xcb, 0x03, 0xdf, 0xbe, 0xb4, 0x59, 0x2c, 0x38,
  0x81, 0x70, 0x1c, 0x3e, 0x58, 0x00, 0x2f, 0xbd, 0xa3, 0xa6, 0x28, 0x3b,
  0x11, 0x6f, 0x50, 0x3e, 0xf5, 0xc7, 0xb8, 0xbd, 0x7d, 0x07, 0x88, 0xbd,
  0x04, 0x3a, 0x8d, 0xbe, 0x43, 0x79, 0x48, 0xbe, 0x52, 0xea, 0xa1, 0x3d,
  0x39, 0xfe, 0xe7, 0x3d, 0x06, 0x8f, 0x3c, 0xbd, 0x52, 0x6f, 0xb4, 0xbe,
  0x5d, 0x46, 0x34, 0xbe, 0xd8, 0x0c, 0x16, 0x3d, 0x95, 0x6b, 0x4e, 0xbe,
  0x23, 0xf9, 0xd2, 0x3b, 0x4a, 0x1e, 0xaa, 0xbd, 0xcd, 0x35, 0xfb, 0x3c,
  0x17, 0xd3, 0x9c, 0xbd, 0x2e, 0x9d, 0xa5, 0x3e, 0x39, 0x56, 0x0b, 0xbe,
  0xe2, 0xe2, 0xd9, 0xbd, 0x8e, 0xda, 0x90, 0xbd, 0xd4, 0xef, 0x97, 0x3d,
  0x8e, 0xe9, 0x4d, 0x3e, 0xd8, 0x23, 0xd2, 0xbd, 0x2e, 0xd7, 0x43, 0x3d,
  0xc5, 0xb8, 0xc8, 0x3c, 0x59, 0xc8, 0x0a, 0xbe, 0xeb, 0xe7, 0x92, 0x3b,
  0xac, 0x6e, 0xd3, 0xbe, 0x9a, 0xf1, 0x10, 0xbe, 0xc1, 0x94, 0x8c, 0xbd,
  0x5b, 0xc0, 0xb4, 0x3d, 0x7e, 0xb8, 0x5d, 0xbd, 0x96, 0xd1, 0x28, 0x3e,
  0xd4, 0x0b, 0xb4, 0xbc, 0xaf, 0x2d, 0xa8, 0xbe, 0xdc, 0x7c, 0x96, 0xbd,
  0xbf, 0x87, 0xb0, 0xbd, 0xed, 0xb6, 0xe6, 0xbd, 0x32, 0x43, 0x93, 0x3b,
  0x07, 0x8c, 0x3e, 0x3e, 0xc2, 0x81, 0x98, 0x3d, 0x95, 0x14, 0x20, 0x3e,
  0x93, 0x5a, 0x1e, 0x3c, 0xd1, 0x3a, 0x11, 0xbb, 0x41, 0xce, 0x38, 0xbd,
  0xdc, 0x75, 0x90, 0xbd, 0x46, 0x68, 0x79, 0x3d, 0x9a, 0x45, 0x74, 0x3c,
  0xdc, 0xcc, 0x2c, 0xbc, 0x11, 0xf8, 0x26, 0x3e, 0xf4, 0x2c, 0x2f, 0xbd,
  0xc0, 0x45, 0x0d, 0x3e, 0xf3, 0xa6, 0x72, 0xbe, 0x13, 0x5b, 0xf2, 0x3c,
  0xe8, 0x2c, 0x29, 0x3d, 0x9c, 0xe3, 0x5a, 0x3a, 0x09, 0xee, 0x34, 0xbe,
  0x56, 0x42, 0x4b, 0xbe, 0x21, 0x13, 0x29, 0xbe, 0x66, 0xb6, 0x23, 0xbe,
  0x9c, 0xbe, 0x03, 0x3f, 0x2a, 0x09, 0x1a, 0x3e, 0x0b, 0x00, 0xa2, 0xbd,
  0xe2, 0xc5, 0x8a, 0xbe, 0x8e, 0xa9, 0x42, 0x3e, 0x8b, 0xa1, 0x28, 0x3e,
  0xb7, 0x61, 0x1b, 0xbd, 0x3e, 0xdb, 0xb3, 0xbe, 0x3b, 0xc3, 0x59, 0xbe,
  0x55, 0x55, 0x61, 0xbd, 0x70, 0x16, 0xd8, 0xbc, 0x5a, 0xc2, 0xa2, 0xbd,
  0x4f, 0xc4, 0xf8, 0x3d, 0x5d, 0x62, 0xbb, 0xbd, 0xfd, 0x22, 0xaa, 0xbe,
  0x22, 0xd6, 0xc1, 0x3d, 0x52, 0x1e, 0x98, 0x3e, 0xfe, 0x4b, 0x02, 0xbe,
  0xc4, 0x0f, 0x5f, 0xbd, 0xdd, 0xd4, 0xb9, 0xbe, 0xcb, 0x44, 0xe5, 0x3d,
  0x0a, 0x16, 0xc0, 0x3d, 0xc5, 0x52, 0x7c, 0x3d, 0x81, 0x8a, 0x76, 0xbe,
  0xcf, 0xbf, 0x78, 0xbe, 0xf8, 0xa0, 0x47, 0x3e, 0xaf, 0x80, 0x62, 0x3d,
  0xc1, 0x84, 0x82, 0xbd, 0x8b, 0x8d, 0xef, 0xbd, 0xa4, 0xdc, 0x8d, 0x3c,
  0xd1, 0x84, 0x02, 0x3e, 0xe5, 0x76, 0x03, 0x3d, 0x35, 0xc2, 0x90, 0x3e,
  0x03, 0xf7, 0x28, 0x3d, 0xba, 0xdd, 0x38, 0xbe, 0x54, 0x3f, 0x3f, 0xbe,
  0xae, 0xff, 0x26, 0x39, 0x8d, 0x00, 0xb0, 0x3d, 0xa9, 0xfe, 0xe6, 0x3d,
  0xce, 0x0b, 0x4c, 0xbe, 0x0f, 0xe5, 0x2c, 0x3e, 0x36, 0x99, 0x01, 0x3d,
  0xc3, 0x77, 0x86, 0x3e, 0x4a, 0xc4, 0x14, 0xbd, 0x66, 0x35, 0xf8, 0xbd,
  0x6f, 0xaf, 0xa9, 0xbc, 0xa3, 0x2f, 0x86, 0xbd, 0xfe, 0xc1, 0x0d, 0x3e,
  0x24, 0x12, 0xb9, 0x3e, 0xf1, 0x1a, 0x2e, 0x3e, 0x05, 0xc3, 0xd1, 0xbc,
  0x1a, 0x2a, 0xae, 0xbe, 0x06, 0x67, 0x9b, 0xbd, 0x42, 0x1c, 0x4a, 0x3d,
  0x64, 0xee, 0x06, 0xbe, 0x65, 0x3f, 0x20, 0xbe, 0x30, 0x5a, 0xc9, 0xbd,
  0x11, 0xe1, 0xa9, 0x3d, 0xda, 0x21, 0x92, 0x3d, 0xa7, 0x74, 0x89, 0x3e,
  0xcb, 0x2e, 0x56, 0x3d, 0x71, 0xe1, 0xcf, 0x3d, 0xd0, 0xf0, 0x65, 0xbe,
  0xe8, 0x56, 0xe7, 0x3d, 0x55, 0xb0, 0x14, 0x3e, 0x04, 0x9f, 0x09, 0x3e,
  0x86, 0x9e, 0x21, 0xbe, 0x0d, 0xfe, 0x25, 0xbe, 0x51, 0xaf, 0xd5, 0x3d,
  0x03, 0x97, 0xe6, 0x3d, 0x5a, 0x12, 0xc5, 0xbd, 0x15, 0x4f, 0x31, 0xbe,
  0x13, 0xf7, 0x41, 0xbe, 0xdb, 0xa6, 0xd8, 0x3d, 0xd4, 0x12, 0x22, 0x3e,
  0x00, 0x3e, 0x8f, 0xbc, 0xbf, 0x2d, 0x7e, 0xbe, 0xf5, 0xe7, 0x7f, 0xbd,
  0xac, 0x33, 0xd9, 0xbd, 0x35, 0xdc, 0xd3, 0x3d, 0x53, 0xf5, 0xbc, 0x3d,
  0x8c, 0xf3, 0x0e, 0xbe, 0x86, 0xb3, 0x17, 0xbd, 0x7b, 0x5e, 0x00, 0xbe,
  0xde, 0x33, 0xdc, 0xbd, 0xee, 0xde, 0x00, 0xbe, 0x02, 0xb5, 0x3f, 0xbd,
  0xa7, 0x0e, 0xe4, 0x3c, 0xc1, 0xa2, 0x2c, 0xbe, 0x48, 0x16, 0x93, 0x3c,
  0xd9, 0x2f, 0xdd, 0x3d, 0x4f, 0x5e, 0xf6, 0x3d, 0xbf, 0x0e, 0xc4, 0xbc,
  0xd5, 0xf2, 0x01, 0x3e, 0x82, 0xd7, 0x49, 0xbe, 0x2d, 0x8e, 0xe9, 0xbd,
  0x3a, 0x9d, 0x95, 0x3e, 0x3a, 0x2f, 0xa4, 0x3e, 0xc7, 0xb8, 0xed, 0xbd,
  0x1a, 0xf8, 0x18, 0x3d, 0x9d, 0xc1, 0x2a, 0x3e, 0xf3, 0xf2, 0x47, 0xbd,
  0x1a, 0x85, 0x0c, 0xbe, 0x77, 0xe2, 0x60, 0x3d, 0xef, 0x66, 0xda, 0xbd,
  0x74, 0xfa, 0x6e, 0xba, 0x9a, 0x40, 0x08, 0x3d, 0x04, 0x12, 0xc2, 0x3d,
  0x33, 0xc5, 0x4c, 0x3d, 0x3d, 0xa3, 0x57, 0xbe, 0x04, 0x51, 0xf5, 0x3d,
  0x4e, 0xd0, 0xdb, 0xbd, 0xcf, 0x9e, 0x7c, 0x3e, 0x98, 0x46, 0x8d, 0xbd,
  0x2f, 0x65, 0x8b, 0xbe, 0x78, 0x7f, 0xfc, 0xbb, 0xab, 0xf6, 0x7c, 0xbc,
  0x1c, 0x10, 0xca, 0x3d, 0xf9, 0xd8, 0x8d, 0xbd, 0xb2, 0x34, 0xea, 0xba,
  0x1c, 0xb4, 0x17, 0xbd, 0x5b, 0x2c, 0x45, 0xbd, 0xcb, 0x1e, 0xb7, 0x3d,
  0xc5, 0x45, 0x90, 0x3e, 0x95, 0x90, 0xb2, 0xbc, 0xda, 0x13, 0xf8, 0x3d,
  0x9f, 0x7e, 0x87, 0x3e, 0xa9, 0x7c, 0xca, 0xbd, 0x3a, 0xd1, 0x03, 0x3e,
  0x8a, 0x41, 0xab, 0x3c, 0x4b, 0xfb, 0xaa, 0xbc, 0x82, 0x25, 0xdd, 0xbd,
  0xf0, 0x59, 0x2e, 0xbe, 0xfc, 0xeb, 0xc1, 0x3e, 0x2b, 0x75, 0x78, 0x3d,
  0xc7, 0x01, 0xba, 0x3e, 0x46, 0x51, 0x80, 0xbd, 0xc8, 0x96, 0x6f, 0xbe,
  0xbe, 0x97, 0xf7, 0x3c, 0x4b, 0x50, 0x8d, 0x3e, 0x49, 0x93, 0xd7, 0x3d,
  0xe4, 0x3d, 0x6a, 0x3e, 0x7c, 0xf5, 0x7a, 0x3e, 0xf3, 0x7c, 0x0e, 0x3d,
  0xbf, 0xe4, 0x0c, 0xbc, 0x77, 0x5f, 0x4d, 0x3e, 0x36, 0x6b, 0x86, 0xbd,
  0x48, 0x05, 0xab, 0xbd, 0x02, 0x14, 0xbb, 0xbd, 0x38, 0xc0, 0x51, 0x3e,
  0xc2, 0x4e, 0x91, 0x3d, 0x4b, 0x86, 0xbc, 0x3e, 0x53, 0x7c, 0x92, 0x3c,
  0x14, 0x0a, 0x8e, 0x3d, 0x2d, 0x12, 0xe7, 0x3e, 0xc5, 0x72, 0x70, 0x3e,
  0x13, 0xe7, 0x23, 0x3e, 0x2f, 0x78, 0x92, 0x3e, 0x67, 0xb0, 0xb8, 0x3e,
  0xf8, 0x1c, 0x05, 0x3e, 0x11, 0x02, 0xf2, 0x3c, 0x5f, 0x72, 0xb2, 0xbd,
  0x94, 0xe9, 0x73, 0xbe, 0xb0, 0x44, 0x5f, 0xbe, 0x7f, 0x5c, 0x3d, 0x3e,
  0xe8, 0xff, 0xaf, 0x3e, 0xbf, 0xd0, 0xef, 0xbb, 0x15, 0xc4, 0xbd, 0x3e,
  0x5f, 0x94, 0x08, 0x3e, 0xa2, 0xfa, 0x40, 0x3e, 0x24, 0x39, 0x19, 0x3f,
  0x63, 0x1b, 0x58, 0x3e, 0x0b, 0x92, 0x3c, 0xbe, 0x57, 0x86, 0x03, 0xbe,
  0x8e, 0xe3, 0xb1, 0x3d, 0x05, 0xc9, 0x33, 0x3e, 0xe9, 0x95, 0x9b, 0x3e,
  0x04, 0x53, 0x11, 0xbe, 0xf8, 0x77, 0x6d, 0xbd, 0x5d, 0xe2, 0xf9, 0xbd,
  0xa9, 0x51, 0x07, 0xbe, 0xe2, 0xb8, 0x13, 0x3e, 0x8c, 0x63, 0x76, 0x3e,
  0xfc, 0x33, 0x9b, 0x3e, 0xe3, 0x25, 0x55, 0xbe, 0xd5, 0x5c, 0x5b, 0xbb,
  0x93, 0x6b, 0x54, 0x3e, 0xa7, 0x6c, 0x6a, 0x3e, 0x99, 0xcc, 0xb9, 0xbc,
  0x59, 0x1d, 0xb1, 0xbb, 0xca, 0xd8, 0x66, 0x3d, 0xfd, 0xad, 0x91, 0xbd,
  0x89, 0x3e, 0x8f, 0x3e, 0x55, 0xd6, 0x74, 0xbe, 0xaf, 0x57, 0x89, 0x3d,
  0xd4, 0xe3, 0x08, 0xbe, 0x19, 0x4e, 0x1c, 0x3e, 0x60, 0x7e, 0x3d, 0xbe,
  0xe4, 0x26, 0x8b, 0x3d, 0x2e, 0xfd, 0x94, 0x3d, 0xf8, 0x12, 0x71, 0x3d,
  0xdf, 0x8d, 0xd7, 0xbd, 0xc3, 0xd2, 0xcb, 0x3d, 0x0f, 0x4d, 0x08, 0x3f,
  0x2c, 0xe4, 0x28, 0xbd, 0xbd, 0x32, 0xbb, 0x3e, 0x08, 0xcf, 0x3f, 0x3d,
  0x5d, 0x1a, 0xdb, 0xbc, 0xc2, 0x19, 0x91, 0x3d, 0x1d, 0x85, 0x92, 0x3e,
  0x59, 0x92, 0x38, 0xbe, 0xa3, 0xbd, 0x4f, 0xbe, 0x09, 0x10, 0x70, 0x3e,
  0xe8, 0x0a, 0xf8, 0xbd, 0xc0, 0x47, 0xe1, 0xbd, 0x8f, 0xde, 0xc5, 0x3d,
  0x89, 0x6b, 0xa1, 0x3b, 0x67, 0xe0, 0xb5, 0xbd, 0x74, 0xad, 0x1f, 0x3e,
  0x5a, 0x68, 0xe9, 0x3d, 0xf5, 0xec, 0xa7, 0xbd, 0xf6, 0xf3, 0x89, 0x3d,
  0xb9, 0x5d, 0xab, 0x3d, 0xe6, 0xa1, 0x0a, 0xbe, 0x78, 0x4a, 0x07, 0x3f,
  0x32, 0x20, 0x49, 0xbd, 0x4f, 0x7a, 0x6b, 0xbd, 0x80, 0x63, 0x93, 0xbe,
  0xea, 0xc8, 0x1e, 0xbd, 0xdc, 0x89, 0xb6, 0xbe, 0x6e, 0xf4, 0xe1, 0x3b,
  0xea, 0xed, 0x2b, 0x3d, 0x17, 0x2f, 0xbe, 0xbe, 0x19, 0xd6, 0xa5, 0x3c,
  0xe5, 0x64, 0x32, 0x3e, 0xef, 0x29, 0xb7, 0x3c, 0x59, 0xb5, 0x54, 0xbe,
  0xee, 0xff, 0x5c, 0x3c, 0xa8, 0xaf, 0x73, 0x3e, 0xc4, 0xda, 0xe2, 0xbb,
  0x6f, 0x58, 0xe3, 0xbc, 0x73, 0xf3, 0x76, 0x3d, 0x1c, 0xf2, 0x00, 0xbd,
  0x18, 0x43, 0x94, 0xbe, 0x58, 0xe2, 0x31, 0x3e, 0xa1, 0x0f, 0x4c, 0x3d,
  0x3c, 0xbc, 0xb1, 0x3d, 0x75, 0xae, 0x3e, 0x3e, 0x55, 0x8e, 0xa7, 0xbe,
  0x3b, 0xa5, 0xc0, 0xbd, 0xb0, 0x51, 0x21, 0x3d, 0xd6, 0x5f, 0xf1, 0x3d,
  0xb2, 0xd6, 0xad, 0xbd, 0x3c, 0xf1, 0x51, 0x3e, 0x4e, 0xd5, 0x47, 0x3e,
  0xe2, 0x13, 0x7e, 0x3e, 0xe8, 0x90, 0x4a, 0x3e, 0x73, 0x2e, 0x30, 0x3e,
  0x1b, 0x03, 0xb6, 0x3b, 0xc4, 0x34, 0x31, 0xbe, 0xa6, 0x14, 0x9c, 0x3d,
  0x3e, 0x42, 0xad, 0x3e, 0xdf, 0x7a, 0xba, 0x3d, 0x19, 0xda, 0x2a, 0x3f,
  0xfe, 0xa3, 0xd2, 0xbe, 0x2a, 0xa5, 0x23, 0x3e, 0xb1, 0x74, 0x0e, 0x3f,
  0x9a, 0x1d, 0x4f, 0x3e, 0xe6, 0xb3, 0x35, 0x3e, 0x36, 0xec, 0xa9, 0x3e,
  0xda, 0x6d, 0x02, 0x3b, 0x32, 0xf9, 0x34, 0x3e, 0xb7, 0x93, 0xfd, 0x3d,
  0x68, 0x76, 0xcb, 0xbc, 0xf0, 0x05, 0x90, 0xbd, 0x65, 0xad, 0x10, 0x3d,
  0xde, 0xeb, 0x88, 0x3e, 0x57, 0xdb, 0xc6, 0x3e, 0x5e, 0xac, 0x12, 0x3e,
  0xf2, 0xc0, 0x8e, 0x3e, 0x54, 0x1c, 0x28, 0x3e, 0x0c, 0xe3, 0xb0, 0x3e,
  0x26, 0x16, 0x6d, 0x3e, 0x7f, 0x1d, 0x95, 0xbd, 0x1b, 0xc3, 0xae, 0xbe,
  0xc8, 0xb3, 0x82, 0xbe, 0x44, 0xdb, 0x1c, 0xbd, 0x5a, 0x5e, 0x54, 0x3d,
  0xde, 0x61, 0x53, 0xbe, 0xb0, 0xb6, 0xb2, 0xbd, 0x0a, 0x01, 0x17, 0xbe,
  0x39, 0x18, 0x45, 0xbe, 0x6d, 0x3f, 0x3e, 0x3e, 0x68, 0xca, 0x9e, 0x3c,
  0x5b, 0x33, 0x10, 0xbc, 0x0e, 0x98, 0xd9, 0x3e, 0x46, 0x39, 0x99, 0xbe,
  0x25, 0x03, 0xc9, 0xbd, 0x34, 0xdd, 0x4c, 0x3e, 0x19, 0x26, 0x2c, 0x3d,
  0x59, 0x6a, 0x97, 0xbe, 0x8f, 0x01, 0x6a, 0xbd, 0x1a, 0xd3, 0x34, 0x3d,
  0x6c, 0x61, 0x19, 0x3e, 0x9a, 0x6c, 0x0c, 0xbe, 0xeb, 0x9a, 0x9d, 0xbd,
  0x85, 0x86, 0x0d, 0xbe, 0x4a, 0x3f, 0x8c, 0xbe, 0xf7, 0x22, 0xaf, 0x3d,
  0x2b, 0x2a, 0xad, 0xbd, 0x8b, 0x9f, 0x8a, 0x3b, 0xd0, 0x9f, 0xb6, 0x3e,
  0x14, 0xcf, 0xb5, 0xbc, 0xcd, 0x63, 0xb0, 0xbd, 0x09, 0xa4, 0x9f, 0x3d,
  0xf6, 0x08, 0x88, 0x3d, 0x15, 0x58, 0xc8, 0xbe, 0xb1, 0xcd, 0x0e, 0xbe,
  0xdc, 0x15, 0x6d, 0x3d, 0x66, 0xde, 0x0b, 0xbe, 0xf1, 0x38, 0xa0, 0xbe,
  0xd1, 0xf7, 0x2e, 0xbd, 0x5c, 0x05, 0x06, 0xbe, 0x58, 0xc0, 0x84, 0xbe,
  0x9b, 0xe9, 0x83, 0x3e, 0x9b, 0x7d, 0xbc, 0x3e, 0x98, 0x5e, 0x1e, 0xbe,
  0xf9, 0x6b, 0x76, 0x3e, 0x49, 0xc3, 0xd2, 0xbe, 0xfd, 0x7a, 0x94, 0x3b,
  0xca, 0x60, 0xcf, 0x3d, 0x13, 0xf0, 0xdc, 0x3d, 0xf2, 0xa3, 0x4f, 0x3e,
  0x58, 0x88, 0x9d, 0xbd, 0xb4, 0x06, 0x80, 0xbe, 0x17, 0x04, 0x18, 0x3e,
  0xaf, 0xda, 0xdd, 0xbe, 0x4f, 0x57, 0x85, 0x3e, 0x5a, 0x11, 0x8b, 0xbe,
  0x9e, 0x33, 0xef, 0xb9, 0x42, 0x1f, 0xe7, 0x3d, 0xe8, 0x46, 0x3f, 0xbe,
  0x37, 0xf5, 0xe1, 0x3d, 0xb6, 0xdd, 0xc4, 0xbe, 0x1e, 0x66, 0x4f, 0x3e,
  0x92, 0x35, 0x9b, 0xbe, 0x57, 0xd8, 0xce, 0xbe, 0x70, 0x90, 0x57, 0x3d,
  0x6f, 0x34, 0x9a, 0x3e, 0x7a, 0xde, 0x44, 0x3e, 0x1f, 0x82, 0xdd, 0xbe,
  0x8d, 0x7c, 0xad, 0x3d, 0xa5, 0x88, 0xeb, 0xbb, 0x97, 0x93, 0x1b, 0x3f,
  0x52, 0x36, 0x30, 0x3d, 0x54, 0xaf, 0x7a, 0xbd, 0x83, 0x56, 0x8a, 0xbe,
  0x34, 0xf7, 0xef, 0xbc, 0xc5, 0xf3, 0xc2, 0x3c, 0x26, 0x46, 0x05, 0xbe,
  0xd8, 0x16, 0x18, 0x3e, 0x74, 0x11, 0x01, 0x3d, 0xc9, 0xf4, 0xa0, 0xbe,
  0xf3, 0x9e, 0x83, 0xbe, 0xde, 0x41, 0xf7, 0x3e, 0x5a, 0x2c, 0xa2, 0x3d,
  0xdf, 0x62, 0x48, 0xbd, 0x7f, 0x2a, 0x89, 0x3d, 0x4d, 0x54, 0x39, 0xbe,
  0xba, 0x25, 0xf6, 0x3e, 0xd9, 0x6e, 0x68, 0x3e, 0x68, 0x59, 0xfe, 0x3c,
  0x7f, 0x1e, 0x20, 0xbe, 0xbe, 0xbe, 0x98, 0x3d, 0xa6, 0x26, 0x3f, 0xbd,
  0x34, 0xb2, 0xc0, 0xbd, 0xd1, 0x4f, 0x29, 0xbe, 0xdf, 0x24, 0x96, 0x3e,
  0x2a, 0x2c, 0xcd, 0xbd, 0x2a, 0xf3, 0x0b, 0xbe, 0x10, 0x92, 0xf3, 0x3e,
  0x2a, 0xd8, 0x1d, 0x3d, 0x6e, 0xc4, 0x29, 0xbe, 0x66, 0xf9, 0x7f, 0x3e,
  0x90, 0x8c, 0x44, 0xbc, 0xa4, 0xae, 0x26, 0x3f, 0x13, 0xe1, 0x34, 0x3e,
  0xce, 0x3d, 0x4a, 0x3c, 0xd6, 0x1b, 0x87, 0xbd, 0x2b, 0xba, 0x24, 0x3e,
  0xca, 0xd0, 0x97, 0x3d, 0xc5, 0xf2, 0x8f, 0xbe, 0x41, 0xbe, 0xd3, 0x3d,
  0x39, 0xe0, 0x78, 0x3e, 0x91, 0xa3, 0xe3, 0xbe, 0x84, 0xd1, 0xc4, 0xbb,
  0xe6, 0x85, 0x9f, 0x3e, 0xaa, 0xfa, 0x72, 0xbe, 0x05, 0x8c, 0x20, 0xbf,
  0xbe, 0xce, 0x03, 0x3e, 0xd1, 0x9c, 0x23, 0x3e, 0x5f, 0x3c, 0xf3, 0x3e,
  0x30, 0xe8, 0xa0, 0xbe, 0xdc, 0x7c, 0x06, 0xbd, 0x49, 0xda, 0x9e, 0xbd,
  0x81, 0x71, 0xfc, 0xbd, 0x5f, 0x0f, 0xa7, 0xbd, 0x14, 0xa6, 0xf5, 0xbe,
  0x81, 0x38, 0x95, 0x3e, 0x1b, 0x6d, 0x8f, 0xbe, 0xf1, 0x9b, 0x9f, 0xbe,
  0x51, 0x8c, 0x6e, 0x3d, 0x9b, 0xa6, 0xf1, 0x3e, 0xd4, 0x29, 0x04, 0xbe,
  0xc3, 0x8e, 0xa1, 0xbe, 0xf0, 0xda, 0x01, 0x3e, 0x78, 0x08, 0x1d, 0x3e,
  0xf0, 0x6a, 0x2c, 0x3f, 0xb1, 0xa0, 0x60, 0xbe, 0x2c, 0x8e, 0x84, 0xbc,
  0x9e, 0xa4, 0xbf, 0x3c, 0x52, 0x03, 0x5f, 0xbe, 0x46, 0x20, 0xb5, 0x3d,
  0x83, 0x92, 0xa7, 0xbe, 0x73, 0xf0, 0x17, 0x3e, 0x49, 0xee, 0x88, 0xbe,
  0xa1, 0x81, 0x06, 0xbf, 0x5f, 0x72, 0x09, 0x3e, 0x7a, 0x91, 0x8c, 0x3e,
  0x6a, 0x1e, 0xa8, 0xbd, 0xd3, 0xd9, 0x5c, 0xbe, 0x26, 0x97, 0xba, 0x3d,
  0x76, 0x4e, 0x51, 0xbd, 0x6b, 0xc8, 0xd5, 0x3c, 0x84, 0x95, 0x50, 0xbc,
  0x4f, 0xd2, 0x54, 0xbc, 0xa1, 0x24, 0x98, 0x3d, 0xf4, 0x52, 0x05, 0x3d,
  0xed, 0x65, 0xcf, 0xbc, 0x23, 0x22, 0xa5, 0x3d, 0x55, 0xfd, 0x85, 0x3d,
  0x5b, 0x88, 0x13, 0xbe, 0xe3, 0x45, 0xb7, 0xbe, 0x3b, 0x02, 0x9a, 0x3d,
  0xc4, 0xfe, 0xfe, 0x3b, 0xf4, 0x3e, 0x1e, 0x3d, 0x19, 0xa7, 0x3b, 0x3e,
  0xe7, 0x20, 0x18, 0xbe, 0xc4, 0x45, 0xaa, 0x3e, 0x3b, 0xc8, 0x07, 0x3c,
  0x89, 0xc0, 0x13, 0x3e, 0x38, 0xf2, 0x90, 0xbe, 0xd9, 0xdf, 0x2d, 0x3e,
  0x74, 0xc5, 0x80, 0xbe, 0x06, 0x56, 0x7e, 0xbe, 0x05, 0x69, 0x61, 0xbd,
  0x1b, 0x65, 0x19, 0xbe, 0x48, 0x43, 0x8d, 0x3c, 0xde, 0x3e, 0x6a, 0x3e,
  0x0b, 0x02, 0xe4, 0x3d, 0xef, 0x0f, 0x1b, 0xbe, 0xcf, 0x2e, 0x55, 0xbe,
  0x0d, 0x51, 0xe8, 0x3d, 0xb5, 0x56, 0xd2, 0xbc, 0x07, 0xe5, 0x8b, 0x3d,
  0xc1, 0xbe, 0xf5, 0xbc, 0x37, 0xc3, 0x36, 0xbe, 0x1d, 0x95, 0xd8, 0xbe,
  0xa9, 0xa1, 0x66, 0x3e, 0x1a, 0x6b, 0x2a, 0x3e, 0x2b, 0xf7, 0x9f, 0xbe,
  0xe2, 0x3f, 0x8a, 0x3d, 0x41, 0xa4, 0x24, 0xbe, 0x80, 0x00, 0x7c, 0xbd,
  0xec, 0xfc, 0xc4, 0xbd, 0x8f, 0xb9, 0x0a, 0xbe, 0xc1, 0xec, 0x63, 0xbd,
  0x16, 0x41, 0x20, 0x3e, 0x3d, 0xb4, 0xce, 0x3d, 0x3e, 0x22, 0xd6, 0x3d,
  0xfb, 0xdc, 0x1d, 0x3e, 0x13, 0x58, 0xf6, 0xb9, 0xca, 0xe7, 0x3d, 0xbe,
  0x24, 0xf4, 0x75, 0xbe, 0x21, 0xef, 0xd7, 0x3d, 0x7f, 0xf6, 0x47, 0x3d,
  0x51, 0xeb, 0xb3, 0x3d, 0x67, 0x4d, 0x24, 0xbd, 0xbe, 0xea, 0xce, 0xbb,
  0x2d, 0x91, 0x5a, 0x3e, 0x61, 0xd3, 0x10, 0x3d, 0xa5, 0xbb, 0xbd, 0x3d,
  0x1d, 0x6e, 0xcb, 0xbd, 0xe2, 0x34, 0xdd, 0x3c, 0xca, 0xa7, 0x71, 0x3d,
  0x68, 0x63, 0xe7, 0xbc, 0x21, 0xd3, 0x4d, 0x3e, 0xf9, 0x23, 0xef, 0xbc,
  0x2a, 0xfb, 0xa0, 0x3d, 0xae, 0xa0, 0x99, 0xbe, 0x12, 0x19, 0x80, 0x3e,
  0x8a, 0x34, 0x8f, 0x3b, 0xdb, 0x58, 0x8d, 0xbd, 0xae, 0x8c, 0x0a, 0x3e,
  0x01, 0x82, 0x15, 0xbc, 0x5f, 0x5e, 0x90, 0xbd, 0x5a, 0x54, 0xc8, 0x3d,
  0x1c, 0x48, 0x12, 0xbe, 0x0b, 0x3c, 0x3a, 0xbe, 0xbc, 0x74, 0x84, 0x3d,
  0x6a, 0x74, 0x0b, 0x3d, 0xb4, 0xef, 0x2d, 0xbd, 0x80, 0x47, 0x54, 0x3e,
  0xcc, 0x74, 0xc4, 0x3d, 0x36, 0x78, 0xc3, 0x3d, 0x0a, 0xd2, 0xa4, 0xbe,
  0xde, 0xf3, 0x33, 0x3d, 0xdd, 0xf5, 0xca, 0xbd, 0xe5, 0x69, 0x05, 0xbe,
  0xa0, 0xb3, 0x30, 0xbe, 0x46, 0x16, 0x3d, 0x3c, 0x22, 0x9d, 0xa8, 0xbc,
  0x62, 0xb6, 0xf0, 0x3d, 0x45, 0x67, 0x09, 0xbe, 0x64, 0x63, 0x52, 0xbd,
  0x10, 0xf0, 0xbf, 0xbc, 0x0e, 0xd3, 0x65, 0x3e, 0x37, 0xd6, 0xf1, 0x3d,
  0xf1, 0x54, 0x40, 0x3d, 0x64, 0x06, 0x4d, 0xbe, 0x5f, 0x32, 0x77, 0x3d,
  0xc8, 0x4a, 0xb7, 0xbe, 0x4e, 0x22, 0x8c, 0x3e, 0xef, 0xdf, 0xda, 0xba,
  0xa8, 0xfb, 0x58, 0xbe, 0xef, 0xfd, 0x62, 0xbd, 0x72, 0xe2, 0x17, 0xbe,
  0xdc, 0x99, 0x78, 0xbb, 0xa1, 0xe7, 0x14, 0x3d, 0xb5, 0x9f, 0x80, 0xbd,
  0xba, 0x90, 0x7b, 0xbd, 0xd5, 0xe6, 0x09, 0xbd, 0xc7, 0x4a, 0x4b, 0x3c,
  0xaf, 0x3f, 0x12, 0xbe, 0x08, 0x86, 0x8f, 0x3d, 0xa3, 0x6d, 0x40, 0xbb,
  0xd8, 0x73, 0xe1, 0xbd, 0xb1, 0xd6, 0x86, 0xbe, 0x43, 0x45, 0x8a, 0x3e,
  0x1d, 0x76, 0x69, 0x3e, 0x9e, 0x85, 0xea, 0xbd, 0x7a, 0xfa, 0xad, 0xbc,
  0x09, 0x6a, 0x48, 0xbe, 0x8e, 0x46, 0xd9, 0x3d, 0xb2, 0x50, 0xae, 0x3b,
  0xf1, 0xe5, 0x76, 0xbe, 0x5c, 0x90, 0x51, 0x3e, 0x0b, 0xe3, 0xb4, 0x3e,
  0x0a, 0xc7, 0x1a, 0x3d, 0x95, 0x2b, 0x40, 0x3c, 0xb4, 0xe8, 0x8a, 0xbe,
  0x42, 0x01, 0x6b, 0x3f, 0xb3, 0xb1, 0x36, 0x3e, 0x7f, 0xa3, 0xab, 0xbd,
  0x6c, 0xe4, 0x83, 0x3d, 0x66, 0x26, 0x3c, 0xbd, 0xee, 0xd1, 0x96, 0xbd,
  0x2a, 0xa9, 0x7b, 0x3e, 0x97, 0x80, 0xbd, 0xbd, 0xa7, 0xdc, 0x8c, 0x3e,
  0x47, 0xaf, 0x82, 0x3d, 0xe6, 0x4b, 0xd9, 0xbd, 0x8d, 0xe3, 0x01, 0xbd,
  0x3d, 0xab, 0x6e, 0x3d, 0xb8, 0x74, 0xae, 0xbc, 0x1c, 0xa5, 0xa3, 0x3d,
  0x27, 0x58, 0x97, 0xbe, 0x60, 0x42, 0x3c, 0x3f, 0x78, 0x83, 0xfc, 0xbc,
  0x34, 0xbf, 0xe8, 0xbd, 0x7f, 0x99, 0xbf, 0x3e, 0x0b, 0xd0, 0x1d, 0x3c,
  0x96, 0x73, 0x9d, 0xbd, 0x6e, 0x5b, 0xba, 0xbe, 0xb7, 0xfd, 0x15, 0xbb,
  0x67, 0x65, 0x7a, 0x3a, 0x4d, 0x27, 0x8a, 0x3e, 0x1c, 0x91, 0x84, 0xbe,
  0x71, 0x52, 0x07, 0x3e, 0x75, 0xd6, 0xdb, 0x3d, 0x7d, 0xb6, 0x11, 0xbe,
  0x66, 0x41, 0x95, 0xbe, 0xf4, 0xe8, 0x9e, 0xbe, 0x86, 0x39, 0x1b, 0x3f,
  0xd0, 0xd1, 0x5a, 0xbe, 0xf7, 0x9d, 0x3f, 0xbe, 0x86, 0xf0, 0xf1, 0x3e,
  0x4c, 0x1a, 0x3f, 0xbe, 0xd6, 0x84, 0x83, 0xbe, 0xe9, 0xee, 0x3b, 0xbe,
  0x53, 0xe3, 0x28, 0xbd, 0xa0, 0x3b, 0x54, 0xbe, 0xb4, 0xba, 0xf1, 0x3c,
  0x9e, 0x0c, 0xbe, 0xbd, 0x1e, 0xc8, 0xb4, 0x3e, 0x43, 0xf0, 0x5e, 0xbe,
  0x20, 0xe7, 0x23, 0xbe, 0xda, 0x8d, 0x44, 0xbf, 0x67, 0x0e, 0xd1, 0xbb,
  0xdb, 0xa2, 0x63, 0x3f, 0xc1, 0xf6, 0x85, 0xbc, 0x59, 0xb9, 0x50, 0xbe,
  0x3d, 0xd3, 0x02, 0x3f, 0x6a, 0x07, 0x65, 0xbe, 0x90, 0x0a, 0xcd, 0xbe,
  0x7c, 0xd5, 0x65, 0xbe, 0x31, 0xa9, 0xbf, 0xbe, 0x72, 0x21, 0x6c, 0xbd,
  0xbf, 0x5c, 0x69, 0x3d, 0x59, 0xe5, 0x22, 0x3e, 0x18, 0xa4, 0x8c, 0x3e,
  0x33, 0x2d, 0x44, 0x3e, 0xc7, 0xd9, 0xa0, 0xbd, 0x75, 0x7c, 0x86, 0xbe,
  0x70, 0x72, 0x8a, 0xbd, 0x8e, 0x51, 0x61, 0x3f, 0xc6, 0x04, 0x3a, 0x3e,
  0x64, 0xec, 0x1d, 0xbe, 0x32, 0x1a, 0x70, 0x3e, 0xa8, 0xd9, 0x7b, 0x3e,
  0xa0, 0xae, 0xa8, 0xbd, 0x1c, 0x63, 0x20, 0xbc, 0xb2, 0x8d, 0x85, 0xbe,
  0x86, 0x76, 0xc0, 0x3e, 0xb9, 0x66, 0x27, 0xbc, 0x4d, 0x93, 0x16, 0xbe,
  0x09, 0xa4, 0x1b, 0x3e, 0x8b, 0x18, 0xc1, 0x3e, 0x18, 0x46, 0x90, 0x3d,
  0xb2, 0xda, 0xe3, 0x3c, 0x85, 0x3e, 0xbd, 0xbd, 0x4c, 0xbc, 0x85, 0x3f,
  0xc8, 0x48, 0xa8, 0x3e, 0x5e, 0x2f, 0x55, 0x3c, 0xc6, 0x36, 0x70, 0x3e,
  0x94, 0xdb, 0xb1, 0x3e, 0xb1, 0x42, 0xe5, 0xbd, 0xe0, 0x3c, 0x11, 0x3e,
  0x25, 0xc4, 0x8b, 0xbe, 0x03, 0x25, 0xc9, 0x3e, 0xb7, 0x66, 0x24, 0x3e,
  0x09, 0x9e, 0x5a, 0xbd, 0x77, 0x73, 0xdb, 0x3d, 0x52, 0x63, 0x68, 0xbc,
  0x4a, 0xac, 0x68, 0xbd, 0xa1, 0x71, 0x88, 0x3c, 0x8f, 0x57, 0x0c, 0xbe,
  0xc8, 0x03, 0xb1, 0xbd, 0xee, 0x9d, 0x01, 0x3d, 0x93, 0xd4, 0x8d, 0xbd,
  0xae, 0x94, 0x71, 0xbc, 0xe8, 0x82, 0x28, 0x3e, 0x88, 0x8d, 0xf2, 0x3b,
  0x83, 0xa2, 0x24, 0x3c, 0x84, 0xb0, 0xe2, 0xbd, 0x77, 0xc8, 0x50, 0x3e,
  0x5c, 0xb9, 0x22, 0xbd, 0x67, 0x75, 0x11, 0x3d, 0x0c, 0xfe, 0xb3, 0x3c,
  0xf3, 0x5f, 0x6e, 0x3e, 0xee, 0x52, 0xa9, 0xbc, 0x62, 0xf7, 0x6e, 0x3d,
  0x7c, 0x72, 0x35, 0xbe, 0x25, 0x7d, 0x13, 0x3f, 0x52, 0xaf, 0xc9, 0x3d,
  0x4f, 0xfb, 0x67, 0xbc, 0xdf, 0xe0, 0x2c, 0x3c, 0x8f, 0x47, 0x10, 0xbd,
  0x5d, 0xbc, 0x5e, 0x3d, 0xc3, 0x2a, 0x18, 0x3d, 0x30, 0xcd, 0xae, 0xbc,
  0xdc, 0x67, 0xcf, 0x3d, 0x68, 0x35, 0xb3, 0xbd, 0x7e, 0xd8, 0x91, 0xbc,
  0x46, 0x9f, 0xdb, 0xbc, 0xfe, 0x97, 0xc9, 0x3d, 0x32, 0x97, 0x86, 0xbc,
  0x88, 0x3e, 0xa0, 0x3d, 0x22, 0x68, 0x01, 0xbc, 0x1f, 0x75, 0xdf, 0x3e,
  0xd6, 0x4b, 0x12, 0x3e, 0xa0, 0x83, 0xb2, 0xbc, 0x1e, 0xbe, 0x19, 0x3d,
  0xce, 0xd5, 0x09, 0xbc, 0x23, 0x24, 0x26, 0xbc, 0x20, 0x12, 0x6c, 0xbe,
  0x64, 0x3f, 0x32, 0x3d, 0x16, 0x18, 0xdf, 0x3e, 0x9c, 0x0b, 0x35, 0xbe,
  0xc6, 0x3b, 0x4c, 0xbe, 0xb7, 0x3a, 0x44, 0x3e, 0x2e, 0xe0, 0xcc, 0x3c,
  0x0f, 0xe3, 0x26, 0xbe, 0x33, 0xd1, 0x00, 0xbe, 0x43, 0xa0, 0x18, 0xbd,
  0xb7, 0x3e, 0xaa, 0x3e, 0x43, 0x8e, 0x4e, 0xbe, 0x04, 0x1b, 0x98, 0xbc,
  0x56, 0x58, 0x3f, 0xbe, 0xff, 0xf3, 0xd1, 0xbd, 0x93, 0x1d, 0x56, 0xbe,
  0x7b, 0xe0, 0x09, 0xbf, 0x49, 0x09, 0x0d, 0x3c, 0x1b, 0xdd, 0xad, 0xbe,
  0xed, 0x01, 0x17, 0xbe, 0x9f, 0xb8, 0xf8, 0x3d, 0x73, 0x4c, 0xf5, 0xbc,
  0x1f, 0x59, 0x2b, 0xbd, 0x37, 0x93, 0xe8, 0xbd, 0x43, 0x96, 0xb9, 0xbd,
  0xa8, 0x5c, 0x3c, 0xbd, 0x5b, 0x2e, 0xba, 0x3e, 0xc4, 0xfa, 0x5f, 0xbe,
  0x9a, 0x7b, 0x55, 0xbd, 0x99, 0x45, 0x6e, 0x3e, 0x20, 0x11, 0xb5, 0xbe,
  0x9d, 0x88, 0xbb, 0xbe, 0x83, 0x53, 0x1a, 0xbf, 0xbf, 0xdf, 0x8d, 0xbd,
  0x3b, 0x91, 0x71, 0x3d, 0xfa, 0x81, 0x0c, 0xbe, 0x22, 0x5f, 0xdf, 0x3d,
  0x8b, 0xd9, 0x61, 0x3e, 0xce, 0x18, 0xe8, 0x3e, 0x45, 0x4a, 0x63, 0xbd,
  0x25, 0xc9, 0x06, 0xbe, 0xf1, 0x9e, 0xa0, 0xbc, 0xd7, 0x29, 0x1a, 0x3f,
  0x2a, 0x12, 0xa5, 0x3e, 0xee, 0x5e, 0xa9, 0xbc, 0x7c, 0x93, 0x0a, 0x3e,
  0x65, 0x13, 0x2c, 0xbc, 0x9f, 0xb0, 0xbb, 0xbd, 0xeb, 0xd6, 0x53, 0xbe,
  0x07, 0x6b, 0xe6, 0xbd, 0xf9, 0x2a, 0xbd, 0x3e, 0x08, 0xfa, 0xef, 0xbd,
  0x1e, 0x1b, 0x62, 0xbe, 0x2e, 0x9b, 0x27, 0x3e, 0x05, 0x5b, 0x9d, 0x3e,
  0x85, 0x1c, 0x94, 0xbc, 0x35, 0x9f, 0x2a, 0x3d, 0x44, 0xc1, 0x1e, 0xbe,
  0xa2, 0x1e, 0xd7, 0x3e, 0xc0, 0xe5, 0x95, 0x3e, 0x40, 0x72, 0x93, 0x3c,
  0xba, 0x31, 0x35, 0x3d, 0xe5, 0xcb, 0x32, 0x3e, 0xe1, 0xa8, 0xc4, 0xbc,
  0x66, 0xca, 0x80, 0xbc, 0x9d, 0x2f, 0x2c, 0x3d, 0x4d, 0x00, 0x8a, 0x3e,
  0x3a, 0x01, 0x48, 0x3d, 0xbb, 0xaa, 0x05, 0xbe, 0x2e, 0x46, 0x8b, 0x3d,
  0xa0, 0xc1, 0xda, 0xbc, 0x7f, 0x7d, 0xdf, 0xbb, 0xc9, 0x25, 0x6d, 0x3d,
  0x43, 0x37, 0x3b, 0xbe, 0x53, 0x01, 0xfc, 0xbd, 0x73, 0x88, 0x2e, 0x3d,
  0xf0, 0x57, 0x72, 0x3c, 0xbe, 0x40, 0x03, 0xbe, 0x82, 0x61, 0x61, 0x3e,
  0xa7, 0xee, 0x52, 0x3d, 0xeb, 0xe4, 0x0b, 0xbc, 0x4e, 0x2d, 0x66, 0x3b,
  0x99, 0x0f, 0x53, 0xbc, 0x5f, 0xf4, 0xbc, 0xbb, 0xb8, 0xe4, 0x50, 0xbe,
  0x33, 0x87, 0xd3, 0xbe, 0x73, 0x90, 0x83, 0xbe, 0xd1, 0xa9, 0x8e, 0x3d,
  0x91, 0xf5, 0x2a, 0xbf, 0x23, 0xbd, 0x51, 0x3e, 0x4c, 0x66, 0x26, 0x3d,
  0xc4, 0x92, 0x5a, 0xbe, 0x26, 0x91, 0xdd, 0x3c, 0x49, 0x09, 0x1e, 0x3e,
  0xf1, 0x6c, 0xac, 0x3c, 0x06, 0xa1, 0x7d, 0xbe, 0xe6, 0xf7, 0xf8, 0xbd,
  0xaf, 0xa5, 0xb5, 0xbe, 0x6e, 0x0e, 0x73, 0x3d, 0x05, 0xab, 0x05, 0x3e,
  0x84, 0x26, 0xa5, 0x3e, 0x29, 0x9e, 0xcc, 0xbe, 0x58, 0x46, 0x03, 0x3f,
  0xf7, 0x22, 0xdf, 0x3c, 0xd8, 0x7a, 0xc6, 0xbe, 0xb8, 0x60, 0x8f, 0x3e,
  0xdc, 0x2b, 0x61, 0x3e, 0xe2, 0xcb, 0x9e, 0x3e, 0x68, 0xf8, 0xb2, 0x3d,
  0xfd, 0x66, 0xdd, 0x3e, 0x77, 0xf0, 0xc4, 0x3e, 0xd3, 0xdb, 0xd5, 0xbe,
  0x14, 0x00, 0x4c, 0xbe, 0x2c, 0x70, 0xcd, 0xbd, 0x05, 0x11, 0x09, 0x3d,
  0x6b, 0x33, 0x0b, 0xbe, 0x31, 0x7f, 0xda, 0x3d, 0x16, 0x1c, 0xbf, 0xbd,
  0x53, 0xaf, 0x7e, 0x3d, 0xe3, 0x59, 0xa7, 0xbc, 0x9e, 0x74, 0xe9, 0xbd,
  0xbe, 0xae, 0x5a, 0x3e, 0x3c, 0xf0, 0xa6, 0x3e, 0x22, 0xaf, 0xa1, 0x3e,
  0xf0, 0x01, 0x9b, 0x3d, 0x0a, 0x8c, 0x9e, 0x3e, 0xb4, 0x87, 0x47, 0xbd,
  0x70, 0xe7, 0x53, 0xbe, 0xdb, 0x9d, 0xc0, 0xbb, 0x33, 0xf5, 0x02, 0x3d,
  0x46, 0x85, 0xdc, 0x3b, 0x8d, 0x09, 0x48, 0x3d, 0xdf, 0x72, 0xba, 0x3d,
  0x6e, 0x8e, 0x18, 0xbe, 0x7e, 0x39, 0xed, 0x3e, 0xd2, 0xaa, 0x28, 0x3e,
  0xb2, 0xb8, 0x1a, 0xbe, 0x57, 0x3f, 0x34, 0x3e, 0x6a, 0x69, 0x0e, 0x3e,
  0x7f, 0x5c, 0x5c, 0x3c, 0x0c, 0x32, 0x57, 0x3d, 0x06, 0xf7, 0x66, 0x3e,
  0x57, 0xe7, 0x67, 0xbe, 0x26, 0x21, 0x90, 0xbe, 0x4d, 0x58, 0xc7, 0x3c,
  0x75, 0x6d, 0xd8, 0xbd, 0x82, 0x2c, 0x92, 0x3a, 0x89, 0xf6, 0xb8, 0xbc,
  0x84, 0x24, 0x2e, 0x3e, 0x7d, 0x14, 0xba, 0xbe, 0x5d, 0x73, 0x80, 0x3e,
  0x3e, 0xb6, 0xd1, 0xbc, 0xf2, 0x0e, 0x62, 0xbe, 0xc0, 0x88, 0x77, 0x3d,
  0x08, 0x1b, 0x3f, 0x3e, 0x9e, 0x1d, 0x3d, 0x3e, 0xbb, 0x43, 0xa2, 0x3d,
  0x2f, 0x74, 0xe7, 0x3e, 0x9b, 0x40, 0xaf, 0x3e, 0xc8, 0x24, 0x3d, 0xbe,
  0x91, 0xca, 0xa2, 0xbc, 0xcd, 0x3d, 0x8f, 0x3d, 0xe7, 0x17, 0x30, 0x3e,
  0x59, 0x0d, 0x6f, 0x3e, 0x06, 0x7e, 0xc7, 0x3e, 0xcd, 0x15, 0xe8, 0xbe,
  0xbc, 0xb0, 0x07, 0x3e, 0x04, 0x38, 0x01, 0x3e, 0xdb, 0xdf, 0x39, 0xbe,
  0x7c, 0x38, 0xd9, 0x3d, 0xcb, 0x50, 0x92, 0x3e, 0x54, 0x6b, 0x94, 0x3d,
  0x7e, 0x1b, 0xee, 0xba, 0x22, 0x3b, 0xe0, 0x3e, 0x37, 0x43, 0xa3, 0x3d,
  0xef, 0xea, 0x8f, 0xbe, 0x94, 0x08, 0x0f, 0xbe, 0x30, 0x43, 0x14, 0xbd,
  0x73, 0xda, 0xea, 0xbd, 0xaf, 0x36, 0x34, 0x3e, 0x61, 0xdc, 0x75, 0x3e,
  0x3c, 0x0d, 0xbc, 0xbe, 0x19, 0x18, 0xa2, 0x3c, 0x31, 0x33, 0xbf, 0x3d,
  0x36, 0xbe, 0x2c, 0xbe, 0xa2, 0x44, 0x88, 0x3d, 0x30, 0xd7, 0x91, 0x3e,
  0xd0, 0xa0, 0x81, 0x3d, 0x8e, 0x43, 0xaf, 0xbc, 0x3f, 0xcf, 0xd2, 0x3e,
  0xd8, 0x69, 0x8e, 0xbe, 0x63, 0xf7, 0x42, 0xbe, 0x65, 0x97, 0xf8, 0xbd,
  0x26, 0xf6, 0x63, 0xbd, 0xda, 0x2b, 0xf8, 0x3d, 0x4a, 0x8d, 0xfd, 0xbc,
  0x10, 0xab, 0x48, 0x3d, 0x2e, 0x5e, 0x56, 0x3f, 0xea, 0x62, 0x85, 0x3c,
  0x2d, 0x73, 0xd5, 0xbc, 0x18, 0xca, 0x39, 0xbe, 0xa8, 0x70, 0x44, 0x3e,
  0xdf, 0x94, 0x9f, 0x3f, 0xc0, 0x1f, 0x90, 0xbe, 0xb5, 0x90, 0x9b, 0xbe,
  0x4d, 0x81, 0x10, 0x3f, 0x37, 0x69, 0x74, 0xbd, 0xe4, 0x49, 0x89, 0xbe,
  0xba, 0xe0, 0x3a, 0xbe, 0xaa, 0xab, 0x0b, 0xbe, 0xc3, 0xab, 0xee, 0x3d,
  0x21, 0x7d, 0x8b, 0x3c, 0x6e, 0xe5, 0xa0, 0xbc, 0xb1, 0xd1, 0x00, 0x3f,
  0x56, 0xe0, 0xa0, 0xbd, 0x22, 0x3a, 0x1b, 0xbc, 0x1d, 0x2e, 0x25, 0xbe,
  0x25, 0x58, 0x08, 0xbe, 0x7f, 0xb2, 0x95, 0x3f, 0x63, 0x44, 0x85, 0x3d,
  0x77, 0xab, 0x51, 0xbe, 0xa8, 0x08, 0xb1, 0x3e, 0x87, 0x4a, 0x29, 0x3e,
  0x79, 0xf6, 0x9c, 0xbe, 0x3d, 0x21, 0x5b, 0xbe, 0xfd, 0xc3, 0x80, 0xbe,
  0x78, 0xea, 0xf3, 0xbd, 0xe4, 0xa8, 0x4a, 0xbe, 0xc4, 0x21, 0xb1, 0x3c,
  0xe3, 0x8d, 0x5d, 0x3f, 0xa6, 0xca, 0x7a, 0xbd, 0x4f, 0x2a, 0xec, 0xbc,
  0xb6, 0x99, 0x43, 0xbd, 0xf1, 0xee, 0x00, 0xbe, 0x65, 0x3e, 0xb4, 0x3f,
  0x62, 0x2d, 0x21, 0xbd, 0xaa, 0x32, 0x99, 0xbe, 0x83, 0x6d, 0x01, 0x3f,
  0xb0, 0xce, 0x40, 0xbb, 0xb7, 0x62, 0x19, 0xbe, 0x89, 0xb1, 0x15, 0x3e,
  0xdb, 0x1c, 0x7f, 0xbb, 0xda, 0x43, 0xbe, 0x3c, 0x08, 0xcb, 0x17, 0x3e,
  0xaa, 0x1b, 0xe8, 0xbd, 0xa1, 0x4a, 0x2b, 0x3f, 0x47, 0x38, 0x34, 0x3e,
  0xd2, 0x00, 0x9f, 0xbe, 0xe7, 0xfd, 0x20, 0xbe, 0xd8, 0x04, 0x23, 0xbd,
  0x7b, 0xa5, 0x57, 0x3f, 0xe3, 0x07, 0x10, 0xbe, 0x43, 0xab, 0x0d, 0xbe,
  0x10, 0xd8, 0xf3, 0x3e, 0x45, 0x24, 0x2a, 0x3d, 0x64, 0x2b, 0x75, 0xbd,
  0x68, 0x73, 0x6c, 0xbb, 0xe5, 0xf5, 0x38, 0xbe, 0x43, 0xa6, 0x1c, 0x3c,
  0x88, 0x2d, 0x3f, 0xbe, 0x47, 0x06, 0xd7, 0xbb, 0x4f, 0xa3, 0x06, 0x3f,
  0x77, 0xa9, 0xff, 0x3d, 0x50, 0x8e, 0xae, 0x3d, 0x2e, 0x39, 0x61, 0xbe,
  0x8e, 0x7f, 0xe1, 0xbc, 0x65, 0x5a, 0x56, 0x3f, 0x41, 0x04, 0x09, 0xbe,
  0x42, 0x39, 0x3e, 0xbe, 0x86, 0x8b, 0xa3, 0x3e, 0x1b, 0xa9, 0x57, 0x3c,
  0xa1, 0xb1, 0x7e, 0xbe, 0xbe, 0x17, 0xc6, 0x3d, 0xaf, 0xe9, 0xe4, 0x3c,
  0x4b, 0x88, 0x49, 0xbd, 0x7c, 0x86, 0x44, 0x3e, 0xf6, 0xc6, 0x4d, 0x3d,
  0x11, 0xb1, 0x92, 0x3e, 0x79, 0x07, 0xc7, 0xbd, 0xd3, 0x10, 0xf3, 0xbd,
  0x1c, 0xb7, 0x6a, 0xbe, 0xb8, 0xc1, 0xc2, 0xbb, 0x7a, 0x3b, 0x96, 0x3f,
  0xc6, 0xf9, 0x81, 0xbe, 0xb6, 0x43, 0x81, 0xbe, 0x10, 0x06, 0x99, 0x3e,
  0x5d, 0x93, 0x91, 0x3d, 0xac, 0x9c, 0x1e, 0xbe, 0x7e, 0x8e, 0xf7, 0x3c,
  0x76, 0x4a, 0xff, 0xbd, 0xda, 0x12, 0xa3, 0x3d, 0x65, 0x11, 0x88, 0xbd,
  0x75, 0xc0, 0x6a, 0xbc, 0x3a, 0x21, 0x95, 0x3e, 0x51, 0x39, 0xf4, 0xbd,
  0x6d, 0x1c, 0x9a, 0xbe, 0xab, 0x8e, 0x9d, 0xbe, 0x67, 0xa3, 0x13, 0xbe,
  0x7e, 0x4e, 0x6d, 0x3e, 0x9e, 0x57, 0x50, 0xbe, 0x0c, 0x81, 0xb5, 0xbe,
  0xa0, 0x8f, 0x6a, 0x3d, 0x0b, 0x06, 0x4b, 0x3e, 0xe5, 0xc2, 0x6e, 0xbe,
  0xbc, 0x23, 0xce, 0x3c, 0xb1, 0x58, 0x4a, 0xbe, 0xdc, 0x63, 0x17, 0xbc,
  0x8c, 0x48, 0x61, 0xbb, 0x45, 0x80, 0x1d, 0x3e, 0x88, 0x8b, 0xd3, 0xbd,
  0x77, 0x8c, 0x83, 0xbe, 0x21, 0xbc, 0x52, 0xbd, 0xc6, 0xb8, 0x31, 0xbf,
  0x93, 0xd2, 0x87, 0xbe, 0xc3, 0x93, 0x75, 0x3c, 0x3c, 0x1b, 0x27, 0xbd,
  0x0c, 0xc0, 0xe3, 0xbd, 0xd4, 0x35, 0x15, 0x3d, 0xe7, 0x4b, 0x1d, 0xbe,
  0x1b, 0x3d, 0xbb, 0xbe, 0xd7, 0xe4, 0xf2, 0xbd, 0x26, 0x6f, 0xb5, 0xbe,
  0x4b, 0x8e, 0x92, 0xbd, 0x3f, 0x1e, 0xaf, 0xbd, 0x9a, 0x0c, 0x1e, 0xbd,
  0x6e, 0xab, 0xb6, 0xbe, 0x42, 0xb7, 0x17, 0xbe, 0xd7, 0xcb, 0xcc, 0xbc,
  0xb0, 0x27, 0x79, 0xbe, 0x3f, 0x08, 0xdc, 0x3d, 0x06, 0x51, 0x8e, 0x3c,
  0x09, 0xae, 0xf6, 0xbb, 0xd4, 0x05, 0xaa, 0xbd, 0x38, 0xd8, 0x93, 0xbc,
  0x58, 0x93, 0x06, 0xbd, 0x20, 0x30, 0x64, 0xbe, 0x3b, 0x5b, 0x1f, 0x3d,
  0xa2, 0x85, 0x1b, 0xbf, 0x3c, 0xc7, 0x56, 0xbc, 0x51, 0xb4, 0x73, 0x3e,
  0xd3, 0x66, 0x09, 0x3c, 0xe1, 0x06, 0x0c, 0xbe, 0x46, 0xad, 0x0a, 0xbd,
  0x81, 0xf7, 0x8c, 0xbd, 0x26, 0x0d, 0x43, 0xbd, 0xe4, 0x91, 0x72, 0xbe,
  0x30, 0x68, 0xb2, 0x3c, 0x91, 0xfe, 0x67, 0xbc, 0xd1, 0x17, 0x82, 0xbd,
  0xb7, 0x22, 0x03, 0x3c, 0x73, 0xd2, 0x4e, 0xbe, 0x2f, 0xfc, 0xc1, 0xbe,
  0xed, 0x2d, 0xda, 0x3d, 0xcf, 0xe3, 0x04, 0xbf, 0xcb, 0xc2, 0xb0, 0x3b,
  0x27, 0x44, 0xb4, 0xbc, 0x0b, 0x83, 0x43, 0xbd, 0x15, 0x1d, 0x52, 0xbe,
  0x06, 0x7b, 0x0f, 0xbe, 0x40, 0x0e, 0x58, 0x3c, 0x16, 0xe4, 0xfa, 0xbe,
  0x20, 0xff, 0x9b, 0xbc, 0xfd, 0xe3, 0x02, 0xbe, 0x6c, 0x7f, 0xdb, 0x3d,
  0x3e, 0xb6, 0xa3, 0xbd, 0x18, 0xe8, 0x67, 0x3c, 0x51, 0xc4, 0x6c, 0xbe,
  0x83, 0xa9, 0xd8, 0xbe, 0x6d, 0x32, 0x9d, 0xbe, 0xeb, 0x5a, 0x94, 0xbe,
  0x1c, 0x4c, 0x62, 0xbe, 0xff, 0xf0, 0xdd, 0x3d, 0x04, 0x87, 0x32, 0x3e,
  0x5c, 0x05, 0xab, 0x3e, 0x75, 0xb5, 0xfb, 0x3e, 0x3f, 0x84, 0x45, 0x3d,
  0xb1, 0x1f, 0x62, 0xbe, 0x93, 0x4e, 0x47, 0xbe, 0x8b, 0xcb, 0x88, 0xbe,
  0xf0, 0xe6, 0x22, 0x3e, 0xb7, 0xa0, 0x5e, 0xbd, 0x24, 0x04, 0x55, 0x3d,
  0x7c, 0xeb, 0xaa, 0x3d, 0xee, 0x60, 0x99, 0xbd, 0x17, 0xe9, 0x88, 0xbb,
  0x01, 0x35, 0xf6, 0xbe, 0xe4, 0x8e, 0x09, 0x3f, 0xb1, 0x79, 0x1d, 0xbe,
  0xef, 0x8f, 0xa9, 0xbd, 0x85, 0x2c, 0x06, 0x3e, 0xf3, 0xe0, 0x10, 0x3f,
  0x95, 0x43, 0xb5, 0x3c, 0x61, 0x3b, 0xca, 0xbd, 0xe1, 0x2b, 0xaf, 0xbe,
  0x92, 0x22, 0x1f, 0xbe, 0xac, 0xdf, 0xf3, 0x3e, 0x07, 0x9a, 0x06, 0xbe,
  0x40, 0x4e, 0xe1, 0x3d, 0x9a, 0x45, 0xac, 0x3e, 0x66, 0x8a, 0x4b, 0xbe,
  0x3f, 0xe2, 0xf9, 0x3d, 0xc8, 0xea, 0xef, 0xbe, 0x8e, 0x83, 0x16, 0x3f,
  0xb6, 0xb3, 0x69, 0x3d, 0xf6, 0x24, 0xb8, 0x3d, 0x05, 0x81, 0xc8, 0x3d,
  0x6b, 0xe9, 0x1d, 0x3e, 0xfc, 0x3d, 0x6e, 0x3d, 0xa5, 0x58, 0xaa, 0x3c,
  0xc8, 0xc6, 0x14, 0x3e, 0x64, 0xdd, 0x20, 0xbe, 0x7f, 0x44, 0xbe, 0x3d,
  0x07, 0xf9, 0x0f, 0x3c, 0x58, 0x64, 0x88, 0xbe, 0x6d, 0xc5, 0x95, 0x3e,
  0xa9, 0x04, 0xb4, 0x3d, 0x12, 0x94, 0x85, 0x3d, 0x37, 0xba, 0x0b, 0xbe,
  0x4e, 0x65, 0xf3, 0x3d, 0x00, 0xdf, 0x06, 0x3e, 0xc0, 0x29, 0xe2, 0x3d,
  0x9d, 0x49, 0x38, 0x3f, 0x1d, 0x3e, 0x31, 0xbe, 0x3f, 0x13, 0xe7, 0xbe,
  0x2e, 0x52, 0xf9, 0x3d, 0xfc, 0x40, 0x17, 0xbe, 0x5d, 0xfc, 0x49, 0x3f,
  0x6a, 0x1c, 0x62, 0xbe, 0xcb, 0xf8, 0x33, 0xbd, 0xe5, 0x86, 0xc5, 0x3d,
  0xb1, 0x4e, 0x4c, 0xbe, 0xd1, 0xb4, 0x45, 0xbe, 0xce, 0x9f, 0x99, 0xbe,
  0x96, 0x02, 0xac, 0x3d, 0xfe, 0xe3, 0xa3, 0xbc, 0x5b, 0x2c, 0xc0, 0xbe,
  0xee, 0xc7, 0xd5, 0xbd, 0x4c, 0x2d, 0x4e, 0x3f, 0xb6, 0x55, 0xc6, 0x3c,
  0xe6, 0x69, 0xa7, 0xbe, 0x6f, 0x4d, 0x81, 0xbe, 0x0f, 0xcb, 0x4e, 0xbe,
  0xbf, 0xf5, 0x31, 0x3f, 0xba, 0xfd, 0x8a, 0x3d, 0x73, 0x09, 0xb0, 0xbd,
  0x5e, 0xc0, 0xd5, 0x3d, 0x6b, 0x6e, 0x2f, 0x3d, 0xe2, 0x3b, 0x4a, 0xbd,
  0x18, 0xb9, 0xb3, 0x3d, 0x0b, 0x06, 0x4e, 0x3d, 0x7b, 0xb3, 0x9a, 0x3d,
  0x27, 0xa0, 0x7e, 0x3d, 0x9a, 0x3e, 0x9d, 0xbd, 0x8b, 0x42, 0x8a, 0x3e,
  0xd5, 0xb5, 0x53, 0x3e, 0xf0, 0x50, 0x23, 0xbe, 0x71, 0xe3, 0x46, 0x3e,
  0x05, 0xcf, 0x32, 0xbe, 0xc2, 0xac, 0xe6, 0x3e, 0xc2, 0xd2, 0x97, 0x3e,
  0x3b, 0xed, 0x2d, 0xbd, 0xd6, 0xf5, 0x42, 0x3e, 0x84, 0x47, 0xaf, 0x3d,
  0xc8, 0xea, 0xb3, 0xbd, 0x41, 0xaa, 0x66, 0xbe, 0xd2, 0xce, 0x25, 0x3d,
  0x08, 0x0e, 0xaa, 0x3e, 0x64, 0x49, 0xbf, 0xbd, 0x79, 0x1b, 0x6d, 0x3d,
  0xb7, 0xa0, 0x4c, 0x3e, 0xa8, 0x72, 0x5e, 0x3e, 0x30, 0xf8, 0x70, 0xbe,
  0xd0, 0xd4, 0xb3, 0x3e, 0xb3, 0x7c, 0xe4, 0xbc, 0x20, 0x3d, 0x3b, 0x3f,
  0xda, 0x85, 0x31, 0x3e, 0xc9, 0x83, 0x45, 0xbd, 0x5c, 0x8b, 0x4e, 0xbe,
  0xa8, 0x07, 0x1e, 0x3d, 0x1a, 0x39, 0x2f, 0x3d, 0x78, 0xa0, 0x49, 0xbe,
  0xda, 0xe1, 0x2e, 0x3e, 0xb5, 0x28, 0xc4, 0x3e, 0x7d, 0x66, 0x80, 0xbe,
  0x2a, 0x11, 0xf6, 0xbc, 0x43, 0x06, 0x8d, 0x3e, 0x7d, 0x16, 0x00, 0xbe,
  0x2f, 0x39, 0x07, 0xbf, 0x4c, 0xa6, 0x17, 0x3e, 0x0d, 0x73, 0x2c, 0xbe,
  0x3b, 0x60, 0x37, 0x3f, 0x62, 0x47, 0x84, 0xbe, 0xcf, 0x2c, 0x72, 0xbd,
  0x73, 0x4b, 0x73, 0x3e, 0xc1, 0x43, 0xf5, 0x3c, 0x0c, 0x08, 0xfd, 0x3c,
  0x2a, 0xc9, 0xe0, 0xbe, 0x6c, 0x01, 0xe0, 0x3d, 0x08, 0x68, 0xd5, 0xbd,
  0x90, 0x5d, 0x93, 0xbe, 0xe5, 0xe8, 0x9c, 0xbd, 0xe6, 0xb1, 0xdb, 0xbc,
  0xff, 0xb7, 0xbe, 0xbe, 0xdb, 0xb4, 0xc1, 0xbe, 0x5c, 0xae, 0x3f, 0x3d,
  0x9c, 0xb0, 0xa5, 0xbe, 0xa9, 0xea, 0xaf, 0x3e, 0xf6, 0x10, 0xa5, 0xbe,
  0x4a, 0xdb, 0x99, 0x3d, 0x6b, 0xad, 0x37, 0x3e, 0xe5, 0x9c, 0x50, 0xbe,
  0x98, 0xdc, 0x24, 0x3e, 0x6d, 0x3d, 0xdd, 0xbe, 0x8e, 0x20, 0xd1, 0x3d,
  0x33, 0xc6, 0xb9, 0xbe, 0x16, 0x93, 0xd9, 0xbe, 0x6e, 0x34, 0x5e, 0x3c,
  0x87, 0x2a, 0x48, 0x3e, 0x20, 0x6b, 0x5c, 0xbe, 0xa2, 0x11, 0xcf, 0xbe,
  0xa4, 0x0c, 0xd6, 0x3d, 0x23, 0x4a, 0xf8, 0xbe, 0xa3, 0x9f, 0x23, 0xbe,
  0x04, 0xae, 0xd9, 0xbd, 0x6b, 0xc1, 0xb1, 0x3d, 0xba, 0xaa, 0x75, 0xbe,
  0xfe, 0x8b, 0x97, 0xbd, 0xb5, 0x0b, 0x06, 0x3e, 0x2b, 0x7d, 0x19, 0xbc,
  0x47, 0x23, 0x27, 0x3d, 0xdd, 0xbe, 0xa9, 0xbe, 0x9b, 0x81, 0xab, 0xbe,
  0x92, 0xe3, 0x65, 0xbe, 0x3b, 0xba, 0xf1, 0x3e, 0xea, 0x78, 0xa1, 0xbd,
  0x8a, 0xe5, 0xa1, 0xbe, 0xf8, 0x25, 0x6e, 0x3d, 0x50, 0x4f, 0x36, 0xbd,
  0x2a, 0xfe, 0x90, 0x3f, 0x69, 0xf1, 0x73, 0xbe, 0x97, 0x1b, 0x72, 0xbe,
  0xb9, 0xa7, 0xe0, 0x3e, 0xeb, 0x93, 0x9d, 0xbe, 0xc5, 0x23, 0x5e, 0xbd,
  0xdd, 0xc2, 0xbc, 0xbd, 0xcd, 0xc2, 0x0e, 0x3d, 0x97, 0x3f, 0x51, 0xbe,
  0xa6, 0xf4, 0x31, 0xbc, 0xda, 0x09, 0x18, 0x3e, 0x41, 0x90, 0xb4, 0x3e,
  0xd9, 0x84, 0x02, 0xbe, 0x49, 0xd1, 0x91, 0x3d, 0xd3, 0xe4, 0x20, 0xbe,
  0x62, 0xa7, 0x39, 0xbb, 0xbb, 0x68, 0x99, 0x3f, 0x6b, 0xc6, 0x35, 0xbe,
  0xe4, 0x37, 0x7d, 0xbe, 0x5b, 0xff, 0x53, 0x3e, 0x97, 0x93, 0x2f, 0x3d,
  0xb2, 0xad, 0xdb, 0x3c, 0x69, 0x8a, 0x18, 0xbe, 0x6c, 0xd8, 0x9a, 0xba,
  0x90, 0x3d, 0x05, 0x3e, 0xb7, 0x95, 0x35, 0xbe, 0x22, 0x09, 0x34, 0xbe,
  0xd1, 0x10, 0xc8, 0x3e, 0xef, 0x3e, 0x51, 0xbe, 0x04, 0x3d, 0x19, 0xbe,
  0x83, 0x14, 0x02, 0x3e, 0xb2, 0x5d, 0x47, 0x3c, 0x5f, 0xf6, 0xa2, 0x3f,
  0xad, 0xb2, 0xf8, 0xbd, 0x38, 0x4a, 0xb8, 0xbe, 0x81, 0xf2, 0x15, 0x3f,
  0xd1, 0x37, 0xc9, 0x3e, 0x8c, 0x66, 0x80, 0xbe, 0x42, 0x6a, 0x77, 0xbe,
  0x67, 0x18, 0xd7, 0xbc, 0xed, 0xd9, 0x37, 0x3e, 0x8a, 0x03, 0xe4, 0x3d,
  0x85, 0x40, 0xd7, 0x3d, 0x0b, 0x24, 0x6c, 0x3e, 0xe2, 0xe9, 0x99, 0xbc,
  0x6b, 0x4b, 0x6b, 0xb9, 0x94, 0xb5, 0xe6, 0xbd, 0x0c, 0x2e, 0x4f, 0xbe,
  0xc6, 0x90, 0x85, 0x3f, 0xd6, 0x95, 0x11, 0xbe, 0x1b, 0x1e, 0x8e, 0xbe,
  0x97, 0x3c, 0xa2, 0x3e, 0x20, 0x90, 0x11, 0x3f, 0x2c, 0xa6, 0xa9, 0xbd,
  0xb0, 0x0c, 0xb1, 0xbd, 0xf4, 0x9e, 0xd6, 0xbc, 0xb0, 0xe2, 0x3e, 0x3e,
  0x6d, 0x39, 0xa5, 0xbd, 0x41, 0x5e, 0x4c, 0xbe, 0xcf, 0xcf, 0x9f, 0x3e,
  0x1b, 0x73, 0xde, 0xbd, 0xe6, 0xdf, 0x5d, 0xbe, 0x79, 0xf7, 0x23, 0xbe,
  0xfa, 0x30, 0xb7, 0xbd, 0x2b, 0x26, 0xb9, 0x3f, 0x36, 0x04, 0x27, 0xbe,
  0xfd, 0x88, 0xdc, 0xbe, 0xe7, 0x6e, 0x14, 0x3f, 0x89, 0xa6, 0x43, 0x3e,
  0xf8, 0xc9, 0xe7, 0xbd, 0xbb, 0xba, 0x1e, 0x3d, 0x41, 0xb5, 0xc7, 0xbd,
  0x7a, 0x9f, 0xf1, 0xbd, 0x7c, 0x88, 0x04, 0xbe, 0xf2, 0x33, 0xf5, 0xbc,
  0x25, 0x31, 0x88, 0x3d, 0xe8, 0xb7, 0x8c, 0x3d, 0x3a, 0xa6, 0x80, 0xbe,
  0x3d, 0x75, 0x65, 0x3d, 0xd9, 0x55, 0x18, 0x3d, 0x90, 0x8b, 0x8a, 0x3f,
  0x73, 0xeb, 0x32, 0xbd, 0x77, 0x8e, 0x93, 0xbe, 0xb5, 0x77, 0xba, 0x3e,
  0xa1, 0x6e, 0x5f, 0xbe, 0x9b, 0xe1, 0x89, 0xbe, 0xfd, 0x4a, 0x51, 0x3d,
  0xf2, 0x45, 0xdf, 0x3d, 0xf0, 0x6d, 0xc3, 0xbd, 0xb9, 0x39, 0x39, 0xbe,
  0x9a, 0xcd, 0xf5, 0x3d, 0x31, 0xd8, 0x57, 0x3e, 0x13, 0x48, 0x5a, 0xbe,
  0x68, 0xd3, 0x04, 0xbe, 0x5f, 0x37, 0x56, 0xbe, 0x20, 0x3a, 0x4d, 0xbd,
  0x84, 0xc6, 0x59, 0xbe, 0xc7, 0x97, 0xe9, 0x3c, 0x48, 0x43, 0x84, 0xbe,
  0x71, 0xd7, 0x61, 0x3d, 0x26, 0xab, 0x02, 0x3e, 0x4f, 0x08, 0x47, 0xbe,
  0x33, 0xda, 0x03, 0xbe, 0x02, 0x41, 0x59, 0xbe, 0x3d, 0x1d, 0xc0, 0xbd,
  0x17, 0x62, 0x48, 0xbd, 0x1b, 0xe6, 0xa8, 0xbd, 0xe4, 0x8b, 0x21, 0xbe,
  0x89, 0x56, 0x60, 0xbe, 0xae, 0x5a, 0x42, 0xbe, 0x03, 0xfd, 0x11, 0xbd,
  0x30, 0x45, 0xb8, 0x3c, 0xc4, 0xcc, 0x1a, 0xbe, 0x7e, 0x03, 0xdc, 0x3c,
  0x51, 0x0d, 0x56, 0xbe, 0x06, 0x96, 0x50, 0xbe, 0x89, 0xe9, 0xf9, 0x3c,
  0x0f, 0xce, 0x63, 0xbd, 0x5e, 0x3c, 0x63, 0x3d, 0x27, 0xc0, 0x5c, 0xbe,
  0x36, 0x80, 0x4f, 0xbe, 0xd1, 0xcf, 0xbe, 0x3d, 0x0d, 0xd0, 0xa5, 0x3d,
  0x2a, 0x05, 0xad, 0x3d, 0x28, 0xa9, 0x31, 0x3e, 0xd5, 0x33, 0xb9, 0x3d,
  0x85, 0xe4, 0x0d, 0x3a, 0x2f, 0x19, 0xb4, 0x3a, 0x30, 0x92, 0x75, 0x3d,
  0x44, 0x27, 0xae, 0xbd, 0xfc, 0x4a, 0x30, 0xbd, 0x5a, 0x48, 0xe7, 0xbb,
  0x1d, 0x1a, 0xde, 0xbc, 0x87, 0x6d, 0x62, 0xbe, 0xc3, 0x41, 0x37, 0xbe,
  0x2a, 0xe9, 0x85, 0x3d, 0xb0, 0xbf, 0x80, 0x3e, 0x9c, 0xc0, 0x0a, 0xbe,
  0xac, 0xda, 0x35, 0x3e, 0x56, 0xcd, 0x36, 0xbe, 0x81, 0x4c, 0x5a, 0x3d,
  0xf7, 0x8d, 0x88, 0x3d, 0xa5, 0xae, 0x60, 0x3e, 0x84, 0x30, 0x32, 0xbe,
  0x96, 0xe2, 0x06, 0xbe, 0x16, 0x43, 0x71, 0xbe, 0x83, 0xeb, 0x71, 0xbe,
  0xc0, 0x91, 0x30, 0x3d, 0x82, 0xbd, 0x40, 0x3e, 0x5f, 0x36, 0x70, 0xbe,
  0x60, 0xab, 0xff, 0xbd, 0x90, 0x99, 0x9b, 0xbe, 0xcb, 0x88, 0x2c, 0x3e,
  0x47, 0x28, 0xe7, 0xbd, 0x5a, 0xba, 0x79, 0xbe, 0xd3, 0xf4, 0x8a, 0x3d,
  0x78, 0xa3, 0x50, 0x3d, 0xa0, 0x54, 0x1f, 0x3d, 0xe0, 0x23, 0x88, 0x3d,
  0x3e, 0x48, 0x43, 0xbe, 0xbf, 0x2f, 0x01, 0xbe, 0x71, 0x78, 0x4f, 0xbd,
  0xe5, 0x1b, 0x56, 0xbe, 0x1c, 0x97, 0xf3, 0x3c, 0x12, 0xfc, 0x28, 0x3e,
  0x92, 0x46, 0x86, 0xbe, 0xaf, 0x6d, 0x4b, 0xbe, 0x07, 0xcf, 0x02, 0xbe,
  0xec, 0x86, 0x47, 0xbe, 0x9b, 0x02, 0x63, 0xbe, 0x5a, 0x36, 0x10, 0x3d,
  0x25, 0x4c, 0x04, 0x3d, 0x31, 0xae, 0x8b, 0x3c, 0xd6, 0x94, 0x63, 0x3d,
  0x00, 0xb8, 0x5e, 0xbe, 0x33, 0xe4, 0x0f, 0xbe, 0xe8, 0x9f, 0x86, 0xbd,
  0x34, 0xba, 0x5e, 0xbe, 0x36, 0xa5, 0x3e, 0x3d, 0x7a, 0x0e, 0x86, 0xbd,
  0x60, 0xc0, 0x04, 0xbe, 0x20, 0x54, 0x62, 0xbe, 0x8b, 0x83, 0x1d, 0xbd,
  0x66, 0xee, 0x21, 0xbe, 0x21, 0x97, 0xb0, 0x3d, 0x49, 0x06, 0x15, 0xbe,
  0xbe, 0xf9, 0x47, 0xbc, 0x4f, 0x1b, 0x2f, 0xbe, 0xd3, 0x3a, 0xc0, 0xbd,
  0x88, 0x34, 0xf3, 0xbd, 0x07, 0xb2, 0x13, 0x3c, 0x25, 0x0e, 0x5f, 0xbe,
  0x7b, 0x3e, 0x83, 0xbd, 0x35, 0xd8, 0x79, 0xbe, 0x8e, 0x9a, 0x5e, 0xbe,
  0xa5, 0xe8, 0xee, 0x3d, 0x50, 0x25, 0xa0, 0xbb, 0x8a, 0x21, 0x86, 0xbe,
  0x9a, 0x3f, 0xe5, 0x3d, 0x7a, 0xe1, 0xa3, 0x3b, 0xa6, 0xc9, 0xa2, 0xbd,
  0xe1, 0x9f, 0x56, 0xbe, 0xcc, 0x27, 0x50, 0xbe, 0x03, 0x3a, 0xe1, 0xbc,
  0x13, 0xf5, 0x07, 0xbe, 0x23, 0xcd, 0xf9, 0x3c, 0xd5, 0x5f, 0xa9, 0xbd,
  0xc3, 0x50, 0x1c, 0x3e, 0xeb, 0x1a, 0xfb, 0xbd, 0xe1, 0x01, 0xab, 0x3d,
  0x3e, 0xf7, 0x57, 0xbe, 0x5d, 0xea, 0x45, 0xbd, 0xcb, 0xab, 0x42, 0xbe,
  0x13, 0x72, 0x8c, 0xbe, 0xf4, 0xe6, 0x91, 0xbd, 0x3d, 0xd4, 0x3a, 0xbe,
  0xb9, 0x74, 0x28, 0x3e, 0x26, 0x7d, 0x25, 0xbe, 0xd4, 0x1b, 0x11, 0x3e,
  0x66, 0xfd, 0xff, 0xff, 0x10, 0x00, 0x00, 0x00, 0x07, 0x00, 0x00, 0x00,
  0x14, 0x00, 0x00, 0x00, 0x2c, 0x00, 0x00, 0x00, 0x02, 0x00, 0x00, 0x00,
  0x10, 0x00, 0x00, 0x00, 0x70, 0x00, 0x00, 0x00, 0x17, 0x00, 0x00, 0x00,
  0x73, 0x65, 0x71, 0x75, 0x65, 0x6e, 0x74, 0x69, 0x61, 0x6c, 0x2f, 0x64,
  0x65, 0x6e, 0x73, 0x65, 0x2f, 0x4d, 0x61, 0x74, 0x4d, 0x75, 0x6c, 0x00,
  0xd0, 0xfc, 0xff, 0xff, 0xda, 0xfd, 0xff, 0xff, 0x04, 0x00, 0x00, 0x00,
  0x08, 0x00, 0x00, 0x00, 0xff, 0xff, 0xff, 0xff, 0x70, 0x00, 0x00, 0x00,
  0x00, 0x00, 0x0e, 0x00, 0x18, 0x00, 0x08, 0x00, 0x07, 0x00, 0x0c, 0x00,
  0x10, 0x00, 0x14, 0x00, 0x0e, 0x00, 0x00, 0x00, 0x00, 0x00, 0x00, 0x02,
  0x10, 0x00, 0x00, 0x00, 0x06, 0x00, 0x00, 0x00, 0x10, 0x00, 0x00, 0x00,
  0x2c, 0x00, 0x00, 0x00, 0x01, 0x00, 0x00, 0x00, 0x02, 0x00, 0x00, 0x00,
  0x18, 0x00, 0x00, 0x00, 0x73, 0x65, 0x71, 0x75, 0x65, 0x6e, 0x74, 0x69,
  0x61, 0x6c, 0x2f, 0x66, 0x6c, 0x61, 0x74, 0x74, 0x65, 0x6e, 0x2f, 0x43,
  0x6f, 0x6e, 0x73, 0x74, 0x00, 0x00, 0x00, 0x00, 0x38, 0xfd, 0xff, 0xff,
  0x42, 0xfe, 0xff, 0xff, 0x04, 0x00, 0x00, 0x00, 0x0c, 0x00, 0x00, 0x00,
  0x69, 0x39, 0x87, 0xbf, 0xdc, 0x59, 0x1b, 0xc0, 0x15, 0x98, 0x03, 0x40,
  0x26, 0xfe, 0xff, 0xff, 0x10, 0x00, 0x00, 0x00, 0x05, 0x00, 0x00, 0x00,
  0x10, 0x00, 0x00, 0x00, 0x44, 0x00, 0x00, 0x00, 0x01, 0x00, 0x00, 0x00,
  0x03, 0x00, 0x00, 0x00, 0x32, 0x00, 0x00, 0x00, 0x73, 0x65, 0x71, 0x75,
  0x65, 0x6e, 0x74, 0x69, 0x61, 0x6c, 0x2f, 0x64, 0x65, 0x6e, 0x73, 0x65,
  0x5f, 0x31, 0x2f, 0x42, 0x69, 0x61, 0x73, 0x41, 0x64, 0x64, 0x2f, 0x52,
  0x65, 0x61, 0x64, 0x56, 0x61, 0x72, 0x69, 0x61, 0x62, 0x6c, 0x65, 0x4f,
  0x70, 0x2f, 0x72, 0x65, 0x73, 0x6f, 0x75, 0x72, 0x63, 0x65, 0x00, 0x00,
  0xa8, 0xfd, 0xff, 0xff, 0xb2, 0xfe, 0xff, 0xff, 0x04, 0x00, 0x00, 0x00,
  0x40, 0x00, 0x00, 0x00, 0x3a, 0x8a, 0x4a, 0x40, 0x27, 0xc1, 0xba, 0x3e,
  0x84, 0xc8, 0xd0, 0x3f, 0xa5, 0xf8, 0x26, 0xbe, 0x8e, 0x1d, 0x00, 0x3d,
  0x85, 0x3b, 0x85, 0x3c, 0xb7, 0x61, 0xc3, 0xbe, 0xfe, 0x70, 0xbb, 0xbe,
  0xc1, 0x13, 0xe2, 0xbd, 0xb8, 0xa5, 0xad, 0xbf, 0x1a, 0x8b, 0x3e, 0x40,
  0xf7, 0x85, 0xb7, 0x3d, 0xe7, 0x33, 0x3e, 0xbf, 0xa6, 0x79, 0x56, 0x3e,
  0x1b, 0x9c, 0xee, 0x3d, 0xeb, 0xe9, 0x83, 0xbe, 0xca, 0xfe, 0xff, 0xff,
  0x10, 0x00, 0x00, 0x00, 0x04, 0x00, 0x00, 0x00, 0x10, 0x00, 0x00, 0x00,
  0x44, 0x00, 0x00, 0x00, 0x01, 0x00, 0x00, 0x00, 0x10, 0x00, 0x00, 0x00,
  0x30, 0x00, 0x00, 0x00, 0x73, 0x65, 0x71, 0x75, 0x65, 0x6e, 0x74, 0x69,
  0x61, 0x6c, 0x2f, 0x64, 0x65, 0x6e, 0x73, 0x65, 0x2f, 0x42, 0x69, 0x61,
  0x73, 0x41, 0x64, 0x64, 0x2f, 0x52, 0x65, 0x61, 0x64, 0x56, 0x61, 0x72,
  0x69, 0x61, 0x62, 0x6c, 0x65, 0x4f, 0x70, 0x2f, 0x72, 0x65, 0x73, 0x6f,
  0x75, 0x72, 0x63, 0x65, 0x00, 0x00, 0x00, 0x00, 0x4c, 0xfe, 0xff, 0xff,
  0x56, 0xff, 0xff, 0xff, 0x04, 0x00, 0x00, 0x00, 0x40, 0x00, 0x00, 0x00,
  0x5a, 0xbb, 0x5d, 0x40, 0xbe, 0x3b, 0x40, 0xbf, 0xd2, 0x8e, 0xf0, 0xbc,
  0xde, 0x15, 0x2b, 0xc0, 0x0d, 0x14, 0xee, 0xba, 0xfa, 0x65, 0xeb, 0x3f,
  0x82, 0xf0, 0x9b, 0xbf, 0xd7, 0x5d, 0xaa, 0x3e, 0x4f, 0x7d, 0x93, 0x3e,
  0x76, 0x51, 0x78, 0xbd, 0x1b, 0xf2, 0xa4, 0xbf, 0x4f, 0xf2, 0x94, 0xbf,
  0xed, 0x89, 0x04, 0xbf, 0x83, 0x01, 0x69, 0xbf, 0xee, 0x38, 0xfd, 0xbb,
  0x4d, 0xa8, 0x63, 0xbc, 0x6e, 0xff, 0xff, 0xff, 0x10, 0x00, 0x00, 0x00,
  0x03, 0x00, 0x00, 0x00, 0x10, 0x00, 0x00, 0x00, 0x48, 0x00, 0x00, 0x00,
  0x01, 0x00, 0x00, 0x00, 0x10, 0x00, 0x00, 0x00, 0x33, 0x00, 0x00, 0x00,
  0x73, 0x65, 0x71, 0x75, 0x65, 0x6e, 0x74, 0x69, 0x61, 0x6c, 0x2f, 0x63,
  0x6f, 0x6e, 0x76, 0x32, 0x64, 0x5f, 0x31, 0x2f, 0x42, 0x69, 0x61, 0x73,
  0x41, 0x64, 0x64, 0x2f, 0x52, 0x65, 0x61, 0x64, 0x56, 0x61, 0x72, 0x69,
  0x61, 0x62, 0x6c, 0x65, 0x4f, 0x70, 0x2f, 0x72, 0x65, 0x73, 0x6f, 0x75,
  0x72, 0x63, 0x65, 0x00, 0x04, 0x00, 0x06, 0x00, 0x04, 0x00, 0x00, 0x00,
  0x00, 0x00, 0x06, 0x00, 0x08, 0x00, 0x04, 0x00, 0x06, 0x00, 0x00, 0x00,
  0x04, 0x00, 0x00, 0x00, 0x20, 0x00, 0x00, 0x00, 0xa6, 0x18, 0x08, 0xbf,
  0x24, 0x20, 0x39, 0xc0, 0xb7, 0x24, 0xc3, 0xbd, 0xd1, 0x94, 0x18, 0xc0,
  0xa4, 0x2f, 0x12, 0xc0, 0xaa, 0x84, 0x11, 0xc0, 0xfd, 0x30, 0xbd, 0xbf,
  0x41, 0x4b, 0xae, 0xbe, 0x00, 0x00, 0x0e, 0x00, 0x14, 0x00, 0x04, 0x00,
  0x00, 0x00, 0x08, 0x00, 0x0c, 0x00, 0x10, 0x00, 0x0e, 0x00, 0x00, 0x00,
  0x10, 0x00, 0x00, 0x00, 0x02, 0x00, 0x00, 0x00, 0x10, 0x00, 0x00, 0x00,
  0x44, 0x00, 0x00, 0x00, 0x01, 0x00, 0x00, 0x00, 0x08, 0x00, 0x00, 0x00,
  0x31, 0x00, 0x00, 0x00, 0x73, 0x65, 0x71, 0x75, 0x65, 0x6e, 0x74, 0x69,
  0x61, 0x6c, 0x2f, 0x63, 0x6f, 0x6e, 0x76, 0x32, 0x64, 0x2f, 0x42, 0x69,
  0x61, 0x73, 0x41, 0x64, 0x64, 0x2f, 0x52, 0x65, 0x61, 0x64, 0x56, 0x61,
  0x72, 0x69, 0x61, 0x62, 0x6c, 0x65, 0x4f, 0x70, 0x2f, 0x72, 0x65, 0x73,
  0x6f, 0x75, 0x72, 0x63, 0x65, 0x00, 0x00, 0x00, 0x90, 0xff, 0xff, 0xff,
  0x14, 0x00, 0x18, 0x00, 0x04, 0x00, 0x00, 0x00, 0x08, 0x00, 0x0c, 0x00,
  0x10, 0x00, 0x00, 0x00, 0x00, 0x00, 0x14, 0x00, 0x14, 0x00, 0x00, 0x00,
  0x14, 0x00, 0x00, 0x00, 0x01, 0x00, 0x00, 0x00, 0x20, 0x00, 0x00, 0x00,
  0x44, 0x00, 0x00, 0x00, 0x2c, 0x00, 0x00, 0x00, 0x04, 0x00, 0x00, 0x00,
  0x01, 0x00, 0x00, 0x00, 0x40, 0x00, 0x00, 0x00, 0x03, 0x00, 0x00, 0x00,
  0x01, 0x00, 0x00, 0x00, 0x0c, 0x00, 0x00, 0x00, 0x63, 0x6f, 0x6e, 0x76,
  0x32, 0x64, 0x5f, 0x69, 0x6e, 0x70, 0x75, 0x74, 0x00, 0x00, 0x00, 0x00,
  0x04, 0x00, 0x00, 0x00, 0xff, 0xff, 0xff, 0xff, 0x40, 0x00, 0x00, 0x00,
  0x03, 0x00, 0x00, 0x00, 0x01, 0x00, 0x00, 0x00, 0xfc, 0xff, 0xff, 0xff,
  0x04, 0x00, 0x04, 0x00, 0x04, 0x00, 0x00, 0x00
};
unsigned int model_tflite_len = 13052;

